#include "magic_wand_model_data.h"

// We need to keep the data array aligned on some architectures.
#ifdef __has_attribute
#define HAVE_ATTRIBUTE(x) __has_attribute(x)
#else
#define HAVE_ATTRIBUTE(x) 0
#endif
#if HAVE_ATTRIBUTE(aligned) || (defined(__GNUC__) && !defined(__clang__))
#define DATA_ALIGN_ATTRIBUTE __attribute__((aligned(4)))
#else
#define DATA_ALIGN_ATTRIBUTE
#endif

const unsigned char g_magic_wand_model_data[] DATA_ALIGN_ATTRIBUTE = {
  0x1c, 0x00, 0x00, 0x00, 0x54, 0x46, 0x4c, 0x33, 0x14, 0x00, 0x20, 0x00,
  0x04, 0x00, 0x08, 0x00, 0x0c, 0x00, 0x10, 0x00, 0x14, 0x00, 0x00, 0x00,
  0x18, 0x00, 0x1c, 0x00, 0x14, 0x00, 0x00, 0x00, 0x03, 0x00, 0x00, 0x00,
  0x18, 0x00, 0x00, 0x00, 0x2c, 0x00, 0x00, 0x00, 0xd8, 0x00, 0x00, 0x00,
  0x2c, 0x00, 0x00, 0x00, 0x80, 0x00, 0x00, 0x00, 0x78, 0x00, 0x00, 0x00,
  0x05, 0x00, 0x00, 0x00, 0x28, 0x07, 0x00, 0x00, 0x44, 0x06, 0x00, 0x00,
  0xbc, 0x03, 0x00, 0x00, 0xf8, 0x02, 0x00, 0x00, 0xac, 0x01, 0x00, 0x00,
  0x01, 0x00, 0x00, 0x00, 0xd0, 0x00, 0x00, 0x00, 0x14, 0x00, 0x00, 0x00,
  0xdc, 0x32, 0x00, 0x00, 0xd8, 0x32, 0x00, 0x00, 0xd0, 0x31, 0x00, 0x00,
  0x1c, 0x31, 0x00, 0x00, 0x74, 0x30, 0x00, 0x00, 0xfc, 0x2f, 0x00, 0x00,
  0x90, 0x2f, 0x00, 0x00, 0x40, 0x13, 0x00, 0x00, 0xec, 0x11, 0x00, 0x00,
  0x10, 0x10, 0x00, 0x00, 0xb4, 0x07, 0x00, 0x00, 0xb0, 0x32, 0x00, 0x00,
  0xac, 0x32, 0x00, 0x00, 0xa8, 0x32, 0x00, 0x00, 0xa4, 0x32, 0x00, 0x00,
  0xa0, 0x32, 0x00, 0x00, 0x9c, 0x32, 0x00, 0x00, 0x98, 0x32, 0x00, 0x00,
  0x94, 0x32, 0x00, 0x00, 0x3c, 0x00, 0x00, 0x00, 0x00, 0x00, 0x00, 0x00,
  0x01, 0x00, 0x00, 0x00, 0x0c, 0x00, 0x00, 0x00, 0x08, 0x00, 0x0c, 0x00,
  0x04, 0x00, 0x08, 0x00, 0x08, 0x00, 0x00, 0x00, 0x08, 0x00, 0x00, 0x00,
  0x13, 0x00, 0x00, 0x00, 0x13, 0x00, 0x00, 0x00, 0x6d, 0x69, 0x6e, 0x5f,
  0x72, 0x75, 0x6e, 0x74, 0x69, 0x6d, 0x65, 0x5f, 0x76, 0x65, 0x72, 0x73,
  0x69, 0x6f, 0x6e, 0x00, 0xb6, 0xce, 0xff, 0xff, 0x04, 0x00, 0x00, 0x00,
  0x10, 0x00, 0x00, 0x00, 0x31, 0x2e, 0x35, 0x2e, 0x30, 0x00, 0x00, 0x00,
  0x00, 0x00, 0x00, 0x00, 0x00, 0x00, 0x00, 0x00, 0x0f, 0x00, 0x00, 0x00,
  0x4d, 0x4c, 0x49, 0x52, 0x20, 0x43, 0x6f, 0x6e, 0x76, 0x65, 0x72, 0x74,
  0x65, 0x64, 0x2e, 0x00, 0x00, 0x00, 0x0e, 0x00, 0x18, 0x00, 0x04, 0x00,
  0x08, 0x00, 0x0c, 0x00, 0x10, 0x00, 0x14, 0x00, 0x0e, 0x00, 0x00, 0x00,
  0x14, 0x00, 0x00, 0x00, 0x5c, 0x00, 0x00, 0x00, 0x60, 0x00, 0x00, 0x00,
  0x64, 0x00, 0x00, 0x00, 0x84, 0x00, 0x00, 0x00, 0x12, 0x00, 0x00, 0x00,
  0x9c, 0x31, 0x00, 0x00, 0x2c, 0x31, 0x00, 0x00, 0x88, 0x30, 0x00, 0x00,
  0xe0, 0x2f, 0x00, 0x00, 0x38, 0x2f, 0x00, 0x00, 0xd4, 0x2e, 0x00, 0x00,
  0x6c, 0x2e, 0x00, 0x00, 0x18, 0x12, 0x00, 0x00, 0xbc, 0x10, 0x00, 0x00,
  0xe0, 0x0e, 0x00, 0x00, 0x0c, 0x06, 0x00, 0x00, 0x28, 0x05, 0x00, 0x00,
  0xe8, 0x03, 0x00, 0x00, 0x3c, 0x03, 0x00, 0x00, 0x98, 0x02, 0x00, 0x00,
  0xd4, 0x01, 0x00, 0x00, 0x10, 0x01, 0x00, 0x00, 0x84, 0x00, 0x00, 0x00,
  0x01, 0x00, 0x00, 0x00, 0x00, 0x00, 0x00, 0x00, 0x01, 0x00, 0x00, 0x00,
  0x11, 0x00, 0x00, 0x00, 0x08, 0x00, 0x00, 0x00, 0x74, 0x05, 0x00, 0x00,
  0x94, 0x04, 0x00, 0x00, 0x78, 0x03, 0x00, 0x00, 0xbc, 0x02, 0x00, 0x00,
  0x30, 0x02, 0x00, 0x00, 0x50, 0x01, 0x00, 0x00, 0xa8, 0x00, 0x00, 0x00,
  0x10, 0x00, 0x00, 0x00, 0x04, 0x00, 0x00, 0x00, 0x6d, 0x61, 0x69, 0x6e,
  0x00, 0x00, 0x00, 0x00, 0x7a, 0xff, 0xff, 0xff, 0x00, 0x00, 0x00, 0x09,
  0x04, 0x00, 0x00, 0x00, 0x1c, 0x00, 0x00, 0x00, 0x10, 0x00, 0x00, 0x00,
  0x04, 0x00, 0x00, 0x00, 0xb2, 0xcf, 0xff, 0xff, 0x00, 0x00, 0x80, 0x3f,
  0x01, 0x00, 0x00, 0x00, 0x11, 0x00, 0x00, 0x00, 0x01, 0x00, 0x00, 0x00,
  0x10, 0x00, 0x00, 0x00, 0xa0, 0xfa, 0xff, 0xff, 0x19, 0x00, 0x00, 0x00,
  0x00, 0x00, 0x00, 0x19, 0x01, 0x00, 0x00, 0x00, 0x40, 0xcf, 0xff, 0xff,
  0x14, 0x00, 0x00, 0x00, 0x12, 0x00, 0x00, 0x00, 0x18, 0x00, 0x00, 0x00,
  0x30, 0x00, 0x00, 0x00, 0x20, 0x00, 0x00, 0x00, 0x02, 0x00, 0x00, 0x00,
  0x01, 0x00, 0x00, 0x00, 0x04, 0x00, 0x00, 0x00, 0x08, 0x00, 0x00, 0x00,
  0x49, 0x64, 0x65, 0x6e, 0x74, 0x69, 0x74, 0x79, 0x00, 0x00, 0x00, 0x00,
  0x02, 0x00, 0x00, 0x00, 0xff, 0xff, 0xff, 0xff, 0x04, 0x00, 0x00, 0x00,
  0x24, 0xd0, 0xff, 0xff, 0x00, 0x00, 0x0e, 0x00, 0x18, 0x00, 0x08, 0x00,
  0x0c, 0x00, 0x10, 0x00, 0x07, 0x00, 0x14, 0x00, 0x0e, 0x00, 0x00, 0x00,
  0x00, 0x00, 0x00, 0x08, 0x03, 0x00, 0x00, 0x00, 0x18, 0x00, 0x00, 0x00,
  0x0c, 0x00, 0x00, 0x00, 0x04, 0x00, 0x00, 0x00, 0x40, 0xcf, 0xff, 0xff,
  0x01, 0x00, 0x00, 0x00, 0x10, 0x00, 0x00, 0x00, 0x03, 0x00, 0x00, 0x00,
  0x0f, 0x00, 0x00, 0x00, 0x07, 0x00, 0x00, 0x00, 0x04, 0x00, 0x00, 0x00,
  0xc8, 0xcf, 0xff, 0xff, 0x14, 0x00, 0x00, 0x00, 0x11, 0x00, 0x00, 0x00,
  0x18, 0x00, 0x00, 0x00, 0x5c, 0x00, 0x00, 0x00, 0x4c, 0x00, 0x00, 0x00,
  0x02, 0x00, 0x00, 0x00, 0x01, 0x00, 0x00, 0x00, 0x04, 0x00, 0x00, 0x00,
  0x34, 0x00, 0x00, 0x00, 0x73, 0x65, 0x71, 0x75, 0x65, 0x6e, 0x74, 0x69,
  0x61, 0x6c, 0x2f, 0x64, 0x65, 0x6e, 0x73, 0x65, 0x5f, 0x31, 0x2f, 0x4d,
  0x61, 0x74, 0x4d, 0x75, 0x6c, 0x3b, 0x73, 0x65, 0x71, 0x75, 0x65, 0x6e,
  0x74, 0x69, 0x61, 0x6c, 0x2f, 0x64, 0x65, 0x6e, 0x73, 0x65, 0x5f, 0x31,
  0x2f, 0x42, 0x69, 0x61, 0x73, 0x41, 0x64, 0x64, 0x00, 0x00, 0x00, 0x00,
  0x02, 0x00, 0x00, 0x00, 0xff, 0xff, 0xff, 0xff, 0x04, 0x00, 0x00, 0x00,
  0xc8, 0xcf, 0xff, 0xff, 0xda, 0xfc, 0xff, 0xff, 0x00, 0x00, 0x00, 0x08,
  0x03, 0x00, 0x00, 0x00, 0x24, 0x00, 0x00, 0x00, 0x18, 0x00, 0x00, 0x00,
  0x0c, 0x00, 0x00, 0x00, 0x00, 0x00, 0x06, 0x00, 0x08, 0x00, 0x07, 0x00,
  0x06, 0x00, 0x00, 0x00, 0x00, 0x00, 0x00, 0x01, 0x01, 0x00, 0x00, 0x00,
  0x0f, 0x00, 0x00, 0x00, 0x03, 0x00, 0x00, 0x00, 0x0e, 0x00, 0x00, 0x00,
  0x06, 0x00, 0x00, 0x00, 0x03, 0x00, 0x00, 0x00, 0xe8, 0xfb, 0xff, 0xff,
  0x09, 0x00, 0x00, 0x00, 0x00, 0x00, 0x00, 0x09, 0x01, 0x00, 0x00, 0x00,
  0x88, 0xd0, 0xff, 0xff, 0x14, 0x00, 0x00, 0x00, 0x10, 0x00, 0x00, 0x00,
  0x18, 0x00, 0x00, 0x00, 0x6c, 0x00, 0x00, 0x00, 0x5c, 0x00, 0x00, 0x00,
  0x02, 0x00, 0x00, 0x00, 0x01, 0x00, 0x00, 0x00, 0x10, 0x00, 0x00, 0x00,
  0x46, 0x00, 0x00, 0x00, 0x73, 0x65, 0x71, 0x75, 0x65, 0x6e, 0x74, 0x69,
  0x61, 0x6c, 0x2f, 0x64, 0x65, 0x6e, 0x73, 0x65, 0x2f, 0x4d, 0x61, 0x74,
  0x4d, 0x75, 0x6c, 0x3b, 0x73, 0x65, 0x71, 0x75, 0x65, 0x6e, 0x74, 0x69,
  0x61, 0x6c, 0x2f, 0x64, 0x65, 0x6e, 0x73, 0x65, 0x2f, 0x52, 0x65, 0x6c,
  0x75, 0x3b, 0x73, 0x65, 0x71, 0x75, 0x65, 0x6e, 0x74, 0x69, 0x61, 0x6c,
  0x2f, 0x64, 0x65, 0x6e, 0x73, 0x65, 0x2f, 0x42, 0x69, 0x61, 0x73, 0x41,
  0x64, 0x64, 0x00, 0x00, 0x02, 0x00, 0x00, 0x00, 0xff, 0xff, 0xff, 0xff,
  0x10, 0x00, 0x00, 0x00, 0xa8, 0xd1, 0xff, 0xff, 0x00, 0x00, 0x0a, 0x00,
  0x10, 0x00, 0x04, 0x00, 0x08, 0x00, 0x0c, 0x00, 0x0a, 0x00, 0x00, 0x00,
  0x02, 0x00, 0x00, 0x00, 0x10, 0x00, 0x00, 0x00, 0x04, 0x00, 0x00, 0x00,
  0x01, 0x00, 0x00, 0x00, 0x0e, 0x00, 0x00, 0x00, 0x02, 0x00, 0x00, 0x00,
  0x0d, 0x00, 0x00, 0x00, 0x05, 0x00, 0x00, 0x00, 0xa8, 0xfc, 0xff, 0xff,
  0x16, 0x00, 0x00, 0x00, 0x00, 0x00, 0x00, 0x16, 0x01, 0x00, 0x00, 0x00,
  0x48, 0xd1, 0xff, 0xff, 0x14, 0x00, 0x00, 0x00, 0x0f, 0x00, 0x00, 0x00,
  0x18, 0x00, 0x00, 0x00, 0x40, 0x00, 0x00, 0x00, 0x30, 0x00, 0x00, 0x00,
  0x02, 0x00, 0x00, 0x00, 0x01, 0x00, 0x00, 0x00, 0x70, 0x00, 0x00, 0x00,
  0x1a, 0x00, 0x00, 0x00, 0x73, 0x65, 0x71, 0x75, 0x65, 0x6e, 0x74, 0x69,
  0x61, 0x6c, 0x2f, 0x66, 0x6c, 0x61, 0x74, 0x74, 0x65, 0x6e, 0x2f, 0x52,
  0x65, 0x73, 0x68, 0x61, 0x70, 0x65, 0x00, 0x00, 0x02, 0x00, 0x00, 0x00,
  0xff, 0xff, 0xff, 0xff, 0x70, 0x00, 0x00, 0x00, 0x2c, 0xd1, 0xff, 0xff,
  0x3e, 0xfe, 0xff, 0xff, 0x00, 0x00, 0x00, 0x05, 0x01, 0x00, 0x00, 0x00,
  0x38, 0x00, 0x00, 0x00, 0x2c, 0x00, 0x00, 0x00, 0x14, 0x00, 0x00, 0x00,
  0x00, 0x00, 0x0e, 0x00, 0x14, 0x00, 0x00, 0x00, 0x10, 0x00, 0x0c, 0x00,
  0x08, 0x00, 0x04, 0x00, 0x0e, 0x00, 0x00, 0x00, 0x03, 0x00, 0x00, 0x00,
  0x01, 0x00, 0x00, 0x00, 0x03, 0x00, 0x00, 0x00, 0x01, 0x00, 0x00, 0x00,
  0x01, 0x00, 0x00, 0x00, 0x0d, 0x00, 0x00, 0x00, 0x01, 0x00, 0x00, 0x00,
  0x0c, 0x00, 0x00, 0x00, 0xe8, 0xd1, 0xff, 0xff, 0x14, 0x00, 0x00, 0x00,
  0x0e, 0x00, 0x00, 0x00, 0x20, 0x00, 0x00, 0x00, 0x58, 0x00, 0x00, 0x00,
  0x40, 0x00, 0x00, 0x00, 0x04, 0x00, 0x00, 0x00, 0x01, 0x00, 0x00, 0x00,
  0x07, 0x00, 0x00, 0x00, 0x01, 0x00, 0x00, 0x00, 0x10, 0x00, 0x00, 0x00,
  0x22, 0x00, 0x00, 0x00, 0x73, 0x65, 0x71, 0x75, 0x65, 0x6e, 0x74, 0x69,
  0x61, 0x6c, 0x2f, 0x6d, 0x61, 0x78, 0x5f, 0x70, 0x6f, 0x6f, 0x6c, 0x69,
  0x6e, 0x67, 0x32, 0x64, 0x5f, 0x31, 0x2f, 0x4d, 0x61, 0x78, 0x50, 0x6f,
  0x6f, 0x6c, 0x00, 0x00, 0x04, 0x00, 0x00, 0x00, 0xff, 0xff, 0xff, 0xff,
  0x07, 0x00, 0x00, 0x00, 0x01, 0x00, 0x00, 0x00, 0x10, 0x00, 0x00, 0x00,
  0xe4, 0xd1, 0xff, 0xff, 0x1a, 0xfe, 0xff, 0xff, 0x00, 0x00, 0x00, 0x01,
  0x24, 0x00, 0x00, 0x00, 0x18, 0x00, 0x00, 0x00, 0x04, 0x00, 0x00, 0x00,
  0x0c, 0xfe, 0xff, 0xff, 0x01, 0x00, 0x00, 0x00, 0x01, 0x00, 0x00, 0x00,
  0x00, 0x00, 0x00, 0x01, 0x01, 0x00, 0x00, 0x00, 0x0c, 0x00, 0x00, 0x00,
  0x03, 0x00, 0x00, 0x00, 0x0b, 0x00, 0x00, 0x00, 0x09, 0x00, 0x00, 0x00,
  0x02, 0x00, 0x00, 0x00, 0x90, 0xd2, 0xff, 0xff, 0x14, 0x00, 0x00, 0x00,
  0x0d, 0x00, 0x00, 0x00, 0x20, 0x00, 0x00, 0x00, 0xb8, 0x00, 0x00, 0x00,
  0xa0, 0x00, 0x00, 0x00, 0x04, 0x00, 0x00, 0x00, 0x01, 0x00, 0x00, 0x00,
  0x15, 0x00, 0x00, 0x00, 0x01, 0x00, 0x00, 0x00, 0x10, 0x00, 0x00, 0x00,
  0x83, 0x00, 0x00, 0x00, 0x73, 0x65, 0x71, 0x75, 0x65, 0x6e, 0x74, 0x69,
  0x61, 0x6c, 0x2f, 0x63, 0x6f, 0x6e, 0x76, 0x32, 0x64, 0x5f, 0x31, 0x2f,
  0x52, 0x65, 0x6c, 0x75, 0x3b, 0x73, 0x65, 0x71, 0x75, 0x65, 0x6e, 0x74,
  0x69, 0x61, 0x6c, 0x2f, 0x63, 0x6f, 0x6e, 0x76, 0x32, 0x64, 0x5f, 0x31,
  0x2f, 0x42, 0x69, 0x61, 0x73, 0x41, 0x64, 0x64, 0x3b, 0x73, 0x65, 0x71,
  0x75, 0x65, 0x6e, 0x74, 0x69, 0x61, 0x6c, 0x2f, 0x63, 0x6f, 0x6e, 0x76,
  0x32, 0x64, 0x5f, 0x31, 0x2f, 0x43, 0x6f, 0x6e, 0x76, 0x32, 0x44, 0x3b,
  0x73, 0x65, 0x71, 0x75, 0x65, 0x6e, 0x74, 0x69, 0x61, 0x6c, 0x2f, 0x63,
  0x6f, 0x6e, 0x76, 0x32, 0x64, 0x5f, 0x31, 0x2f, 0x42, 0x69, 0x61, 0x73,
  0x41, 0x64, 0x64, 0x2f, 0x52, 0x65, 0x61, 0x64, 0x56, 0x61, 0x72, 0x69,
  0x61, 0x62, 0x6c, 0x65, 0x4f, 0x70, 0x2f, 0x72, 0x65, 0x73, 0x6f, 0x75,
  0x72, 0x63, 0x65, 0x00, 0x04, 0x00, 0x00, 0x00, 0xff, 0xff, 0xff, 0xff,
  0x15, 0x00, 0x00, 0x00, 0x01, 0x00, 0x00, 0x00, 0x10, 0x00, 0x00, 0x00,
  0xfc, 0xd3, 0xff, 0xff, 0x00, 0x00, 0x0e, 0x00, 0x1a, 0x00, 0x08, 0x00,
  0x0c, 0x00, 0x10, 0x00, 0x07, 0x00, 0x14, 0x00, 0x0e, 0x00, 0x00, 0x00,
  0x00, 0x00, 0x00, 0x05, 0x01, 0x00, 0x00, 0x00, 0x3c, 0x00, 0x00, 0x00,
  0x30, 0x00, 0x00, 0x00, 0x14, 0x00, 0x00, 0x00, 0x00, 0x00, 0x0e, 0x00,
  0x18, 0x00, 0x17, 0x00, 0x10, 0x00, 0x0c, 0x00, 0x08, 0x00, 0x04, 0x00,
  0x0e, 0x00, 0x00, 0x00, 0x03, 0x00, 0x00, 0x00, 0x03, 0x00, 0x00, 0x00,
  0x03, 0x00, 0x00, 0x00, 0x03, 0x00, 0x00, 0x00, 0x00, 0x00, 0x00, 0x01,
  0x01, 0x00, 0x00, 0x00, 0x0b, 0x00, 0x00, 0x00, 0x01, 0x00, 0x00, 0x00,
  0x0a, 0x00, 0x00, 0x00, 0x2c, 0xff, 0xff, 0xff, 0x11, 0x00, 0x00, 0x00,
  0x00, 0x00, 0x00, 0x11, 0x01, 0x00, 0x00, 0x00, 0xcc, 0xd3, 0xff, 0xff,
  0x14, 0x00, 0x00, 0x00, 0x0c, 0x00, 0x00, 0x00, 0x20, 0x00, 0x00, 0x00,
  0x58, 0x00, 0x00, 0x00, 0x40, 0x00, 0x00, 0x00, 0x04, 0x00, 0x00, 0x00,
  0x01, 0x00, 0x00, 0x00, 0x15, 0x00, 0x00, 0x00, 0x01, 0x00, 0x00, 0x00,
  0x08, 0x00, 0x00, 0x00, 0x20, 0x00, 0x00, 0x00, 0x73, 0x65, 0x71, 0x75,
  0x65, 0x6e, 0x74, 0x69, 0x61, 0x6c, 0x2f, 0x6d, 0x61, 0x78, 0x5f, 0x70,
  0x6f, 0x6f, 0x6c, 0x69, 0x6e, 0x67, 0x32, 0x64, 0x2f, 0x4d, 0x61, 0x78,
  0x50, 0x6f, 0x6f, 0x6c, 0x00, 0x00, 0x00, 0x00, 0x04, 0x00, 0x00, 0x00,
  0xff, 0xff, 0xff, 0xff, 0x15, 0x00, 0x00, 0x00, 0x01, 0x00, 0x00, 0x00,
  0x08, 0x00, 0x00, 0x00, 0xd8, 0xd4, 0xff, 0xff, 0x00, 0x00, 0x0e, 0x00,
  0x14, 0x00, 0x00, 0x00, 0x08, 0x00, 0x0c, 0x00, 0x07, 0x00, 0x10, 0x00,
  0x0e, 0x00, 0x00, 0x00, 0x00, 0x00, 0x00, 0x01, 0x30, 0x00, 0x00, 0x00,
  0x24, 0x00, 0x00, 0x00, 0x10, 0x00, 0x00, 0x00, 0x0c, 0x00, 0x10, 0x00,
  0x00, 0x00, 0x04, 0x00, 0x08, 0x00, 0x0f, 0x00, 0x0c, 0x00, 0x00, 0x00,
  0x01, 0x00, 0x00, 0x00, 0x01, 0x00, 0x00, 0x00, 0x00, 0x00, 0x00, 0x01,
  0x01, 0x00, 0x00, 0x00, 0x0a, 0x00, 0x00, 0x00, 0x03, 0x00, 0x00, 0x00,
  0x00, 0x00, 0x00, 0x00, 0x08, 0x00, 0x00, 0x00, 0x01, 0x00, 0x00, 0x00,
  0x0c, 0x00, 0x10, 0x00, 0x0b, 0x00, 0x00, 0x00, 0x0c, 0x00, 0x04, 0x00,
  0x0c, 0x00, 0x00, 0x00, 0x03, 0x00, 0x00, 0x00, 0x00, 0x00, 0x00, 0x03,
  0x01, 0x00, 0x00, 0x00, 0xac, 0xd4, 0xff, 0xff, 0x14, 0x00, 0x00, 0x00,
  0x0b, 0x00, 0x00, 0x00, 0x20, 0x00, 0x00, 0x00, 0xb0, 0x00, 0x00, 0x00,
  0x98, 0x00, 0x00, 0x00, 0x04, 0x00, 0x00, 0x00, 0x01, 0x00, 0x00, 0x00,
  0x40, 0x00, 0x00, 0x00, 0x03, 0x00, 0x00, 0x00, 0x08, 0x00, 0x00, 0x00,
  0x7b, 0x00, 0x00, 0x00, 0x73, 0x65, 0x71, 0x75, 0x65, 0x6e, 0x74, 0x69,
  0x61, 0x6c, 0x2f, 0x63, 0x6f, 0x6e, 0x76, 0x32, 0x64, 0x2f, 0x52, 0x65,
  0x6c, 0x75, 0x3b, 0x73, 0x65, 0x71, 0x75, 0x65, 0x6e, 0x74, 0x69, 0x61,
  0x6c, 0x2f, 0x63, 0x6f, 0x6e, 0x76, 0x32, 0x64, 0x2f, 0x42, 0x69, 0x61,
  0x73, 0x41, 0x64, 0x64, 0x3b, 0x73, 0x65, 0x71, 0x75, 0x65, 0x6e, 0x74,
  0x69, 0x61, 0x6c, 0x2f, 0x63, 0x6f, 0x6e, 0x76, 0x32, 0x64, 0x2f, 0x43,
  0x6f, 0x6e, 0x76, 0x32, 0x44, 0x3b, 0x73, 0x65, 0x71, 0x75, 0x65, 0x6e,
  0x74, 0x69, 0x61, 0x6c, 0x2f, 0x63, 0x6f, 0x6e, 0x76, 0x32, 0x64, 0x2f,
  0x42, 0x69, 0x61, 0x73, 0x41, 0x64, 0x64, 0x2f, 0x52, 0x65, 0x61, 0x64,
  0x56, 0x61, 0x72, 0x69, 0x61, 0x62, 0x6c, 0x65, 0x4f, 0x70, 0x2f, 0x72,
  0x65, 0x73, 0x6f, 0x75, 0x72, 0x63, 0x65, 0x00, 0x04, 0x00, 0x00, 0x00,
  0xff, 0xff, 0xff, 0xff, 0x40, 0x00, 0x00, 0x00, 0x03, 0x00, 0x00, 0x00,
  0x08, 0x00, 0x00, 0x00, 0x00, 0xd5, 0xff, 0xff, 0x0a, 0xd6, 0xff, 0xff,
  0x04, 0x00, 0x00, 0x00, 0x00, 0x08, 0x00, 0x00, 0xe5, 0xd6, 0xf9, 0x3d,
  0xde, 0xb4, 0xa4, 0x3e, 0xa0, 0x68, 0x60, 0xbe, 0xb0, 0xc2, 0xbb, 0x3e,
  0x29, 0xbe, 0x00, 0xbf, 0x29, 0xed, 0x85, 0xbf, 0x39, 0xfb, 0x7f, 0xbd,
  0x0f, 0xdd, 0x90, 0x3d, 0xc9, 0xbf, 0xa5, 0x3c, 0xe8, 0x38, 0x31, 0x3e,
  0x86, 0xa4, 0xa8, 0xbe, 0x5b, 0x15, 0x6a, 0xbc, 0x98, 0x06, 0xfc, 0xbc,
  0xf5, 0x48, 0xc6, 0x3e, 0x08, 0x98, 0x53, 0xbd, 0xad, 0x2b, 0xcb, 0xbd,
  0x52, 0x04, 0x09, 0x3e, 0x91, 0x68, 0xae, 0xbe, 0x7a, 0x37, 0x11, 0xbf,
  0x6a, 0x63, 0x2e, 0xbe, 0xc8, 0x83, 0xf6, 0xbd, 0xc7, 0x5a, 0xdc, 0xbe,
  0x59, 0x03, 0x66, 0xbd, 0x41, 0x81, 0x87, 0xbe, 0x46, 0x45, 0x7b, 0x3d,
  0xf4, 0x6e, 0x11, 0xbf, 0x2a, 0x67, 0x02, 0xbf, 0xaf, 0x5a, 0xdc, 0xbd,
  0x88, 0x99, 0x23, 0xbe, 0x1f, 0xf0, 0x71, 0xbe, 0x4b, 0x28, 0x1a, 0xbe,
  0x09, 0x9d, 0x50, 0xbe, 0xb4, 0x74, 0xef, 0x3e, 0x43, 0xd6, 0x33, 0x3d,
  0xe5, 0x0f, 0x35, 0xbe, 0x1e, 0xc8, 0x47, 0x3e, 0x62, 0xed, 0x8c, 0xbc,
  0x24, 0xfa, 0x9e, 0xbd, 0x57, 0x9f, 0x68, 0x3e, 0x73, 0x6f, 0x0c, 0xbf,
  0xb2, 0xaf, 0x44, 0x3d, 0x41, 0x55, 0x1f, 0xbe, 0xc3, 0xb1, 0xfb, 0xbd,
  0x73, 0x30, 0x14, 0xbf, 0x7f, 0xa1, 0x0a, 0x3e, 0xe8, 0x6a, 0x0c, 0x3e,
  0x7b, 0xb0, 0x98, 0x3d, 0xc0, 0xe9, 0x77, 0xbe, 0x7b, 0xa0, 0x40, 0xbe,
  0xc0, 0xce, 0x3b, 0x3d, 0xeb, 0xe9, 0x3a, 0xbd, 0x6d, 0xce, 0x82, 0xbe,
  0x4c, 0x43, 0x9f, 0xbd, 0x41, 0x8e, 0x82, 0x3d, 0xc7, 0xbc, 0x84, 0xbd,
  0x50, 0x0a, 0x91, 0xbd, 0x9a, 0x3f, 0x6c, 0xbe, 0xc8, 0x61, 0x52, 0x3e,
  0x34, 0x41, 0xe6, 0x3d, 0x35, 0x8a, 0xbc, 0xbd, 0x54, 0x86, 0xf1, 0xbd,
  0xc2, 0xab, 0x59, 0xbc, 0x78, 0x97, 0x62, 0xbe, 0xa6, 0x7f, 0x84, 0x3d,
  0x00, 0x36, 0x48, 0xbe, 0xad, 0xe1, 0x2b, 0xbc, 0x31, 0x6b, 0x5e, 0x3e,
  0xef, 0x8b, 0x4d, 0x3e, 0xe0, 0x5a, 0x5c, 0xbd, 0x19, 0x02, 0x06, 0xbd,
  0x0c, 0xd5, 0x4f, 0xbe, 0x5c, 0x84, 0xa5, 0x3c, 0x8d, 0x83, 0x22, 0xbe,
  0xd8, 0xbf, 0x56, 0x3e, 0xc6, 0x35, 0x1f, 0x3d, 0x39, 0x38, 0xbb, 0x3d,
  0xd6, 0x18, 0x16, 0xbc, 0x5a, 0x45, 0xce, 0xbe, 0xd6, 0x17, 0x49, 0xbe,
  0xf9, 0x95, 0x37, 0xbd, 0xa6, 0x30, 0x83, 0xbe, 0x1e, 0xf9, 0x4d, 0x3b,
  0x0d, 0x48, 0x1e, 0xbd, 0x25, 0xf8, 0x04, 0x3e, 0x74, 0x68, 0x0f, 0xbe,
  0xdd, 0xbf, 0x9b, 0xbe, 0x2e, 0xd2, 0x7f, 0xbe, 0xdd, 0x61, 0x87, 0xbd,
  0x18, 0x7f, 0x33, 0xbe, 0xef, 0x5f, 0xd2, 0xbc, 0x9e, 0x46, 0x3f, 0xbe,
  0x75, 0x39, 0x2e, 0x3e, 0x63, 0x48, 0x0f, 0xbd, 0x25, 0x59, 0xb4, 0xbe,
  0xb3, 0xd1, 0xde, 0xbd, 0x2d, 0x9f, 0x63, 0xbc, 0xde, 0xeb, 0x2e, 0xbe,
  0x90, 0x91, 0x20, 0xbe, 0x9d, 0xbc, 0x86, 0xbe, 0x21, 0xe1, 0xa9, 0x3e,
  0xf9, 0x70, 0x1d, 0xbf, 0xde, 0x32, 0x0e, 0xbf, 0xbb, 0x59, 0x9c, 0xbe,
  0x4c, 0x25, 0x19, 0xbe, 0x36, 0x14, 0x8b, 0xbc, 0x47, 0x37, 0xe4, 0x3d,
  0xcc, 0x55, 0xba, 0xbb, 0xcb, 0x79, 0x57, 0x3e, 0x7a, 0x16, 0x7d, 0x3e,
  0x74, 0xe1, 0xa2, 0xbe, 0x70, 0x4e, 0xb5, 0x3d, 0x88, 0x2d, 0x69, 0x3d,
  0x9c, 0xe7, 0x73, 0xbc, 0x21, 0xda, 0x8c, 0xbe, 0x99, 0x4e, 0xc5, 0x3b,
  0xfb, 0xf4, 0x83, 0xbe, 0xfc, 0xf6, 0x89, 0x3d, 0x6c, 0x4c, 0x61, 0xbe,
  0x64, 0x84, 0xc8, 0xbe, 0xd1, 0xe4, 0x90, 0x3d, 0x4b, 0xde, 0x13, 0xbd,
  0x14, 0xe4, 0x64, 0xbe, 0x38, 0xf8, 0x26, 0x3c, 0xbb, 0x57, 0x34, 0xbe,
  0xa5, 0x8d, 0x73, 0x3e, 0x1c, 0x3d, 0x34, 0xbd, 0x91, 0xae, 0x09, 0x3c,
  0x9c, 0x80, 0x51, 0x3d, 0x5f, 0x7a, 0x2a, 0xbd, 0xc0, 0x5a, 0x72, 0xbe,
  0xfa, 0x32, 0xad, 0xba, 0xf8, 0x3c, 0x27, 0x3d, 0xde, 0x77, 0x32, 0xbe,
  0xad, 0xa3, 0xb9, 0x3d, 0x1f, 0x88, 0x85, 0xbe, 0x5f, 0xb9, 0x1f, 0x3c,
  0xe8, 0xb3, 0x1f, 0x3e, 0x20, 0x26, 0x98, 0xbe, 0x79, 0x01, 0xd7, 0xbd,
  0xdc, 0x0a, 0xe7, 0x3d, 0x8c, 0x51, 0x0c, 0x3d, 0x43, 0x95, 0x01, 0x3e,
  0x41, 0x00, 0xaa, 0x3d, 0xfc, 0xaa, 0x81, 0xbe, 0x35, 0xc8, 0x0b, 0xbc,
  0x58, 0xc4, 0x36, 0xbe, 0x36, 0x7e, 0xbe, 0xbd, 0xa4, 0xd2, 0xf0, 0xbd,
  0xea, 0x71, 0x00, 0x3f, 0x58, 0xb7, 0x54, 0xbd, 0x2f, 0x5a, 0xea, 0xbd,
  0x98, 0xb5, 0x7b, 0xbd, 0xba, 0xcb, 0x6f, 0xbc, 0xb9, 0xa3, 0x6e, 0xbe,
  0xc7, 0x8e, 0x02, 0xbc, 0x17, 0x89, 0x47, 0xbd, 0xf1, 0xbe, 0x0f, 0x3d,
  0x0f, 0x0b, 0xa7, 0x3d, 0xd3, 0xb1, 0xcc, 0xbd, 0x03, 0x14, 0x09, 0x3e,
  0xa7, 0x64, 0xde, 0xbd, 0x16, 0xd5, 0x62, 0x3b, 0xf7, 0x91, 0x17, 0x3d,
  0x9b, 0x3e, 0x98, 0x3d, 0xec, 0x6f, 0x55, 0xbd, 0x1f, 0x90, 0x01, 0xbf,
  0x3e, 0x60, 0xb3, 0xbe, 0x36, 0x0a, 0xbf, 0xbd, 0x82, 0x35, 0x0e, 0xbe,
  0x81, 0xff, 0x02, 0x3f, 0xaf, 0x07, 0xc0, 0x3d, 0xc1, 0x5e, 0x1d, 0xbd,
  0xb3, 0xb2, 0xed, 0x3d, 0x74, 0xb5, 0xd0, 0xbe, 0x1a, 0x6b, 0xb6, 0xbe,
  0x3b, 0x55, 0x77, 0x3d, 0xf1, 0x48, 0x04, 0xbe, 0x6e, 0xc8, 0x80, 0xbe,
  0xa8, 0xba, 0x85, 0x3d, 0x04, 0x3d, 0x27, 0x3d, 0x8e, 0x07, 0x6e, 0xbd,
  0x9a, 0x4b, 0xfc, 0xbe, 0xef, 0xf0, 0xc4, 0xbe, 0xfa, 0x00, 0x1d, 0xbe,
  0xe3, 0x94, 0xe0, 0x3e, 0xaf, 0x10, 0x36, 0xbe, 0x09, 0xc3, 0xca, 0x3c,
  0x6a, 0xcd, 0xc4, 0xbd, 0xcc, 0xb7, 0x7d, 0xbb, 0x74, 0xba, 0x48, 0x3d,
  0x4a, 0xae, 0x03, 0x3e, 0x01, 0x0e, 0xd1, 0xbd, 0x15, 0x18, 0x46, 0xbe,
  0xcc, 0xe8, 0xf0, 0xbc, 0xb2, 0x9c, 0x34, 0xbf, 0xdc, 0xbd, 0x4f, 0x3c,
  0x99, 0xd0, 0xc7, 0xbe, 0x94, 0x28, 0xfa, 0xbe, 0x9d, 0x6b, 0x0f, 0xbe,
  0xd4, 0x5f, 0x20, 0xbe, 0xb6, 0x3d, 0x24, 0x3d, 0xc4, 0x1f, 0xb3, 0x3d,
  0x3d, 0x55, 0x45, 0xbe, 0x84, 0x2c, 0xeb, 0x3e, 0x2f, 0x72, 0xd4, 0x3d,
  0x70, 0xe1, 0x14, 0x3c, 0xaf, 0xac, 0x73, 0x3e, 0x51, 0xf1, 0x4c, 0x3c,
  0xfa, 0xe9, 0x2a, 0xbd, 0xa6, 0x52, 0x92, 0xbe, 0x65, 0x2a, 0x9e, 0xbc,
  0xfb, 0xce, 0xe7, 0xbe, 0x17, 0x07, 0xe5, 0x3d, 0x13, 0x4b, 0xb7, 0x3e,
  0xaf, 0x29, 0x6a, 0x3d, 0x3b, 0xec, 0x8b, 0x3d, 0x6c, 0xdb, 0x5d, 0xbd,
  0xfa, 0x94, 0xa7, 0xbe, 0xce, 0x38, 0x85, 0x3d, 0xc2, 0xcb, 0x99, 0xbe,
  0x1e, 0x74, 0x42, 0x3e, 0x52, 0x1b, 0x97, 0x3d, 0x58, 0x31, 0x7d, 0x3d,
  0xa7, 0x12, 0x07, 0x3e, 0xc9, 0xa7, 0xb7, 0xbd, 0xf5, 0x77, 0x2f, 0xbd,
  0x03, 0xd7, 0xcf, 0xbc, 0x23, 0x7f, 0x89, 0xbe, 0xbe, 0xeb, 0xb4, 0xbd,
  0x7d, 0x5e, 0x91, 0x3d, 0xf5, 0x26, 0x2e, 0xbe, 0x2e, 0x9f, 0xd5, 0xbc,
  0x56, 0xf4, 0xc8, 0xbd, 0x65, 0xbe, 0xa1, 0xbd, 0x86, 0xf6, 0xb4, 0x3d,
  0x67, 0x77, 0x2b, 0xbe, 0x7a, 0x4a, 0x43, 0xbe, 0x64, 0xf2, 0xe1, 0xbe,
  0xce, 0xc7, 0xe6, 0xbe, 0x8a, 0x00, 0xab, 0xbd, 0x42, 0x9a, 0x40, 0xbd,
  0xbc, 0xa4, 0xe2, 0x3e, 0x87, 0x3c, 0x2f, 0xbd, 0x19, 0x31, 0xf8, 0x3e,
  0x5f, 0x0c, 0xfe, 0xbd, 0x0b, 0xb4, 0x10, 0xbf, 0x02, 0xd9, 0x06, 0xbe,
  0xd1, 0xcc, 0x3a, 0xbe, 0x6d, 0x6e, 0x9a, 0x3e, 0x1c, 0xc3, 0xc6, 0xbd,
  0x97, 0x99, 0xc5, 0xbc, 0xc6, 0x31, 0x38, 0x3d, 0x33, 0x5c, 0x8b, 0x3e,
  0x37, 0x76, 0x00, 0xbd, 0x1a, 0x95, 0xf8, 0x3d, 0x6d, 0xf7, 0x81, 0xbe,
  0x70, 0xeb, 0xd5, 0xbd, 0x47, 0x33, 0x99, 0xbe, 0xaf, 0x65, 0xc0, 0xbd,
  0xe3, 0x8d, 0x1b, 0xbe, 0xb8, 0x29, 0x3d, 0xbe, 0xcb, 0x27, 0x01, 0xbf,
  0x0a, 0xcb, 0xf0, 0xbe, 0xab, 0x46, 0x96, 0xbd, 0x56, 0x3e, 0xbf, 0xbe,
  0xf5, 0xd3, 0x91, 0xbe, 0x89, 0xc9, 0x8f, 0xbd, 0x73, 0x99, 0xd1, 0xbe,
  0x72, 0x3d, 0x35, 0xbd, 0x56, 0xe1, 0x7b, 0x3e, 0x81, 0xa5, 0xa5, 0xbe,
  0x74, 0xa2, 0x7b, 0xbc, 0x4a, 0xbc, 0x4d, 0xbe, 0x11, 0x1f, 0x10, 0xbe,
  0xa1, 0x81, 0x36, 0xbd, 0x39, 0x9e, 0x6a, 0xbe, 0x4a, 0x66, 0x0e, 0xbe,
  0x45, 0x6a, 0x10, 0xbd, 0xad, 0x67, 0x21, 0x3d, 0x62, 0xe6, 0x56, 0x3d,
  0xed, 0x00, 0x94, 0xbd, 0x0f, 0x18, 0x8e, 0x3e, 0xcf, 0x9d, 0x49, 0x3e,
  0xe3, 0xf3, 0x4b, 0x3d, 0x8d, 0xf4, 0xe9, 0x3d, 0x37, 0x5c, 0x8e, 0x3e,
  0x5e, 0xef, 0x18, 0x3e, 0xaf, 0x21, 0x7d, 0x3d, 0xf0, 0xcf, 0x16, 0xbe,
  0x9f, 0x49, 0xa0, 0x3e, 0xe1, 0xa2, 0x53, 0x3c, 0x42, 0x4e, 0x44, 0x3d,
  0xa5, 0x27, 0x5c, 0xbd, 0xaf, 0xfd, 0x06, 0xbe, 0x35, 0xaf, 0x41, 0xbe,
  0x03, 0x08, 0xfd, 0x3c, 0xcf, 0x4c, 0x93, 0xbd, 0x1d, 0xd0, 0x15, 0xbe,
  0x1f, 0x72, 0xa2, 0x3e, 0x1b, 0xf3, 0xb1, 0x3d, 0xd6, 0xbd, 0xb7, 0x3d,
  0x00, 0x30, 0x15, 0xbd, 0x00, 0x0a, 0x39, 0xbd, 0x0e, 0xbd, 0x33, 0x3e,
  0x81, 0x06, 0x82, 0x3e, 0xe4, 0xad, 0x40, 0x3d, 0x0c, 0xa9, 0x12, 0x3e,
  0x8c, 0xe8, 0x08, 0xbe, 0xb6, 0x73, 0xc1, 0x3d, 0x63, 0x35, 0x64, 0xbd,
  0xd8, 0xd0, 0x48, 0xbd, 0xe8, 0xe2, 0xd7, 0xbd, 0xeb, 0xf5, 0x2a, 0xbd,
  0x4a, 0xac, 0x07, 0xbd, 0x26, 0x35, 0x2e, 0xbe, 0xb4, 0x0b, 0x38, 0xbe,
  0x3a, 0xa7, 0xaf, 0xbd, 0xea, 0x61, 0x7f, 0x3d, 0x67, 0x14, 0xa7, 0xbd,
  0x5b, 0x67, 0xf7, 0xbd, 0xa2, 0x5e, 0xf0, 0xbd, 0x5e, 0xfe, 0x7f, 0x3d,
  0x87, 0xe5, 0xf2, 0xbe, 0x02, 0x94, 0x25, 0x3e, 0x04, 0x99, 0x7c, 0xbe,
  0xc5, 0xea, 0x6a, 0x3e, 0xa7, 0x5f, 0x28, 0x3e, 0x4c, 0xc9, 0xb3, 0xbe,
  0xee, 0x6a, 0xc0, 0xbd, 0xcb, 0x9c, 0x0f, 0x3d, 0x14, 0x85, 0x05, 0xbf,
  0x1c, 0x6c, 0x29, 0x3f, 0xd5, 0xe5, 0xa9, 0xbd, 0xbe, 0xf0, 0x2b, 0x3e,
  0x89, 0xe6, 0x4c, 0x3e, 0x76, 0x69, 0x15, 0xbf, 0x60, 0x1c, 0x47, 0xbe,
  0xb7, 0x1b, 0x0b, 0x3e, 0x83, 0x6f, 0x98, 0xbe, 0xce, 0x7b, 0x74, 0xbc,
  0x56, 0x48, 0x8b, 0x3d, 0xd1, 0x76, 0x52, 0x3d, 0x82, 0x43, 0x72, 0x3e,
  0x87, 0x43, 0x77, 0xbe, 0xc7, 0x53, 0x32, 0xbe, 0x55, 0x44, 0x96, 0x3d,
  0xf4, 0xb5, 0x01, 0xbe, 0x32, 0x89, 0xb0, 0x3e, 0xdf, 0x56, 0x9c, 0xbd,
  0x56, 0x6d, 0x34, 0x3e, 0x75, 0xf3, 0x20, 0xbd, 0xd7, 0x37, 0xe3, 0xbd,
  0xe8, 0x70, 0x93, 0xbd, 0xa3, 0x01, 0xdc, 0x3e, 0x1f, 0x44, 0x5a, 0xbd,
  0x30, 0x45, 0xd3, 0xbd, 0x16, 0x38, 0x29, 0x3e, 0x1d, 0x06, 0xec, 0x3e,
  0x22, 0x14, 0xc4, 0x3e, 0xca, 0x5e, 0xa0, 0x3c, 0xa4, 0x53, 0x11, 0xbe,
  0x15, 0xfe, 0x9b, 0xbd, 0xf5, 0x4d, 0x01, 0xbc, 0xe9, 0xd8, 0x18, 0xbe,
  0xf3, 0x52, 0x28, 0x3d, 0x32, 0xba, 0x0d, 0x3e, 0xd6, 0xca, 0x30, 0xbe,
  0x9e, 0x9d, 0x0e, 0xbd, 0x98, 0xea, 0x6f, 0xbd, 0x9a, 0x2e, 0x4b, 0xbe,
  0x64, 0x6b, 0x33, 0xbd, 0xd0, 0x8d, 0x94, 0xbc, 0x21, 0x09, 0x07, 0x3d,
  0x8d, 0xdb, 0x84, 0xbe, 0xfd, 0x74, 0x11, 0xbe, 0x05, 0x65, 0x6a, 0xbc,
  0xc0, 0x96, 0xed, 0xbd, 0xdc, 0xcf, 0x77, 0xbe, 0xe4, 0x73, 0xbd, 0xbc,
  0xf9, 0xa3, 0x55, 0x3c, 0x6a, 0xbd, 0xc4, 0xbd, 0x4a, 0x57, 0xbf, 0xbe,
  0x5e, 0xb1, 0x9a, 0xbe, 0x78, 0x08, 0x98, 0x3c, 0x7f, 0xc2, 0xb9, 0xbd,
  0x63, 0x0c, 0x31, 0xbe, 0x7d, 0xa3, 0x60, 0xbd, 0xbb, 0x0b, 0x9b, 0xbc,
  0x4c, 0xc2, 0x02, 0xbe, 0x42, 0xa4, 0x84, 0x3d, 0x48, 0xcc, 0x78, 0x3e,
  0x39, 0xbb, 0x17, 0xbd, 0x73, 0x26, 0x78, 0x3e, 0x3d, 0x9d, 0xe0, 0xbd,
  0xac, 0xe6, 0x57, 0xbd, 0x1a, 0xee, 0xb2, 0x3d, 0xd6, 0xcd, 0x35, 0xbe,
  0x34, 0x50, 0x1b, 0xbd, 0x08, 0x49, 0x5f, 0x3e, 0xbe, 0xee, 0x9c, 0xbc,
  0x6f, 0xff, 0x7f, 0x3e, 0x6f, 0x7b, 0x7a, 0xbd, 0x47, 0x33, 0x51, 0xbe,
  0x85, 0x26, 0x11, 0x3e, 0xdb, 0x92, 0x8a, 0xbe, 0x0e, 0xe9, 0x80, 0xbe,
  0x40, 0x2f, 0xf0, 0xbc, 0x04, 0xc1, 0x4e, 0x3d, 0xde, 0x16, 0x28, 0x3e,
  0xb1, 0x57, 0xf5, 0x3d, 0x7a, 0x51, 0x50, 0xbe, 0x05, 0x9d, 0x43, 0xbd,
  0x19, 0x29, 0x31, 0xbe, 0x5b, 0x29, 0x80, 0xbd, 0x56, 0xbd, 0x3e, 0x3d,
  0xfc, 0x09, 0xac, 0x3e, 0x5c, 0x3a, 0x01, 0xbe, 0x58, 0x96, 0xd3, 0x3e,
  0xc3, 0x98, 0xb3, 0x3e, 0x00, 0x55, 0xc3, 0x3e, 0x31, 0x3a, 0xa3, 0xbd,
  0x20, 0xf0, 0xb9, 0xbd, 0x49, 0xc7, 0x22, 0xbd, 0x84, 0xdf, 0x7d, 0x3c,
  0xec, 0x4e, 0xf9, 0xbe, 0x15, 0xa2, 0xcf, 0xbd, 0x1b, 0x97, 0xac, 0xbd,
  0x1f, 0xe3, 0x12, 0x3e, 0x17, 0x34, 0x08, 0xbf, 0xfb, 0xf6, 0x1e, 0xbf,
  0xe6, 0xfa, 0x32, 0xbf, 0xc6, 0x05, 0xb3, 0xbd, 0x12, 0xa0, 0x99, 0xbe,
  0xd7, 0x02, 0xc6, 0xbd, 0x25, 0xbb, 0x2f, 0xbe, 0xf1, 0xde, 0x99, 0x3e,
  0x1f, 0x01, 0x9f, 0xbe, 0xe3, 0x3f, 0x8c, 0xbe, 0x95, 0x86, 0x44, 0xbd,
  0xbf, 0x85, 0x76, 0xbd, 0x2e, 0xc4, 0xcd, 0xbc, 0x2c, 0x0e, 0x03, 0xbd,
  0x26, 0x82, 0x52, 0xbe, 0xaf, 0x9b, 0x7f, 0x3e, 0xc3, 0xce, 0x1b, 0xbe,
  0x44, 0x4b, 0x34, 0xbd, 0xa4, 0x60, 0x65, 0x3d, 0x14, 0x48, 0x07, 0xbd,
  0x16, 0xb5, 0xa7, 0xbd, 0x83, 0x1a, 0xa9, 0x3d, 0x7f, 0x6a, 0x01, 0x3e,
  0x58, 0x95, 0x7e, 0x3c, 0x3d, 0x68, 0x9a, 0x3e, 0x09, 0xc9, 0x08, 0xbd,
  0xf5, 0x49, 0x45, 0x3e, 0x9c, 0xae, 0x5b, 0xbd, 0x92, 0x56, 0x83, 0xbd,
  0x10, 0x31, 0xc0, 0x3d, 0xc6, 0x64, 0xe4, 0xbd, 0xca, 0x28, 0x63, 0x3f,
  0x1f, 0x11, 0xf4, 0xbd, 0xc6, 0x3e, 0xd5, 0x3d, 0xce, 0x16, 0xd6, 0xbd,
  0x04, 0x23, 0xae, 0xbd, 0xc9, 0x52, 0xc9, 0xbd, 0x94, 0xdf, 0xfe, 0x3b,
  0x1f, 0xd9, 0x4a, 0xbe, 0x62, 0x2b, 0x3a, 0xbd, 0x99, 0xfd, 0x6a, 0xbe,
  0x5f, 0x81, 0x53, 0x3d, 0x83, 0x42, 0x20, 0xbd, 0x96, 0x14, 0xa3, 0xbd,
  0xff, 0x27, 0x55, 0xbd, 0xe8, 0xb3, 0x4d, 0xbc, 0x28, 0xc8, 0x80, 0xbe,
  0xa2, 0x81, 0xbd, 0x3d, 0x80, 0x82, 0x86, 0xbe, 0xbe, 0xa7, 0x26, 0xbe,
  0x4e, 0x4b, 0x20, 0xbd, 0xde, 0x86, 0xb4, 0xbc, 0x9d, 0x5b, 0x8f, 0xbd,
  0xf2, 0x8e, 0xf5, 0xbe, 0xab, 0x95, 0x07, 0xbe, 0x66, 0x9d, 0xf8, 0xbe,
  0xa8, 0xa1, 0x3d, 0xbd, 0xd1, 0xec, 0x01, 0xbc, 0xaf, 0xc2, 0xda, 0xbc,
  0xc9, 0x6a, 0x19, 0xbe, 0xbf, 0xcf, 0x92, 0xbd, 0xaf, 0xb8, 0xea, 0xbc,
  0x3c, 0xb6, 0xc4, 0xbd, 0x13, 0x8e, 0x41, 0x3d, 0xd8, 0xfc, 0x2b, 0xbe,
  0x48, 0xb8, 0x91, 0xbd, 0xd7, 0x54, 0x74, 0x3d, 0x8b, 0xb5, 0x2c, 0xbe,
  0x3e, 0xf4, 0x8f, 0xbd, 0x46, 0x39, 0x15, 0x3f, 0x85, 0xe1, 0x1d, 0xbd,
  0x76, 0xf8, 0x0c, 0xbe, 0xe0, 0x8a, 0xc3, 0x3d, 0x3e, 0xef, 0x17, 0x3f,
  0x80, 0x98, 0xf5, 0xbd, 0xe9, 0x83, 0xce, 0xbd, 0x86, 0x2a, 0xef, 0xbc,
  0xec, 0xff, 0xe1, 0x3e, 0x4a, 0xbc, 0xaa, 0x3d, 0x94, 0xad, 0xfe, 0x3e,
  0xa0, 0xea, 0x8b, 0x3d, 0x5e, 0xb1, 0x68, 0xbe, 0x6b, 0x6d, 0x53, 0x3d,
  0x9f, 0xa9, 0xae, 0xbb, 0xe2, 0xdd, 0xff, 0xff, 0x10, 0x00, 0x00, 0x00,
  0x0a, 0x00, 0x00, 0x00, 0x1c, 0x00, 0x00, 0x00, 0x38, 0x00, 0x00, 0x00,
  0x04, 0x00, 0x00, 0x00, 0x10, 0x00, 0x00, 0x00, 0x04, 0x00, 0x00, 0x00,
  0x01, 0x00, 0x00, 0x00, 0x08, 0x00, 0x00, 0x00, 0x1a, 0x00, 0x00, 0x00,
  0x73, 0x65, 0x71, 0x75, 0x65, 0x6e, 0x74, 0x69, 0x61, 0x6c, 0x2f, 0x63,
  0x6f, 0x6e, 0x76, 0x32, 0x64, 0x5f, 0x31, 0x2f, 0x43, 0x6f, 0x6e, 0x76,
  0x32, 0x44, 0x00, 0x00, 0x58, 0xdd, 0xff, 0xff, 0x62, 0xde, 0xff, 0xff,
  0x04, 0x00, 0x00, 0x00, 0x80, 0x01, 0x00, 0x00, 0xe4, 0x08, 0xd8, 0x3d,
  0xb2, 0x86, 0xdf, 0xbc, 0x03, 0x15, 0x7d, 0xbe, 0x3d, 0x14, 0x1b, 0x3e,
  0x7f, 0xe6, 0xe8, 0x3d, 0xbc, 0x28, 0x0c, 0xbe, 0xe8, 0x05, 0x5f, 0x3e,
  0xc3, 0x4e, 0x1d, 0x3e, 0x26, 0x58, 0x2b, 0x3e, 0xac, 0x55, 0xf6, 0xbc,
  0x20, 0x44, 0x94, 0xbc, 0xde, 0x48, 0xa0, 0x3d, 0xd0, 0x2a, 0x06, 0xbe,
  0xa8, 0x7b, 0x52, 0x3e, 0x45, 0xfc, 0x07, 0xbf, 0x82, 0xe9, 0x89, 0xbd,
  0xbf, 0x06, 0x46, 0x3e, 0x1e, 0xb0, 0x5f, 0xbe, 0xcc, 0x88, 0x83, 0xbc,
  0xb9, 0x8b, 0x66, 0xbe, 0x53, 0x6e, 0x9e, 0x3e, 0x0a, 0x02, 0x56, 0x3e,
  0x2e, 0x8a, 0x21, 0xbe, 0x09, 0x7f, 0xd8, 0x3e, 0x24, 0x24, 0xa2, 0x3d,
  0x10, 0x22, 0x2a, 0xbe, 0x0a, 0xb2, 0x27, 0x3d, 0xaa, 0x83, 0x02, 0xbd,
  0x87, 0xf8, 0x8d, 0xbd, 0x19, 0x78, 0xd2, 0x3d, 0x8f, 0x1f, 0xb9, 0xbd,
  0xd5, 0x98, 0xc5, 0x3c, 0x0b, 0x14, 0xf0, 0x3c, 0x2b, 0x2e, 0xc8, 0xbd,
  0xe5, 0xc4, 0xb3, 0x3d, 0xb1, 0x6f, 0x4d, 0x3c, 0x28, 0x7c, 0xf7, 0xbd,
  0xbe, 0x4a, 0x0f, 0xbd, 0x58, 0x87, 0xd8, 0xbb, 0x8b, 0x16, 0x12, 0xbf,
  0x0f, 0xe9, 0xbe, 0xbd, 0x55, 0x5e, 0x50, 0xbe, 0x02, 0x7a, 0x15, 0x3f,
  0xb3, 0x29, 0xe9, 0x3c, 0x0c, 0x68, 0x12, 0x3e, 0xe6, 0x5b, 0xe7, 0x3d,
  0x50, 0x90, 0xe3, 0x3d, 0xf6, 0xfe, 0x59, 0x3d, 0x83, 0xb7, 0x47, 0x3e,
  0x1b, 0x7a, 0xba, 0x3d, 0x45, 0x90, 0x69, 0x3e, 0xf5, 0x5c, 0x1c, 0x3e,
  0x0f, 0x17, 0x5e, 0x3d, 0x88, 0xea, 0xc8, 0x3d, 0xf8, 0x53, 0xe1, 0xbd,
  0x0a, 0xc6, 0xb9, 0xbd, 0x7a, 0xcd, 0x9c, 0xbd, 0xd1, 0xca, 0x73, 0xbe,
  0x64, 0xb3, 0xb9, 0xbd, 0x17, 0xce, 0x1c, 0xbd, 0x28, 0x8b, 0x88, 0x3e,
  0xb5, 0xd3, 0xd5, 0x3e, 0x2d, 0xac, 0x5d, 0x3e, 0xfb, 0x07, 0xa5, 0x3d,
  0x53, 0x75, 0x00, 0x3e, 0x48, 0xbf, 0x02, 0x3e, 0x1c, 0x0f, 0x2b, 0xbe,
  0xe2, 0x0d, 0xc9, 0xbe, 0x4f, 0x53, 0x54, 0xbe, 0x4d, 0xd7, 0x65, 0xbd,
  0x1f, 0xf5, 0xfc, 0xbd, 0x7a, 0xfc, 0x13, 0xbe, 0xe3, 0x6f, 0x6c, 0x3e,
  0x08, 0xc6, 0xc9, 0xbd, 0x73, 0x41, 0x2c, 0x3b, 0x99, 0xd0, 0x1f, 0x3e,
  0xe3, 0x5b, 0x42, 0x3e, 0x94, 0xc1, 0x98, 0x3d, 0xfd, 0xdf, 0x5b, 0x3e,
  0xcb, 0x8c, 0x81, 0x3d, 0x6f, 0x0f, 0x8d, 0x3e, 0x0f, 0xfa, 0xc4, 0xbe,
  0xe4, 0xd7, 0x5a, 0xbe, 0x0f, 0x81, 0xa3, 0xbe, 0x88, 0x5b, 0x13, 0xbe,
  0x63, 0x2d, 0x9a, 0xbd, 0x5f, 0xd0, 0xef, 0xbd, 0x50, 0x6c, 0x93, 0xbd,
  0xd0, 0xe5, 0x8b, 0x3d, 0x91, 0x0b, 0x86, 0xbd, 0xb2, 0x40, 0x9b, 0xbd,
  0xdd, 0xf0, 0x19, 0x3d, 0x97, 0x14, 0x60, 0xbd, 0xe6, 0xd2, 0x8d, 0xbd,
  0x12, 0x19, 0x58, 0x3d, 0x97, 0x98, 0x0d, 0xbe, 0xba, 0xdf, 0xff, 0xff,
  0x10, 0x00, 0x00, 0x00, 0x09, 0x00, 0x00, 0x00, 0x1c, 0x00, 0x00, 0x00,
  0x38, 0x00, 0x00, 0x00, 0x04, 0x00, 0x00, 0x00, 0x08, 0x00, 0x00, 0x00,
  0x04, 0x00, 0x00, 0x00, 0x03, 0x00, 0x00, 0x00, 0x01, 0x00, 0x00, 0x00,
  0x18, 0x00, 0x00, 0x00, 0x73, 0x65, 0x71, 0x75, 0x65, 0x6e, 0x74, 0x69,
  0x61, 0x6c, 0x2f, 0x63, 0x6f, 0x6e, 0x76, 0x32, 0x64, 0x2f, 0x43, 0x6f,
  0x6e, 0x76, 0x32, 0x44, 0x00, 0x00, 0x00, 0x00, 0x30, 0xdf, 0xff, 0xff,
  0x3a, 0xe0, 0xff, 0xff, 0x04, 0x00, 0x00, 0x00, 0x00, 0x01, 0x00, 0x00,
  0x93, 0x8e, 0xf7, 0xbe, 0x9d, 0x58, 0x1b, 0x3e, 0x9c, 0xff, 0x61, 0x3e,
  0x97, 0xbb, 0xf3, 0x3c, 0x6d, 0xb7, 0xb7, 0x3e, 0x73, 0x68, 0x61, 0xbe,
  0x98, 0xd9, 0x50, 0x3e, 0x14, 0x49, 0xab, 0x3e, 0x23, 0xb1, 0x3a, 0x3d,
  0xea, 0x8e, 0x48, 0xbe, 0x2d, 0x9c, 0x2b, 0x3d, 0xc2, 0x37, 0xa1, 0xbe,
  0x50, 0xc6, 0x95, 0xbe, 0xc0, 0xda, 0x2d, 0x3c, 0xe2, 0x24, 0xba, 0x3e,
  0xa0, 0xe0, 0x3f, 0x3e, 0xd4, 0x5a, 0xfe, 0xbe, 0x1f, 0xfa, 0x85, 0x3e,
  0x12, 0x91, 0xcf, 0x3d, 0x4d, 0x06, 0x04, 0x3d, 0x91, 0xb6, 0xbe, 0x3e,
  0x2d, 0x07, 0x4e, 0xbe, 0x5f, 0xe6, 0x47, 0x3e, 0x36, 0xa1, 0xb2, 0x3e,
  0xfc, 0x52, 0x90, 0x3d, 0xf0, 0x29, 0x64, 0xbe, 0x3a, 0x0e, 0x65, 0xbe,
  0x95, 0xc9, 0xb1, 0xbe, 0xc1, 0x3e, 0x9f, 0x3d, 0xaa, 0x51, 0x34, 0x3d,
  0x53, 0x04, 0x78, 0x3e, 0x22, 0xf6, 0x66, 0x3e, 0x94, 0xd6, 0x89, 0xbe,
  0x83, 0x1c, 0x42, 0x3e, 0xfd, 0x26, 0x1c, 0xbe, 0x65, 0x9d, 0x3a, 0x3c,
  0xf5, 0x58, 0xb5, 0x3e, 0xe8, 0xbe, 0x26, 0xbe, 0x65, 0x7d, 0x91, 0x3e,
  0x3a, 0xef, 0x0d, 0xbe, 0x0a, 0x20, 0x9f, 0xbd, 0xd2, 0xc6, 0x84, 0xbe,
  0xf4, 0x31, 0x2d, 0xbd, 0xc6, 0xa5, 0xd7, 0xbe, 0xbf, 0x15, 0xc8, 0xbe,
  0x52, 0x20, 0x0a, 0xbd, 0xb4, 0x15, 0x55, 0xbe, 0xae, 0x2d, 0x28, 0x3e,
  0x0a, 0x0a, 0x42, 0xbe, 0x35, 0x23, 0x17, 0x3e, 0x7a, 0xe3, 0x62, 0x3c,
  0x58, 0xd6, 0xb3, 0x3d, 0x00, 0xa8, 0xde, 0x3e, 0xbc, 0x77, 0x05, 0xbe,
  0x26, 0xa6, 0x60, 0x3e, 0x2c, 0x07, 0x03, 0xbe, 0x28, 0xfd, 0x30, 0xbd,
  0xd4, 0xf6, 0x78, 0xbe, 0x11, 0x53, 0x8f, 0x3d, 0x8c, 0x50, 0xb1, 0xbe,
  0x1d, 0x5e, 0xcc, 0x3e, 0xbb, 0x92, 0x66, 0x3d, 0x56, 0x0f, 0x50, 0xbe,
  0x73, 0x16, 0x3e, 0x3e, 0x12, 0xe1, 0xff, 0xff, 0x10, 0x00, 0x00, 0x00,
  0x08, 0x00, 0x00, 0x00, 0x14, 0x00, 0x00, 0x00, 0x30, 0x00, 0x00, 0x00,
  0x02, 0x00, 0x00, 0x00, 0x04, 0x00, 0x00, 0x00, 0x10, 0x00, 0x00, 0x00,
  0x19, 0x00, 0x00, 0x00, 0x73, 0x65, 0x71, 0x75, 0x65, 0x6e, 0x74, 0x69,
  0x61, 0x6c, 0x2f, 0x64, 0x65, 0x6e, 0x73, 0x65, 0x5f, 0x31, 0x2f, 0x4d,
  0x61, 0x74, 0x4d, 0x75, 0x6c, 0x00, 0x00, 0x00, 0x80, 0xe0, 0xff, 0xff,
  0x8a, 0xe1, 0xff, 0xff, 0x04, 0x00, 0x00, 0x00, 0x00, 0x1c, 0x00, 0x00,
  0xaa, 0x0f, 0xff, 0x3d, 0x6c, 0x73, 0x18, 0xbd, 0x44, 0xdd, 0x28, 0xbe,
  0x5e, 0x2f, 0x99, 0xb7, 0x61, 0x67, 0x05, 0xbe, 0xac, 0x98, 0x98, 0xbd,
  0xc8, 0xd5, 0x33, 0xbe, 0xe7, 0x4b, 0xc5, 0xbb, 0xa0, 0xfe, 0xf3, 0xbd,
  0x3a, 0xf6, 0x8d, 0xbe, 0x8c, 0x1f, 0xdc, 0xbd, 0xd7, 0xef, 0x59, 0xbe,
  0x6a, 0x79, 0xf2, 0xbd, 0x3b, 0x76, 0x0b, 0x3e, 0x95, 0x85, 0x12, 0xbe,
  0xda, 0xae, 0xc1, 0xbd, 0x12, 0x4e, 0x85, 0xbd, 0x29, 0x8f, 0xa7, 0xbe,
  0x2e, 0x33, 0x0a, 0xbe, 0xcb, 0xae, 0x52, 0x3d, 0xbf, 0x97, 0xdc, 0xbd,
  0x8e, 0x8a, 0x10, 0xbc, 0x6a, 0xda, 0x18, 0xbe, 0x1d, 0xa8, 0xba, 0xbd,
  0x18, 0x57, 0x22, 0x3e, 0xc7, 0x82, 0x28, 0xbe, 0xf8, 0x45, 0x0d, 0x3e,
  0xec, 0x3a, 0xe9, 0x3d, 0x35, 0x83, 0x9b, 0xbd, 0xe7, 0xf6, 0xb7, 0xbd,
  0x8b, 0xc2, 0xd4, 0xbd, 0x06, 0xcb, 0xdd, 0x3d, 0x3c, 0xc7, 0x13, 0x3e,
  0x55, 0x34, 0x74, 0xbe, 0xec, 0x40, 0x44, 0xbd, 0x6e, 0x72, 0x2d, 0xbd,
  0x61, 0x78, 0x74, 0x3d, 0xd4, 0x01, 0xf3, 0xbc, 0x51, 0x2c, 0x9b, 0xb9,
  0xd3, 0x52, 0x3e, 0xbe, 0x79, 0x13, 0xdf, 0x3d, 0x7a, 0x95, 0x85, 0xbc,
  0x1a, 0x61, 0xac, 0x3d, 0x2b, 0x30, 0xe8, 0x3d, 0x58, 0x00, 0xff, 0xb9,
  0x87, 0xa8, 0x92, 0xbd, 0xce, 0x67, 0x6c, 0xbe, 0x0b, 0x19, 0x24, 0xbd,
  0x3e, 0x72, 0xb9, 0xbd, 0xe5, 0x37, 0x46, 0xbe, 0xbb, 0xb0, 0xaf, 0xbd,
  0x82, 0x6c, 0x3b, 0x3e, 0xfe, 0xa0, 0xec, 0xbd, 0x37, 0xce, 0x1c, 0x3e,
  0xcc, 0x46, 0xdc, 0x3d, 0x3e, 0x53, 0x7c, 0x3d, 0x19, 0x9f, 0x58, 0x3d,
  0x29, 0x23, 0x19, 0xbe, 0xfa, 0x82, 0xfa, 0xbd, 0xdf, 0x75, 0x7b, 0x3d,
  0x78, 0x77, 0x5e, 0xbe, 0x67, 0x52, 0x63, 0xbd, 0x49, 0x08, 0x4f, 0xbe,
  0xb3, 0x6d, 0xe6, 0xbb, 0x4f, 0xd2, 0xa5, 0xbd, 0xd7, 0x6a, 0xaa, 0xbe,
  0xc0, 0xe0, 0x4e, 0xbd, 0x3d, 0xfc, 0xd3, 0x3d, 0x99, 0x0e, 0x0a, 0x3e,
  0x53, 0x53, 0x8c, 0x3d, 0xb1, 0x9f, 0x13, 0xbe, 0xbe, 0x95, 0xce, 0x3c,
  0x98, 0x69, 0x60, 0x3d, 0xba, 0x31, 0x94, 0xbe, 0x99, 0xb0, 0x71, 0xbe,
  0x3f, 0x3a, 0x41, 0x3d, 0x8c, 0xc6, 0x40, 0xbe, 0x93, 0xc8, 0x01, 0x3d,
  0xec, 0x52, 0x30, 0x3d, 0x52, 0x64, 0x66, 0xbe, 0xfc, 0x6c, 0x82, 0x3c,
  0xb8, 0x05, 0x2c, 0xbc, 0xa4, 0xf4, 0x87, 0xbe, 0xe4, 0xf4, 0x7b, 0xbe,
  0x44, 0x26, 0xbe, 0x3c, 0x6d, 0x7f, 0xf1, 0xbd, 0xef, 0xe6, 0x1e, 0xbe,
  0xa8, 0x35, 0x73, 0xbe, 0x33, 0xe6, 0xd5, 0x3d, 0xd7, 0xd2, 0x9e, 0xbb,
  0xa4, 0xac, 0x65, 0xbe, 0x74, 0x23, 0xbc, 0xbc, 0xfb, 0x5e, 0x21, 0xbe,
  0xf0, 0x78, 0x2c, 0x3e, 0x3e, 0xf4, 0x83, 0xbe, 0x85, 0x28, 0x16, 0x3d,
  0xd4, 0x25, 0x13, 0xbd, 0x7b, 0x58, 0x49, 0xbe, 0xb9, 0x1d, 0x9f, 0xbd,
  0x69, 0xc4, 0x91, 0x3d, 0x83, 0x7a, 0x33, 0xbe, 0x7b, 0xa7, 0xf5, 0xbc,
  0x0e, 0x4f, 0x1b, 0xbe, 0x75, 0xef, 0x58, 0xbe, 0x89, 0xa6, 0x18, 0xbd,
  0xf9, 0xc9, 0x1c, 0xbe, 0xed, 0xbd, 0xe1, 0x3d, 0xfc, 0xef, 0x20, 0xbe,
  0x94, 0xc1, 0x92, 0xbe, 0x39, 0xfb, 0xea, 0xbd, 0x02, 0x85, 0x31, 0xbe,
  0x70, 0xf4, 0x38, 0x3d, 0x9d, 0x38, 0x9e, 0xbe, 0x27, 0xb2, 0x49, 0xbe,
  0xf7, 0x2f, 0x6c, 0xbe, 0x1f, 0x38, 0xd1, 0xbd, 0xf8, 0x14, 0x82, 0xbe,
  0x52, 0x0a, 0x91, 0xbd, 0x96, 0x85, 0x5d, 0xbe, 0x2a, 0x49, 0xe3, 0xbe,
  0x70, 0x4e, 0x31, 0xbf, 0x57, 0x6f, 0xc7, 0xbe, 0x24, 0x80, 0x76, 0xbe,
  0x6c, 0x90, 0x27, 0xbf, 0xbf, 0x1d, 0x6f, 0xbd, 0xad, 0x96, 0xd3, 0x3d,
  0x91, 0x67, 0x43, 0xbe, 0x6c, 0x93, 0x39, 0xbf, 0xf9, 0x1e, 0x3e, 0xbe,
  0xea, 0xe5, 0x0e, 0xbe, 0x5c, 0x72, 0x7c, 0xbe, 0xbb, 0xf0, 0x97, 0xbd,
  0x48, 0x42, 0x4e, 0xbd, 0x8c, 0xd3, 0xe2, 0xbd, 0x85, 0x80, 0x2a, 0xbe,
  0x79, 0x64, 0xc2, 0xbe, 0x30, 0xc3, 0xe1, 0xbe, 0x3c, 0xf6, 0xca, 0xbe,
  0xf2, 0x65, 0x99, 0xbd, 0xfa, 0xcc, 0xfa, 0xbe, 0x7a, 0x72, 0x24, 0xbd,
  0x84, 0xd3, 0xfc, 0xbd, 0x74, 0x37, 0x5a, 0xbe, 0x4b, 0x95, 0xc8, 0xbe,
  0x3b, 0xfe, 0xa4, 0xbe, 0xc3, 0x53, 0x18, 0xbe, 0xf8, 0x6b, 0x8c, 0xbe,
  0xf1, 0x88, 0x68, 0xbe, 0x7c, 0x91, 0x00, 0xbe, 0x05, 0x7b, 0x8e, 0xbe,
  0x7f, 0xb1, 0xcc, 0xbd, 0x89, 0x60, 0x9e, 0xbe, 0xc6, 0x1d, 0x9c, 0xbe,
  0x60, 0x04, 0x03, 0xbf, 0x7d, 0x01, 0xaf, 0xbd, 0x06, 0xf8, 0x0e, 0xbf,
  0xa0, 0x01, 0x1e, 0xbd, 0x0b, 0x42, 0xe7, 0xbd, 0x83, 0xab, 0xc5, 0xbe,
  0xab, 0xe4, 0x0c, 0xbf, 0xb9, 0xd3, 0xa3, 0xbe, 0x92, 0xb0, 0x1b, 0xbe,
  0x25, 0x1c, 0x21, 0xbe, 0xb4, 0x1f, 0xc6, 0xbe, 0x60, 0x07, 0x21, 0xbe,
  0x68, 0x07, 0x22, 0xbe, 0x4a, 0x30, 0x0c, 0xbe, 0x1f, 0x4f, 0xa9, 0x3d,
  0x29, 0x8a, 0xe5, 0xbe, 0xb6, 0x09, 0x05, 0xbf, 0xf7, 0x77, 0xdc, 0xbe,
  0xee, 0x44, 0xcf, 0xbe, 0xf8, 0x57, 0x59, 0xbd, 0x4c, 0x50, 0x90, 0xbc,
  0x90, 0x66, 0x09, 0xbf, 0x6e, 0xd9, 0x9b, 0xbe, 0xaf, 0x70, 0xd1, 0xbe,
  0xfe, 0x0d, 0xe5, 0x3d, 0x6d, 0x58, 0xe7, 0xbe, 0x31, 0x32, 0x93, 0x3e,
  0xa6, 0x94, 0x94, 0x3d, 0xa7, 0xb5, 0x4e, 0xbe, 0xd2, 0x0f, 0x89, 0x3e,
  0xcf, 0x1b, 0x71, 0x3e, 0xec, 0x94, 0x9a, 0xbe, 0x5e, 0x9c, 0xd4, 0xbe,
  0x05, 0x12, 0xc1, 0x3d, 0x7f, 0x94, 0x02, 0xbf, 0xb8, 0x2c, 0x80, 0xbc,
  0xcb, 0x62, 0xd2, 0xbd, 0xca, 0x9d, 0x70, 0xbe, 0xce, 0x5d, 0xbf, 0x3c,
  0x20, 0xcc, 0x87, 0xbe, 0xc5, 0xa5, 0xa7, 0x3d, 0x96, 0xef, 0x52, 0xbc,
  0x70, 0x14, 0x4c, 0x3e, 0x81, 0x0d, 0x82, 0x3e, 0x8b, 0x15, 0x80, 0x3c,
  0x8c, 0x44, 0x59, 0x3e, 0xa8, 0x01, 0x95, 0x3e, 0x71, 0x8f, 0x2b, 0xbe,
  0x55, 0xcb, 0xea, 0xbe, 0x61, 0x2f, 0x67, 0x3e, 0xdf, 0x4e, 0x3b, 0x3e,
  0x89, 0x42, 0x07, 0x3d, 0xc0, 0xf8, 0x06, 0xbd, 0x24, 0x28, 0x2a, 0xbb,
  0x4a, 0xa1, 0xa2, 0xbd, 0x76, 0xd5, 0xe4, 0x3d, 0x69, 0x6d, 0x97, 0xbc,
  0x83, 0x6e, 0xad, 0x3d, 0xae, 0x2a, 0x50, 0x3e, 0x74, 0xdb, 0x92, 0x3d,
  0x01, 0xeb, 0x08, 0x3e, 0xc9, 0x52, 0x41, 0x3e, 0x83, 0x70, 0x74, 0x3e,
  0x07, 0x1b, 0x9a, 0x3e, 0x7d, 0xd5, 0x79, 0xbd, 0x80, 0xba, 0xa0, 0x3d,
  0xde, 0xc5, 0x43, 0x3d, 0xf2, 0x57, 0x23, 0x3d, 0xd6, 0x9c, 0x19, 0xbd,
  0xaa, 0xfd, 0x1d, 0x3d, 0x2f, 0xa3, 0xf4, 0x3d, 0x04, 0x51, 0x6a, 0x3e,
  0xbb, 0x21, 0xe1, 0xbe, 0xea, 0xb4, 0xc4, 0x3e, 0x4b, 0x8d, 0xbd, 0x3d,
  0x6f, 0xef, 0x42, 0xbe, 0x7e, 0x6f, 0x66, 0xbe, 0xba, 0xbd, 0x45, 0xbe,
  0xbf, 0x8c, 0x55, 0xbe, 0x39, 0xc8, 0xc0, 0x3d, 0x76, 0xd5, 0x18, 0x3a,
  0xef, 0xb2, 0x2c, 0xbe, 0x5f, 0x8d, 0x0b, 0x3d, 0xb7, 0xcb, 0x2f, 0xbe,
  0x3d, 0x69, 0xb5, 0x3e, 0x48, 0x9a, 0x34, 0x3d, 0x1c, 0xb1, 0xa4, 0xbd,
  0xd7, 0x90, 0x62, 0x3e, 0x0d, 0x88, 0xae, 0xbe, 0xfe, 0x55, 0x8c, 0x3e,
  0x08, 0xbe, 0x27, 0x3c, 0x3a, 0xc1, 0x2f, 0xbe, 0x07, 0x5b, 0x2e, 0xbd,
  0x67, 0xe1, 0x27, 0xbd, 0x73, 0xcb, 0x91, 0xbd, 0x7d, 0xf4, 0xfe, 0x3e,
  0x86, 0x8f, 0x1e, 0xbe, 0x5f, 0xea, 0xb4, 0xbd, 0x40, 0x9f, 0x39, 0x3c,
  0xcf, 0x2c, 0x0e, 0xbe, 0xa8, 0x7f, 0x1e, 0x3e, 0xb9, 0x3d, 0x59, 0x3d,
  0x48, 0xf8, 0x53, 0xbe, 0x50, 0x03, 0x3d, 0xbe, 0x9a, 0x57, 0x3f, 0xbe,
  0xd6, 0x6e, 0x0c, 0x3e, 0x12, 0xd7, 0x94, 0x3e, 0x18, 0x44, 0x01, 0xbe,
  0x06, 0x6f, 0xde, 0x3d, 0x7c, 0xee, 0x97, 0x3e, 0xa3, 0xc7, 0x55, 0xbe,
  0xf5, 0xb1, 0xcd, 0x3e, 0xa6, 0x97, 0xa2, 0xbe, 0x11, 0x11, 0x56, 0xbe,
  0x69, 0xe4, 0xa7, 0x3d, 0xf0, 0xbd, 0xa3, 0xbd, 0x5e, 0x18, 0x0a, 0x3e,
  0x14, 0x67, 0x76, 0xbd, 0xfd, 0x1f, 0xe3, 0xbd, 0x39, 0x66, 0xf4, 0x3d,
  0x8f, 0x39, 0x98, 0xbe, 0xe5, 0x16, 0x92, 0x3e, 0xa5, 0x4b, 0x21, 0x3f,
  0xc1, 0x90, 0x4b, 0x3d, 0x80, 0x07, 0x93, 0xbd, 0xce, 0xb7, 0xa0, 0xba,
  0x57, 0x33, 0x91, 0xbe, 0xa1, 0x46, 0x00, 0x3f, 0x52, 0x53, 0xfb, 0xbd,
  0x6c, 0x88, 0x9b, 0xbe, 0xe2, 0x47, 0xd5, 0x3e, 0x0b, 0xb3, 0x02, 0xbe,
  0xf8, 0xfa, 0x83, 0x3e, 0x59, 0xe8, 0xc1, 0xbd, 0xaa, 0xb3, 0x30, 0x3d,
  0xca, 0xc5, 0x97, 0xbd, 0x20, 0xb3, 0x63, 0xbe, 0x7d, 0xc0, 0x3d, 0x3e,
  0x11, 0xe4, 0xf1, 0x3e, 0x76, 0xe9, 0x75, 0xbc, 0xf9, 0xd0, 0x80, 0xbd,
  0x98, 0xaf, 0x50, 0x3d, 0x85, 0x53, 0x17, 0xbc, 0xd1, 0xe0, 0x9e, 0x3e,
  0xc9, 0xe7, 0x28, 0xbe, 0xeb, 0xd4, 0xba, 0xbd, 0x1f, 0xab, 0x23, 0x3e,
  0xc0, 0xd7, 0x28, 0xbe, 0x23, 0xc5, 0xa5, 0x3e, 0xb5, 0xbc, 0x81, 0x3e,
  0xf1, 0x7e, 0x81, 0x3d, 0x08, 0x95, 0x13, 0xbe, 0x3e, 0x57, 0x74, 0xbe,
  0x78, 0x84, 0x42, 0x3e, 0x12, 0xff, 0x42, 0x3f, 0xb7, 0x0c, 0x26, 0xbe,
  0x5d, 0x9e, 0xae, 0xbd, 0x34, 0xf4, 0x76, 0x3d, 0x45, 0x4c, 0x5d, 0x3d,
  0x8d, 0xa4, 0xff, 0x3d, 0xe8, 0x2a, 0x80, 0xbe, 0x33, 0xca, 0x7a, 0xbe,
  0x8d, 0x9f, 0xb7, 0x3d, 0xa9, 0x09, 0x86, 0x38, 0x9e, 0x6d, 0xc6, 0x3e,
  0x30, 0x7f, 0x9f, 0x3d, 0x1d, 0xff, 0x69, 0xbe, 0xe7, 0x58, 0x28, 0xbe,
  0xb8, 0xea, 0x63, 0xbe, 0xd7, 0xa4, 0x05, 0xbe, 0x51, 0x8b, 0x56, 0x3e,
  0xe8, 0x96, 0x19, 0xbd, 0x63, 0x8d, 0x06, 0xbe, 0x4f, 0xb8, 0x1e, 0xbe,
  0xd2, 0xb3, 0xe7, 0xbd, 0xb6, 0xff, 0x2a, 0x3e, 0x87, 0xae, 0x7a, 0xbe,
  0xd5, 0x32, 0x93, 0xbe, 0x69, 0x6d, 0xb0, 0x3c, 0x38, 0xbd, 0xa4, 0x3d,
  0x86, 0x77, 0x0b, 0xbd, 0xff, 0xc4, 0x1b, 0xbe, 0x06, 0xac, 0xeb, 0x3d,
  0xb9, 0x61, 0x9b, 0xbe, 0x97, 0xde, 0x37, 0xbd, 0xd4, 0x94, 0x70, 0x3d,
  0x6a, 0x23, 0x8b, 0x3e, 0x4c, 0x8d, 0x44, 0x3e, 0x0c, 0x8d, 0xc9, 0x3d,
  0xae, 0xc1, 0x86, 0x3d, 0x40, 0xcb, 0xf3, 0xbe, 0xeb, 0x6a, 0x61, 0x3e,
  0x78, 0x56, 0x87, 0x3d, 0x58, 0x3a, 0x9a, 0xbe, 0x1c, 0x92, 0xa5, 0x3d,
  0x42, 0xde, 0x8d, 0x3d, 0x64, 0xa0, 0x3d, 0xbe, 0x9a, 0x17, 0x37, 0xbf,
  0x20, 0xe3, 0x29, 0xbf, 0x10, 0x32, 0xcf, 0x3e, 0xdf, 0x9e, 0xab, 0x3b,
  0xc9, 0xc1, 0xb5, 0x3c, 0x9e, 0x94, 0x00, 0x3e, 0x98, 0x0b, 0x53, 0x3e,
  0xa7, 0x23, 0xd1, 0xbd, 0x16, 0xb8, 0xb8, 0xbd, 0xe3, 0x52, 0x30, 0x3d,
  0x63, 0x5a, 0x1d, 0x3e, 0x2d, 0xc5, 0xe8, 0xbc, 0x88, 0x2b, 0x19, 0x3e,
  0xc6, 0x4f, 0xcd, 0xbe, 0x19, 0xd8, 0xf7, 0x3d, 0x66, 0x8d, 0xcf, 0xbe,
  0x6f, 0x20, 0xfb, 0xbe, 0x0e, 0x7a, 0xc2, 0xbe, 0xcd, 0xa3, 0x23, 0x3d,
  0x3e, 0x8d, 0x84, 0x3c, 0xf4, 0xb0, 0x25, 0x3d, 0x6b, 0x83, 0xa0, 0x3d,
  0x82, 0xbc, 0x0c, 0x3d, 0xba, 0x70, 0xd9, 0xbd, 0x9c, 0xba, 0x9b, 0x3d,
  0xc1, 0x13, 0x41, 0xbe, 0x80, 0x86, 0xb0, 0xbd, 0x3e, 0xcb, 0x93, 0x3c,
  0x54, 0xd1, 0x4d, 0x3e, 0x48, 0x50, 0x1f, 0xbe, 0x49, 0xc1, 0x9c, 0x3d,
  0x9b, 0x4b, 0xe1, 0x3d, 0x45, 0xcc, 0x99, 0xbe, 0x89, 0xa7, 0x00, 0xbf,
  0xb4, 0x1b, 0xb1, 0x3e, 0xf3, 0x29, 0xec, 0x3c, 0x31, 0x16, 0xad, 0x3c,
  0x71, 0xf6, 0xe4, 0x3d, 0x33, 0xda, 0xec, 0x3c, 0x55, 0x15, 0xe9, 0xbc,
  0x63, 0x54, 0xcb, 0xbd, 0x2d, 0x1c, 0x2f, 0xbe, 0x79, 0x8e, 0x6b, 0xbc,
  0x4f, 0x56, 0xc3, 0x3c, 0xbb, 0x5c, 0x62, 0x3e, 0xfa, 0xf8, 0xba, 0xbd,
  0x80, 0x5a, 0x2d, 0x3c, 0x42, 0xc1, 0x49, 0x3e, 0x25, 0xda, 0xac, 0xbe,
  0x15, 0x55, 0x43, 0xbe, 0x64, 0xf2, 0x99, 0xbd, 0x2e, 0x4b, 0x9a, 0xbc,
  0x95, 0xb1, 0x59, 0x3d, 0xe6, 0x12, 0x68, 0x3e, 0x23, 0xb8, 0x84, 0xbd,
  0x3e, 0x30, 0x8a, 0xbb, 0xb6, 0xfe, 0x50, 0xbc, 0x54, 0x64, 0xc3, 0xbd,
  0x4e, 0xb2, 0xed, 0x3d, 0xc9, 0x0e, 0x58, 0x3b, 0x39, 0xed, 0x96, 0x3e,
  0xb0, 0x2f, 0xfc, 0xbb, 0x5c, 0x6d, 0x38, 0x3d, 0x1e, 0xed, 0x0d, 0x3d,
  0x7d, 0xc4, 0x8a, 0xbe, 0x25, 0xdf, 0x98, 0xbe, 0xb6, 0x5e, 0x21, 0x3e,
  0xac, 0x52, 0x50, 0xbb, 0xbd, 0x07, 0x0e, 0x3e, 0x1e, 0x05, 0x9c, 0x3e,
  0x33, 0xfd, 0x7e, 0xbd, 0xf3, 0x23, 0x9e, 0x3d, 0x2c, 0x8a, 0x89, 0xbd,
  0x43, 0xcb, 0x8d, 0xbc, 0x98, 0x60, 0xd5, 0xbe, 0x61, 0x77, 0xc8, 0x3c,
  0x4b, 0x13, 0x11, 0x3e, 0x87, 0xfa, 0xd1, 0xbe, 0x6b, 0x81, 0xbb, 0x3d,
  0xe5, 0x9d, 0x1e, 0xbe, 0xb4, 0x6e, 0x08, 0xbf, 0x68, 0x80, 0x50, 0xbf,
  0xe8, 0xbe, 0x88, 0xbe, 0x0f, 0xe3, 0xa1, 0x3d, 0x5c, 0xba, 0xeb, 0x3d,
  0x86, 0x0c, 0x39, 0xbe, 0x99, 0x60, 0x73, 0xbd, 0x7d, 0xcb, 0x28, 0x3e,
  0x3f, 0x99, 0x0c, 0xbe, 0x43, 0xc4, 0x47, 0x3d, 0x48, 0xeb, 0xaf, 0xbc,
  0x81, 0x14, 0x36, 0x3d, 0x86, 0x2e, 0xfd, 0xbd, 0xba, 0x02, 0xb3, 0xbe,
  0x38, 0xb3, 0xba, 0x3d, 0x56, 0x84, 0x0b, 0xbe, 0x2e, 0xbf, 0xfe, 0xbc,
  0x10, 0xb4, 0x70, 0xbe, 0xa1, 0x4e, 0x9d, 0xbe, 0xbf, 0x7c, 0x02, 0xbe,
  0xff, 0xe1, 0x57, 0x3d, 0x74, 0x3c, 0x95, 0x3e, 0x6e, 0x40, 0x10, 0x3e,
  0x47, 0x24, 0x24, 0x3c, 0xcf, 0x31, 0x48, 0x3d, 0xa2, 0x06, 0x00, 0xbf,
  0xea, 0x38, 0x45, 0x3e, 0x9b, 0xdb, 0xb4, 0x3d, 0x00, 0xed, 0xca, 0xbe,
  0x89, 0x3a, 0x59, 0x3c, 0x33, 0xb8, 0x20, 0x3d, 0xb6, 0x43, 0x37, 0xbf,
  0xf0, 0x51, 0x19, 0xbf, 0xdb, 0x92, 0xe0, 0xbe, 0xd8, 0xaf, 0x12, 0x3f,
  0x37, 0xfb, 0xae, 0xbc, 0xab, 0x50, 0x51, 0xbd, 0x82, 0x98, 0x13, 0x3d,
  0xcb, 0xe2, 0x18, 0x3e, 0x09, 0xb7, 0x62, 0xbb, 0x48, 0xfa, 0xaa, 0x3c,
  0x05, 0x72, 0x14, 0xbe, 0x1e, 0x0d, 0x86, 0x3e, 0x55, 0xc9, 0xf8, 0x3c,
  0xf7, 0x57, 0x9a, 0x3e, 0x89, 0x99, 0x9b, 0xbe, 0x0d, 0xb4, 0x4a, 0x3d,
  0x51, 0x91, 0xb6, 0xbe, 0xda, 0xe1, 0x5e, 0xbf, 0xa8, 0x74, 0xed, 0xbe,
  0x81, 0x00, 0x41, 0x3e, 0x97, 0xf7, 0x01, 0xbc, 0xbb, 0x3f, 0x01, 0x3d,
  0xb1, 0x60, 0x31, 0x3d, 0x36, 0xe6, 0xc7, 0x3d, 0xb2, 0x43, 0x00, 0xbd,
  0x1b, 0xe3, 0x08, 0x3d, 0x91, 0x29, 0x74, 0xbe, 0x8d, 0x5a, 0xa3, 0x3d,
  0x19, 0x1b, 0x0b, 0x3d, 0xe0, 0x55, 0xe5, 0x3d, 0x53, 0x6f, 0xef, 0xbd,
  0x51, 0xfe, 0xed, 0x3c, 0x5d, 0x24, 0x98, 0xbd, 0x9e, 0xd1, 0xf5, 0xbe,
  0xa0, 0x5b, 0xfb, 0xbe, 0xdf, 0xe8, 0x1a, 0x3e, 0xe0, 0x61, 0xd7, 0xbc,
  0x93, 0x25, 0x80, 0x3d, 0x61, 0x40, 0xd4, 0x3d, 0xe7, 0x61, 0x94, 0xbc,
  0xa6, 0x48, 0x47, 0xbe, 0x07, 0x5c, 0xa4, 0xbd, 0x33, 0x4c, 0x8d, 0xbe,
  0x83, 0xd2, 0x07, 0x3e, 0xf0, 0xb8, 0xae, 0x3b, 0x8e, 0x9b, 0x29, 0x3e,
  0x35, 0x72, 0x35, 0x3d, 0x6d, 0xbd, 0x89, 0x3d, 0x43, 0x03, 0xad, 0x3d,
  0x07, 0x12, 0xd4, 0xbe, 0x8d, 0x6c, 0x09, 0xbe, 0xe9, 0x27, 0x0d, 0x3e,
  0xfe, 0x23, 0x5e, 0xbd, 0xe5, 0x7c, 0x11, 0x3d, 0xbc, 0xe1, 0xd7, 0x3d,
  0x40, 0x2c, 0x9d, 0xbc, 0x80, 0xf4, 0xbd, 0xbd, 0x07, 0x5b, 0xd7, 0x3d,
  0xc9, 0xe4, 0xfd, 0xbd, 0xfa, 0xfa, 0x2e, 0x3e, 0xbd, 0x3f, 0x06, 0x3d,
  0xd3, 0x6d, 0x60, 0x3e, 0x2a, 0x0c, 0xa6, 0x3d, 0xb7, 0x26, 0x9c, 0x3d,
  0x00, 0x24, 0xd0, 0xbd, 0x3c, 0x79, 0x9e, 0xbe, 0x45, 0x9a, 0x8b, 0xbe,
  0x25, 0x27, 0x15, 0x3e, 0x47, 0x31, 0xad, 0x3c, 0x48, 0x20, 0x2c, 0x3e,
  0x37, 0x4d, 0x3c, 0x3e, 0x58, 0x85, 0xe7, 0xbc, 0xe0, 0x40, 0xea, 0x3d,
  0x24, 0xe6, 0x87, 0xbd, 0xf0, 0x7a, 0x0b, 0xbe, 0x3c, 0x54, 0xbf, 0xbe,
  0xf7, 0xf5, 0x22, 0x3d, 0x90, 0xb1, 0x76, 0x3d, 0xc6, 0x83, 0x7b, 0xbe,
  0xb2, 0xb1, 0x0e, 0x3e, 0x55, 0x19, 0x82, 0xbe, 0x5f, 0x03, 0x4a, 0xbf,
  0x2a, 0x88, 0x5a, 0xbf, 0x78, 0x2b, 0x8a, 0xbe, 0x1f, 0x62, 0xfe, 0x3d,
  0xab, 0x58, 0xe2, 0x3d, 0x4c, 0x7e, 0x42, 0xbe, 0x3d, 0x8c, 0xe8, 0x3b,
  0x88, 0x32, 0x15, 0x3e, 0xab, 0x51, 0x57, 0xbe, 0x09, 0xd2, 0x7c, 0xbd,
  0xd6, 0xff, 0xea, 0xbd, 0x82, 0xf3, 0x16, 0x3d, 0x5e, 0x8d, 0x2a, 0xbe,
  0xed, 0x0e, 0x80, 0xbe, 0x91, 0x13, 0x9d, 0x3d, 0x6b, 0xfc, 0xff, 0xbd,
  0x09, 0xb6, 0xbb, 0x3b, 0x66, 0xe9, 0x3e, 0xbe, 0x4a, 0xe8, 0xb4, 0xbc,
  0xc3, 0x6d, 0xf9, 0xbc, 0x28, 0xd6, 0x05, 0xbe, 0x4f, 0x64, 0xe3, 0x3d,
  0x66, 0xca, 0xce, 0xbd, 0x25, 0xc7, 0x4f, 0xbe, 0x80, 0x43, 0x44, 0xbe,
  0xbd, 0x70, 0xf6, 0xbd, 0x3c, 0xeb, 0xe5, 0xbd, 0xa8, 0xa0, 0xcc, 0xbe,
  0xdc, 0x84, 0x7a, 0x3e, 0xae, 0xae, 0xd7, 0xbe, 0x57, 0x87, 0x50, 0xbe,
  0x45, 0xf4, 0x9d, 0x3b, 0x7b, 0x83, 0x69, 0x3d, 0x09, 0x83, 0xa4, 0x3b,
  0x72, 0xd8, 0x28, 0x3d, 0x8d, 0x07, 0x3c, 0xbd, 0xaa, 0xd0, 0xa4, 0xbe,
  0xdc, 0x4d, 0x83, 0xbe, 0xd9, 0xb2, 0x1e, 0xbd, 0xd9, 0xa3, 0x7d, 0xbe,
  0x34, 0x03, 0xf3, 0xbd, 0xc1, 0xb8, 0x1a, 0x3d, 0xdb, 0x33, 0x59, 0xbc,
  0xb0, 0x6f, 0xc3, 0xbe, 0xd8, 0x0f, 0x70, 0x3e, 0x51, 0x22, 0x68, 0xbe,
  0xc1, 0x2a, 0x67, 0xbe, 0xb6, 0x81, 0x55, 0xbe, 0xd9, 0xa0, 0x2c, 0x3e,
  0xa7, 0x6e, 0xc5, 0x3d, 0xe5, 0x3d, 0x51, 0x3e, 0xca, 0xff, 0x37, 0xbe,
  0x57, 0xdc, 0x11, 0xbe, 0x42, 0x88, 0x38, 0x3d, 0xa4, 0x4d, 0xe7, 0xbd,
  0xb3, 0x68, 0x5d, 0xbe, 0xe5, 0x17, 0x22, 0xbb, 0x01, 0x38, 0x93, 0x3c,
  0x7f, 0xf3, 0x5b, 0xbe, 0x0c, 0xc0, 0x18, 0xbe, 0x7b, 0xda, 0x9e, 0x3e,
  0xcc, 0xb1, 0xfd, 0x3c, 0x64, 0x13, 0xcf, 0xbd, 0x61, 0x30, 0x95, 0x3d,
  0x94, 0x1b, 0x7b, 0x3e, 0x81, 0x03, 0x59, 0xbd, 0xe7, 0x87, 0xbb, 0x3e,
  0xc4, 0xbb, 0xa2, 0xbc, 0xf4, 0x23, 0xf6, 0x3c, 0xbd, 0x09, 0x18, 0x3d,
  0x61, 0x47, 0x84, 0xbe, 0xa5, 0xe7, 0x25, 0xbe, 0x77, 0xcb, 0x31, 0xbd,
  0x98, 0xa0, 0xa7, 0x3d, 0xcf, 0x81, 0x3d, 0xbd, 0x26, 0x21, 0x6a, 0xbe,
  0x3d, 0x94, 0x46, 0x3e, 0x0b, 0x20, 0x07, 0x3e, 0x41, 0xf6, 0x2b, 0xbd,
  0x2c, 0xb4, 0xf2, 0x3d, 0xe6, 0x8c, 0x3d, 0x3e, 0xf3, 0xb4, 0x17, 0x3d,
  0x7b, 0x21, 0xbc, 0x3d, 0xc1, 0xb5, 0x03, 0xbe, 0x30, 0xcd, 0x5b, 0xbe,
  0x77, 0xde, 0xac, 0xbb, 0x40, 0x8a, 0x85, 0xbe, 0x66, 0x1c, 0x5e, 0xbe,
  0x67, 0x5a, 0x01, 0xbe, 0x10, 0xf9, 0xb5, 0xbd, 0xd6, 0xad, 0x84, 0xbc,
  0xa3, 0x44, 0xbe, 0xbe, 0xf3, 0x40, 0xc9, 0x3e, 0xe9, 0x1a, 0x4b, 0xbe,
  0x68, 0x61, 0xa6, 0xbe, 0xf0, 0xc2, 0x93, 0xbd, 0x98, 0xf5, 0x46, 0x3e,
  0xc7, 0xb9, 0x92, 0x3d, 0xf2, 0xce, 0x28, 0x3e, 0x74, 0x10, 0xba, 0xbd,
  0xb6, 0x23, 0x66, 0xbe, 0xae, 0xfb, 0x3a, 0xbe, 0x36, 0xbd, 0x9b, 0xbd,
  0x44, 0xa0, 0x89, 0xbe, 0xdd, 0xeb, 0x95, 0xbe, 0xea, 0x15, 0xee, 0xbd,
  0xa1, 0xde, 0x2c, 0xbd, 0x02, 0x88, 0xbd, 0xbe, 0x4c, 0x76, 0x6a, 0x3e,
  0x7e, 0x0f, 0xbf, 0xbd, 0xd2, 0x13, 0x73, 0xbe, 0x43, 0xa5, 0x28, 0xbd,
  0x69, 0x30, 0xe7, 0x3d, 0xf8, 0x92, 0xc4, 0x3b, 0xae, 0x7f, 0x02, 0x3e,
  0x44, 0x18, 0x95, 0xbd, 0x57, 0x8d, 0x55, 0xbe, 0x75, 0x04, 0x5e, 0x3d,
  0x25, 0x40, 0x86, 0xbd, 0xd7, 0x60, 0x59, 0xbe, 0xc9, 0x5f, 0x0c, 0xbe,
  0xf5, 0x71, 0x07, 0xbe, 0x74, 0x5a, 0x30, 0xbe, 0xe2, 0x83, 0xc4, 0xbe,
  0xac, 0x17, 0x81, 0x3e, 0x91, 0x19, 0x98, 0xbd, 0x52, 0x39, 0x0c, 0xbd,
  0xdc, 0x98, 0xe8, 0x3b, 0xe3, 0x78, 0x6a, 0xbd, 0x36, 0xd6, 0x81, 0xbc,
  0xdc, 0x0d, 0x51, 0xbf, 0xb3, 0x62, 0xce, 0xbe, 0x72, 0xd3, 0xdb, 0xbe,
  0x95, 0x47, 0x42, 0xbf, 0x54, 0x23, 0x1d, 0xbf, 0xb7, 0xb6, 0xa7, 0xbb,
  0x49, 0x8e, 0xbb, 0xbe, 0x9b, 0xa3, 0xcb, 0x3e, 0xe8, 0x6c, 0x66, 0x3d,
  0x3d, 0x81, 0x2f, 0xbe, 0x6d, 0xaa, 0x34, 0xbe, 0xff, 0x4c, 0xaf, 0xbe,
  0x93, 0x3e, 0x02, 0x3e, 0xb2, 0x46, 0x7b, 0xbe, 0x2b, 0xc9, 0x84, 0xbe,
  0x61, 0x9f, 0x37, 0x3d, 0x37, 0x16, 0x90, 0xbe, 0x56, 0x2d, 0x35, 0x3e,
  0xd0, 0x0b, 0xfc, 0xbe, 0x1c, 0xdf, 0xde, 0xbc, 0x21, 0x57, 0x39, 0xbd,
  0x9e, 0xb1, 0x96, 0x3e, 0x53, 0xff, 0x0c, 0x3d, 0x67, 0x4f, 0x98, 0x3e,
  0x48, 0x06, 0xe9, 0x3d, 0xa8, 0x4e, 0x09, 0x3e, 0x2d, 0xe4, 0xc7, 0xbc,
  0x87, 0x80, 0xc0, 0xbe, 0x84, 0x31, 0x41, 0xbe, 0x78, 0xbe, 0x11, 0xbf,
  0x54, 0xea, 0xd3, 0xbe, 0xfc, 0x33, 0x3b, 0x3e, 0x63, 0x3d, 0x21, 0x3e,
  0xc9, 0xac, 0x80, 0x3e, 0xe6, 0xb8, 0xc4, 0xbe, 0x8a, 0xe6, 0x9a, 0x3d,
  0x36, 0x64, 0x44, 0x3e, 0x29, 0x66, 0x32, 0x3e, 0xac, 0x54, 0x74, 0x3d,
  0x4f, 0x35, 0xbf, 0x3e, 0x36, 0x6f, 0x9a, 0x3d, 0x9e, 0x36, 0x28, 0x3e,
  0xe1, 0x14, 0x10, 0xbe, 0xbe, 0x52, 0x76, 0x3d, 0x30, 0xfe, 0x9d, 0xbe,
  0x78, 0xad, 0x8a, 0xbe, 0x2d, 0x5a, 0x9f, 0xbc, 0xc3, 0xd3, 0xb8, 0x3d,
  0x6d, 0xf9, 0x81, 0x3c, 0x94, 0xf6, 0x93, 0x3e, 0xf9, 0x97, 0xaf, 0xbe,
  0x21, 0x62, 0x00, 0xbd, 0xc7, 0x57, 0x8a, 0x3e, 0x2a, 0xf8, 0x75, 0x3e,
  0x11, 0x54, 0xbb, 0xbc, 0x48, 0x5e, 0x85, 0x3e, 0x9b, 0xd2, 0x0b, 0xbe,
  0x3f, 0x3b, 0xb2, 0x3d, 0xdd, 0x33, 0x08, 0xbe, 0x3e, 0xdc, 0xbd, 0x3c,
  0x31, 0x9a, 0x68, 0xbe, 0x0d, 0x89, 0x07, 0x3e, 0xbf, 0x4d, 0xd2, 0x3d,
  0x8f, 0x71, 0x89, 0x3d, 0x1b, 0x48, 0xd8, 0xbd, 0xf9, 0x1b, 0x78, 0x3e,
  0x2b, 0xc6, 0xb6, 0xbd, 0x26, 0xcf, 0xfb, 0xbd, 0xad, 0x8f, 0x3b, 0x3e,
  0x61, 0x2d, 0x98, 0x3e, 0x22, 0x59, 0xae, 0x3c, 0x49, 0xb1, 0x73, 0x3d,
  0x33, 0xc6, 0xab, 0xbe, 0xed, 0x27, 0xc5, 0x3d, 0x04, 0x40, 0x42, 0xbe,
  0x9b, 0xed, 0x86, 0xbc, 0xb3, 0x31, 0xc1, 0xbe, 0xf2, 0xba, 0x44, 0xbe,
  0x0b, 0xec, 0x06, 0x3d, 0xa6, 0xe2, 0x97, 0x3d, 0xbb, 0xf9, 0x7d, 0x3e,
  0x60, 0x24, 0x3e, 0x3e, 0x03, 0xe4, 0x3f, 0xbc, 0x57, 0x35, 0x2f, 0x3c,
  0x02, 0x69, 0x0e, 0xbd, 0x6d, 0xb6, 0x7b, 0xbd, 0x2d, 0xec, 0x19, 0xbe,
  0x4c, 0x08, 0x28, 0x3d, 0xa8, 0x47, 0x97, 0xbe, 0x23, 0x53, 0xc3, 0x3d,
  0x97, 0x0a, 0xc6, 0xbe, 0x84, 0xb7, 0xc3, 0xbd, 0xeb, 0xa6, 0xbf, 0xbe,
  0x8a, 0x87, 0x76, 0x3c, 0x78, 0x08, 0x84, 0x3d, 0xef, 0x66, 0x91, 0x3d,
  0xea, 0x6e, 0x1a, 0x3d, 0xda, 0xec, 0x2a, 0xbc, 0xd5, 0xf2, 0xf7, 0xbc,
  0xf2, 0x88, 0x2a, 0xbe, 0x81, 0x8c, 0x59, 0xbd, 0xa1, 0xc6, 0x81, 0xbe,
  0xfb, 0xbf, 0xe3, 0xbb, 0x98, 0xe9, 0xbe, 0xbd, 0xd3, 0xf4, 0x61, 0xbe,
  0x38, 0xdd, 0xc6, 0x3c, 0x9f, 0xef, 0x2a, 0xbe, 0xec, 0x21, 0xab, 0x3d,
  0xb2, 0x92, 0x61, 0xbe, 0xb6, 0x6e, 0x7f, 0xbe, 0x8d, 0x42, 0x9f, 0xbc,
  0xaf, 0x4b, 0xa7, 0xbd, 0xf3, 0xd6, 0xa1, 0x3d, 0x9c, 0x11, 0x90, 0xbd,
  0x6e, 0xe4, 0x45, 0xbe, 0x9c, 0x8f, 0xd2, 0x3c, 0xb6, 0x62, 0xa4, 0xbd,
  0x0d, 0xfb, 0x10, 0xbe, 0x43, 0x61, 0x48, 0xbe, 0xef, 0x1f, 0xe1, 0x3d,
  0x37, 0x4d, 0x0b, 0xbe, 0xa7, 0xdb, 0x90, 0xbe, 0xcb, 0x09, 0x6b, 0xbd,
  0x09, 0x88, 0x1a, 0x3d, 0xd8, 0xb1, 0xc0, 0xbd, 0x98, 0x50, 0x44, 0x3d,
  0xed, 0x94, 0x32, 0xbd, 0xc5, 0x4b, 0xcd, 0x3b, 0xb8, 0x4b, 0x52, 0xbe,
  0xab, 0x87, 0x60, 0xbe, 0xdf, 0x7e, 0x93, 0xbd, 0xaf, 0x41, 0xff, 0x3c,
  0xfa, 0x1a, 0x1d, 0xbe, 0xdc, 0xde, 0x7a, 0xbe, 0xa6, 0x8a, 0xdf, 0xbd,
  0xa6, 0x6b, 0xda, 0xbd, 0x81, 0x47, 0x91, 0x3d, 0x92, 0x08, 0xaa, 0xbd,
  0xe6, 0xde, 0xc0, 0xbd, 0x23, 0xef, 0xab, 0xbd, 0x4a, 0xe0, 0x79, 0xbe,
  0xc1, 0xb0, 0x05, 0xbe, 0x1b, 0x36, 0xa2, 0xbd, 0x19, 0x6c, 0x4c, 0xbd,
  0x1a, 0xf5, 0x1f, 0x3b, 0xd4, 0x12, 0xd7, 0xbd, 0x3f, 0x03, 0x6f, 0xbe,
  0x10, 0xb3, 0xb9, 0xbd, 0xab, 0x90, 0xa7, 0xbd, 0x83, 0x64, 0x4b, 0xbe,
  0x19, 0xf8, 0x88, 0x3d, 0xdc, 0x12, 0x83, 0x3b, 0xc5, 0x10, 0x97, 0x3d,
  0xda, 0x21, 0x74, 0xbe, 0x9e, 0x2b, 0xaf, 0x3d, 0x64, 0xcf, 0x86, 0x3d,
  0xdb, 0x0a, 0x85, 0xbe, 0x6f, 0xd9, 0x83, 0x3c, 0x9f, 0x6b, 0x4f, 0xbe,
  0x01, 0x6d, 0x48, 0xbd, 0xe7, 0x67, 0x3c, 0x3e, 0x2d, 0xa0, 0x89, 0xbd,
  0x6b, 0xb9, 0x8a, 0x3c, 0xc0, 0xc9, 0xd4, 0x3d, 0x01, 0x22, 0xfd, 0x3c,
  0x6f, 0xb0, 0x05, 0xbe, 0xc9, 0x6d, 0x8d, 0x3d, 0xc2, 0x34, 0x03, 0x3e,
  0xc3, 0x20, 0x01, 0xbe, 0xbb, 0x3e, 0x81, 0xbe, 0x20, 0x19, 0x11, 0x3e,
  0x8c, 0x8e, 0x38, 0xbd, 0x8e, 0x90, 0x45, 0xbe, 0xb1, 0x7c, 0x1d, 0xbe,
  0x0c, 0xe4, 0x22, 0xbe, 0x74, 0xd1, 0x46, 0x3d, 0x37, 0x82, 0x2a, 0xbe,
  0x30, 0x20, 0xca, 0xbd, 0x7c, 0xdc, 0x52, 0xbd, 0xfd, 0x4c, 0x12, 0x3e,
  0xac, 0x6e, 0xf1, 0x3d, 0xce, 0x85, 0xcf, 0xbc, 0x37, 0x87, 0xc4, 0x3d,
  0xa8, 0x33, 0x87, 0xbd, 0x3e, 0xa1, 0xaf, 0x3d, 0x5d, 0xc2, 0x70, 0xbe,
  0x50, 0x54, 0xd8, 0xbd, 0xb2, 0xcc, 0x32, 0xbe, 0xc4, 0x99, 0x43, 0xbe,
  0xd2, 0x74, 0xec, 0xbb, 0x3f, 0xdf, 0x56, 0xbe, 0xf5, 0xfc, 0xb2, 0x3d,
  0xaf, 0xba, 0x96, 0xbd, 0x90, 0xbf, 0x9c, 0xbe, 0x82, 0x87, 0x5c, 0xbe,
  0x2b, 0x0b, 0x94, 0x3c, 0xc6, 0x12, 0xd2, 0xbd, 0xe6, 0x15, 0x1e, 0x3e,
  0x91, 0xd3, 0x39, 0xbe, 0xe7, 0xec, 0x10, 0xbe, 0xdd, 0xfd, 0xea, 0x3c,
  0x10, 0x51, 0x42, 0xbe, 0x31, 0x56, 0xba, 0xbd, 0x7a, 0x9d, 0x37, 0xbe,
  0xf1, 0x53, 0x7a, 0xbe, 0xd1, 0x17, 0xf7, 0x3c, 0xbc, 0x79, 0xce, 0xbc,
  0x72, 0x8a, 0x84, 0x3d, 0x10, 0x8b, 0x06, 0xbd, 0x9d, 0xa0, 0x21, 0xbe,
  0x7b, 0x67, 0xb7, 0xbd, 0x8a, 0x3a, 0xd0, 0x3b, 0x4b, 0xfe, 0xc9, 0x3d,
  0x4f, 0x0d, 0xdb, 0xbc, 0x20, 0x58, 0x4e, 0xbe, 0x84, 0x0b, 0xd4, 0xbd,
  0x1d, 0x2c, 0xe6, 0x3d, 0xab, 0x10, 0x8c, 0xbe, 0x57, 0x6e, 0x9d, 0xbd,
  0xd9, 0x5b, 0x04, 0xbe, 0x08, 0xc3, 0x5f, 0xbc, 0xad, 0x09, 0xac, 0xbd,
  0xcb, 0x43, 0x3e, 0xbe, 0xec, 0x83, 0x7b, 0x3d, 0xdb, 0xb6, 0x1f, 0x3f,
  0xe5, 0x12, 0x8b, 0x3e, 0xea, 0x71, 0x54, 0xbe, 0x2c, 0x55, 0xfb, 0x3d,
  0x58, 0x0c, 0x9b, 0x3e, 0xc8, 0xd3, 0x45, 0xbe, 0x00, 0x8c, 0x3a, 0x3e,
  0x1a, 0x67, 0xa8, 0xbd, 0x0b, 0x6d, 0xed, 0xbd, 0x2f, 0x1f, 0xe2, 0xbe,
  0x27, 0x4a, 0x84, 0x3e, 0x0d, 0xc4, 0x03, 0x3e, 0x9e, 0x4f, 0x9c, 0x3d,
  0x98, 0xee, 0x2a, 0xbe, 0xcc, 0x91, 0x0f, 0xbe, 0x5f, 0x49, 0xe9, 0xbc,
  0x4d, 0x34, 0x9a, 0xba, 0x8a, 0x6e, 0x99, 0xbd, 0x80, 0x4c, 0xf1, 0x3b,
  0xc6, 0x66, 0x56, 0x3e, 0x04, 0x7e, 0x3c, 0x3d, 0xda, 0x5f, 0xb8, 0x3d,
  0x19, 0xcf, 0x1a, 0x3e, 0xda, 0xf0, 0x0b, 0x3e, 0x42, 0xda, 0x9f, 0xbc,
  0x14, 0x03, 0x4a, 0xbd, 0x7f, 0x54, 0x36, 0xbe, 0xb1, 0x2a, 0x49, 0x3e,
  0x0d, 0xef, 0xc5, 0x3d, 0xcc, 0xb3, 0xbf, 0xbd, 0x5c, 0xa1, 0xa3, 0x3d,
  0xcd, 0xa7, 0x62, 0x3e, 0x4d, 0x58, 0xe2, 0x3d, 0x31, 0x56, 0x8f, 0xbe,
  0x9f, 0x7b, 0x64, 0x3e, 0x42, 0x44, 0x68, 0x3e, 0xb6, 0xbe, 0xdc, 0xbd,
  0x4d, 0xb2, 0xcd, 0x3c, 0xd8, 0xb6, 0x0c, 0xbe, 0xb9, 0x34, 0x3e, 0x3e,
  0x67, 0x53, 0x24, 0x3e, 0xde, 0x31, 0x4c, 0x3d, 0x70, 0xe6, 0x58, 0xbe,
  0x81, 0xf7, 0xb2, 0xbb, 0x11, 0xb4, 0x66, 0xbe, 0x57, 0x5d, 0x69, 0x3d,
  0x4f, 0x16, 0x5d, 0xbe, 0x95, 0x63, 0x9c, 0xbe, 0xad, 0x3f, 0x32, 0xbe,
  0x45, 0xfb, 0x36, 0xbe, 0x07, 0xdb, 0x8d, 0x3d, 0x79, 0xf2, 0x4a, 0xbd,
  0x85, 0xf3, 0x1f, 0xbe, 0x86, 0xe8, 0x1e, 0x3e, 0xce, 0xae, 0xd2, 0xbe,
  0xa7, 0x5d, 0xe8, 0xbb, 0xf9, 0x91, 0xbd, 0x3d, 0xfc, 0xce, 0x9a, 0xbb,
  0xf1, 0x6b, 0x3f, 0xbe, 0x75, 0x0b, 0x1b, 0xbf, 0x32, 0xf9, 0x2e, 0xbe,
  0xd6, 0x17, 0x7c, 0x3d, 0xb0, 0x1d, 0x05, 0xbf, 0x2a, 0x5d, 0xee, 0xbe,
  0x1f, 0x7c, 0x2d, 0x3e, 0x60, 0x71, 0xdc, 0xbc, 0x65, 0x22, 0x46, 0xbd,
  0xb4, 0x59, 0xa8, 0xbd, 0x46, 0x50, 0x33, 0xbe, 0xb0, 0x22, 0xf3, 0xbc,
  0x5c, 0x17, 0x8b, 0x3d, 0xb6, 0xd3, 0x78, 0xbe, 0xa0, 0x88, 0xb6, 0x3d,
  0x2a, 0x29, 0x2c, 0xbb, 0x63, 0xf5, 0x84, 0x3e, 0x0a, 0x0e, 0xda, 0xbe,
  0x28, 0xe7, 0xb2, 0xbd, 0x8e, 0x07, 0x0f, 0x3e, 0xac, 0xbe, 0x5c, 0xbd,
  0xd7, 0xa8, 0x0e, 0xbf, 0x24, 0xf4, 0xa8, 0x3d, 0x1e, 0x3b, 0x77, 0x3b,
  0x2e, 0xa3, 0xe2, 0xbd, 0x7f, 0x34, 0xd3, 0x3d, 0x9b, 0xa4, 0x42, 0xbe,
  0x23, 0x97, 0x01, 0xbe, 0x27, 0x0b, 0xce, 0x3c, 0x9f, 0xdb, 0xad, 0x3d,
  0xb2, 0x18, 0xb3, 0x3d, 0x8a, 0x20, 0x27, 0xbe, 0x7d, 0x67, 0x32, 0x3e,
  0x14, 0x0e, 0x92, 0xbe, 0x7e, 0x43, 0x15, 0xbe, 0xaa, 0x93, 0xfc, 0xbd,
  0x28, 0xb6, 0x9c, 0xbe, 0xfb, 0x62, 0xc5, 0xbe, 0xde, 0x3d, 0xa9, 0x3c,
  0x3a, 0xc6, 0xb8, 0xbc, 0xa3, 0x8c, 0x22, 0xbd, 0x55, 0x73, 0x75, 0xbe,
  0x1c, 0x60, 0x1a, 0x3e, 0xb1, 0xf7, 0x4d, 0xbc, 0xfb, 0x26, 0x36, 0xbd,
  0xe3, 0xfc, 0xa7, 0x3c, 0x21, 0x15, 0x5e, 0x3d, 0x9e, 0x42, 0x19, 0xbe,
  0x92, 0x05, 0xe7, 0x3d, 0x4d, 0x7b, 0xca, 0xbe, 0x26, 0x87, 0x4d, 0xbd,
  0x68, 0x6a, 0xed, 0x3d, 0x2c, 0x20, 0x4f, 0xbe, 0x15, 0x38, 0x0b, 0xbe,
  0x86, 0xcc, 0x7d, 0x3d, 0x1d, 0x06, 0x54, 0xbe, 0xb1, 0x0e, 0x4f, 0x3e,
  0x67, 0x80, 0x37, 0x3c, 0x90, 0x1a, 0x6a, 0xbe, 0x0e, 0xd1, 0x94, 0xbd,
  0x0f, 0xf9, 0x37, 0xbd, 0xc1, 0x90, 0xa0, 0xbe, 0xfb, 0x56, 0x80, 0xbd,
  0xab, 0x84, 0x77, 0x3e, 0x32, 0x0d, 0xa6, 0xbe, 0x73, 0x68, 0x3e, 0x3c,
  0x70, 0x06, 0x9e, 0xbe, 0xc1, 0xf2, 0x02, 0x3f, 0x95, 0x0e, 0xc5, 0x3d,
  0xce, 0x4e, 0x5d, 0x3d, 0x2c, 0x2f, 0xd2, 0x3d, 0xd1, 0x01, 0x3a, 0xbe,
  0x37, 0xd1, 0x45, 0x3d, 0xa6, 0xcd, 0x7e, 0xbd, 0x75, 0x98, 0x41, 0xbe,
  0x95, 0x31, 0x90, 0xbe, 0x35, 0x8a, 0xc9, 0x3d, 0xff, 0x96, 0x9a, 0xbe,
  0x1b, 0x67, 0x34, 0x3e, 0x61, 0x81, 0x9d, 0xbd, 0xed, 0x6f, 0x9a, 0xbe,
  0xf9, 0x9c, 0xad, 0x3c, 0xd1, 0x5f, 0x19, 0xbe, 0x81, 0x3b, 0xfb, 0x3d,
  0xdd, 0x51, 0x1b, 0x3e, 0xf1, 0x04, 0x22, 0xbe, 0x04, 0xba, 0x45, 0xbe,
  0x54, 0x21, 0x89, 0xbe, 0x9b, 0x7b, 0x71, 0x3c, 0x58, 0xdc, 0x92, 0xbd,
  0xb4, 0x33, 0x4d, 0xbc, 0x6d, 0x8d, 0x5a, 0xbe, 0x9a, 0x0b, 0xcb, 0x3e,
  0xe3, 0x62, 0x62, 0xbe, 0x41, 0x83, 0xd3, 0x3d, 0xc0, 0x39, 0xb1, 0xbe,
  0x26, 0x7f, 0x0b, 0xbe, 0xfa, 0x18, 0x5f, 0x3e, 0x0d, 0x2d, 0x9c, 0x3d,
  0xb8, 0x09, 0x10, 0x3f, 0xbd, 0x9c, 0xca, 0x3d, 0x7a, 0xf3, 0xaa, 0x3d,
  0x6e, 0xe6, 0xb3, 0xbd, 0x58, 0xac, 0xa7, 0xbe, 0xab, 0x01, 0xd7, 0x3d,
  0xc6, 0xff, 0xa8, 0x3e, 0x20, 0x25, 0x36, 0x3d, 0x13, 0x16, 0x74, 0xbe,
  0x8f, 0x03, 0x94, 0x3e, 0x64, 0x0f, 0x6b, 0xbe, 0x98, 0x91, 0xc1, 0x3e,
  0x01, 0xc8, 0x1c, 0xbe, 0x47, 0x89, 0x22, 0xbf, 0x66, 0xf2, 0xa8, 0x3e,
  0xe2, 0xdc, 0xa0, 0x3d, 0xb2, 0x6a, 0x0a, 0x3f, 0x9e, 0x24, 0xad, 0xbd,
  0xff, 0x42, 0x87, 0x3d, 0x87, 0xbb, 0x9d, 0x3d, 0x20, 0xd2, 0xb7, 0xbe,
  0x71, 0x1d, 0x1e, 0x3e, 0x46, 0x13, 0xd8, 0x3e, 0x0a, 0x6e, 0x00, 0x3e,
  0xf0, 0xc0, 0x06, 0xbe, 0x50, 0x08, 0x7a, 0x3d, 0x14, 0x2f, 0xe3, 0xbd,
  0x96, 0xf4, 0x4c, 0x3e, 0x9f, 0x35, 0xd6, 0xbb, 0xe5, 0xba, 0x58, 0xbf,
  0x30, 0x38, 0xc5, 0x3e, 0x05, 0xc5, 0xfd, 0xba, 0xb6, 0x97, 0x2b, 0x3f,
  0x07, 0x25, 0x39, 0x3e, 0xcd, 0x10, 0xd7, 0x3c, 0x6f, 0x94, 0x5a, 0xbe,
  0x07, 0xe2, 0x00, 0xbf, 0x9f, 0x33, 0x30, 0x3e, 0x1b, 0xbe, 0x59, 0x3e,
  0x48, 0x83, 0x17, 0xbc, 0x25, 0x14, 0xdc, 0xbd, 0x5c, 0xfa, 0x65, 0xbd,
  0x53, 0xab, 0x85, 0xbd, 0x5f, 0xff, 0x87, 0x3e, 0x3d, 0xc3, 0x87, 0x3d,
  0x2b, 0x39, 0xc8, 0xbe, 0xf0, 0x48, 0x1b, 0x3e, 0xc8, 0x89, 0x65, 0xbd,
  0xed, 0x54, 0x83, 0x3e, 0x8f, 0xc3, 0x7e, 0x3e, 0x80, 0x9f, 0xf5, 0x3d,
  0xf5, 0xdd, 0xb2, 0x3d, 0x0e, 0xff, 0x53, 0xbe, 0xfe, 0x56, 0x14, 0xbd,
  0x01, 0x5f, 0x16, 0x3e, 0xf3, 0x53, 0x80, 0xbd, 0xfa, 0xaf, 0x9a, 0xbc,
  0xa3, 0xa1, 0x82, 0xbd, 0x8b, 0x89, 0xe3, 0xbd, 0xfe, 0xf8, 0xdf, 0xbc,
  0x13, 0x4a, 0x0f, 0xbb, 0x9c, 0xab, 0xa3, 0xbd, 0xcb, 0xcf, 0xbb, 0x3b,
  0xfc, 0x42, 0x8c, 0xbd, 0x5f, 0xa9, 0x08, 0x3e, 0xf6, 0xc6, 0x80, 0x3c,
  0x41, 0xd3, 0x9a, 0x3a, 0x10, 0x0a, 0x8e, 0xbd, 0xb9, 0x5a, 0xf8, 0xbd,
  0xa4, 0xa3, 0x0f, 0xbc, 0xcf, 0xa5, 0x2b, 0xbd, 0x6e, 0xc0, 0xcf, 0xbc,
  0x14, 0x4f, 0x48, 0x3e, 0xc0, 0x65, 0x98, 0xbd, 0x38, 0x7c, 0xa5, 0x3d,
  0x30, 0x10, 0x8f, 0xbd, 0xb3, 0x0a, 0x0f, 0x3e, 0x45, 0x10, 0x79, 0xbd,
  0xb5, 0x88, 0xba, 0x3d, 0x4e, 0x40, 0xd4, 0xbd, 0x40, 0xba, 0xcb, 0xbc,
  0xb7, 0xe9, 0xe3, 0xbd, 0x7a, 0x6f, 0xe9, 0xbd, 0xbd, 0x06, 0x4f, 0xbe,
  0xae, 0xb3, 0x72, 0xbe, 0xa9, 0x07, 0xed, 0x3d, 0x36, 0xda, 0xf4, 0xba,
  0x0d, 0x4f, 0x22, 0x3e, 0x6a, 0x9d, 0x89, 0xbd, 0x57, 0x7f, 0xb7, 0xbd,
  0xba, 0x33, 0x4c, 0xbe, 0xa5, 0x3e, 0xb3, 0x3d, 0xbc, 0x81, 0x4d, 0xbe,
  0x7d, 0x9c, 0xbd, 0xbd, 0xb7, 0x47, 0x9c, 0xbe, 0x74, 0xb8, 0xee, 0xbd,
  0x72, 0x3a, 0x83, 0xbe, 0x75, 0xa1, 0x8b, 0xbd, 0xf5, 0x3d, 0x5f, 0xbd,
  0x1a, 0x8b, 0x26, 0x3e, 0x26, 0x28, 0x74, 0xbe, 0xfc, 0x87, 0xfc, 0xbd,
  0x2a, 0x8f, 0xa1, 0x3d, 0x04, 0x1f, 0x5a, 0x3e, 0x20, 0x64, 0x24, 0xbe,
  0x87, 0x76, 0x14, 0xbe, 0x3c, 0x8c, 0x01, 0x3e, 0xda, 0x96, 0x80, 0xbe,
  0xbd, 0xd3, 0x0f, 0xbe, 0x0c, 0xc2, 0x23, 0x3e, 0xc2, 0x07, 0x23, 0xbc,
  0x05, 0x51, 0x65, 0xbd, 0xea, 0x53, 0xa2, 0xbd, 0x7c, 0x7d, 0x08, 0x3d,
  0x1f, 0x9a, 0x7e, 0xbd, 0xd1, 0x05, 0xa9, 0x3d, 0xd1, 0x70, 0x08, 0x3e,
  0xe7, 0x8d, 0xa7, 0xbd, 0x00, 0x4e, 0x44, 0x3e, 0x08, 0x92, 0xb0, 0xbb,
  0xbe, 0x0e, 0x59, 0xbe, 0x1a, 0xf9, 0x82, 0x3e, 0x69, 0x70, 0x76, 0xbe,
  0xdf, 0x14, 0x67, 0xbe, 0x0f, 0xab, 0x8b, 0xbe, 0xb8, 0x8b, 0x14, 0x3e,
  0xd0, 0xc6, 0xf5, 0xbd, 0x89, 0xae, 0x8f, 0xbe, 0x7d, 0x91, 0x1d, 0xbd,
  0x44, 0x16, 0x38, 0xbe, 0x7f, 0xf1, 0x3c, 0x3d, 0x69, 0x72, 0x39, 0xbe,
  0xa8, 0x79, 0x7f, 0x3c, 0x00, 0xdb, 0xa6, 0xbd, 0xe0, 0x3c, 0x00, 0xbe,
  0xb1, 0x93, 0xac, 0xbd, 0x1f, 0x8a, 0x8a, 0x3d, 0x87, 0x85, 0x2f, 0x3e,
  0xb5, 0x79, 0xb6, 0x3d, 0xce, 0x3d, 0x7c, 0xbd, 0x0c, 0x23, 0x2a, 0xbe,
  0x86, 0xc1, 0x16, 0x3d, 0xf7, 0x76, 0x8a, 0x3d, 0xb0, 0x49, 0x99, 0xbe,
  0xc7, 0x3f, 0x2b, 0xbe, 0x4a, 0xad, 0xba, 0x3d, 0x3e, 0xe7, 0xcb, 0xbd,
  0xdd, 0x16, 0x20, 0xbe, 0xb2, 0x33, 0x04, 0xbe, 0x33, 0x15, 0xb1, 0x3d,
  0xc2, 0xe4, 0x5e, 0x3e, 0x05, 0xbf, 0x4b, 0x3e, 0x6f, 0xee, 0xf3, 0x3d,
  0x29, 0xa4, 0x9c, 0x3c, 0x46, 0x7e, 0x09, 0xbe, 0xb5, 0x15, 0x10, 0xbe,
  0xce, 0x81, 0x99, 0xbe, 0x00, 0x44, 0xc5, 0xbd, 0x34, 0x77, 0xf7, 0x3b,
  0x42, 0x78, 0x6f, 0x3d, 0x51, 0x97, 0x00, 0xbe, 0xb2, 0x6d, 0x0b, 0xbe,
  0xf2, 0x13, 0xa8, 0xbd, 0x77, 0xc2, 0x5b, 0xbc, 0xb4, 0x6a, 0x85, 0xbd,
  0x30, 0x4f, 0x8f, 0x3d, 0x72, 0x6d, 0xc0, 0x3c, 0xb9, 0x91, 0xe4, 0xbd,
  0x9e, 0x4a, 0xa4, 0xbe, 0xec, 0x6a, 0xcc, 0xbd, 0xec, 0x2d, 0x3d, 0xbe,
  0xfd, 0x6e, 0x3e, 0x3e, 0xf2, 0xa6, 0x82, 0xbe, 0xca, 0x5a, 0xb4, 0x3d,
  0xe3, 0xa3, 0xb0, 0xbd, 0xc4, 0xf3, 0xd7, 0x3b, 0x7d, 0x25, 0x56, 0xbe,
  0xf4, 0x04, 0x4c, 0xbd, 0x9d, 0x75, 0x20, 0xbd, 0xc1, 0x8b, 0x71, 0x3e,
  0xd0, 0x7e, 0xdd, 0xbe, 0xeb, 0x62, 0xa3, 0x3e, 0x6a, 0x4a, 0xf5, 0x3d,
  0x69, 0x51, 0xb6, 0xbe, 0x6c, 0x62, 0x28, 0xbd, 0xd9, 0xb6, 0x15, 0x3d,
  0xc5, 0x2e, 0x28, 0xbe, 0xfc, 0xd0, 0xed, 0x3d, 0x2b, 0x92, 0x53, 0x3e,
  0xa9, 0x7c, 0xcb, 0xbe, 0xb9, 0xc4, 0x35, 0x3d, 0x70, 0x85, 0x43, 0xbe,
  0xa9, 0xb0, 0xf0, 0x3e, 0x73, 0x96, 0x4f, 0x3e, 0x34, 0x25, 0x86, 0xbd,
  0xda, 0xba, 0xed, 0x3d, 0x5d, 0xb8, 0xad, 0xbe, 0xa5, 0x9e, 0xf8, 0x3d,
  0xf4, 0x13, 0x81, 0xbd, 0x89, 0x6c, 0x07, 0xbe, 0x62, 0xf8, 0xa3, 0xbe,
  0xf4, 0xd2, 0xfb, 0x3d, 0x55, 0x90, 0x95, 0xbd, 0x19, 0x60, 0xda, 0x3e,
  0xb4, 0x5f, 0x12, 0xbe, 0xcf, 0x2d, 0xfc, 0xbd, 0xf5, 0xef, 0xb9, 0x3a,
  0x52, 0xf6, 0x19, 0xbd, 0x2d, 0xb7, 0x40, 0x3e, 0xd6, 0x59, 0x42, 0x3e,
  0xe9, 0x47, 0x02, 0xbe, 0x44, 0xd9, 0x86, 0xbd, 0x4e, 0x92, 0xca, 0xbe,
  0x6a, 0x45, 0xae, 0x3d, 0x22, 0x6b, 0x5a, 0x3e, 0xeb, 0x79, 0x20, 0xbd,
  0xe7, 0x24, 0xa8, 0xbe, 0xf2, 0x41, 0x30, 0x3e, 0x6d, 0x88, 0x8d, 0xbd,
  0x0a, 0x06, 0x22, 0x3e, 0x55, 0x6d, 0xd7, 0xbd, 0x3c, 0x1f, 0x17, 0xbe,
  0x0a, 0x40, 0x72, 0x3e, 0x40, 0x76, 0xda, 0x3c, 0xd6, 0x7f, 0xdb, 0x3e,
  0x2f, 0x1a, 0x6d, 0x3d, 0x82, 0xed, 0x52, 0x3b, 0xda, 0xe6, 0xd3, 0xbe,
  0x26, 0xf7, 0x87, 0xbe, 0x89, 0xb0, 0xcb, 0x3d, 0x21, 0xcb, 0x9b, 0x3e,
  0x72, 0xab, 0x27, 0x3d, 0xc2, 0xec, 0x6d, 0xbe, 0xf0, 0xb1, 0x83, 0x3e,
  0x24, 0xa3, 0x83, 0x3c, 0x94, 0x66, 0xb0, 0x3e, 0x34, 0x54, 0x4a, 0x3d,
  0x15, 0x5c, 0xd4, 0xbe, 0x13, 0x24, 0xad, 0x3e, 0x73, 0x3e, 0xee, 0x3c,
  0x3d, 0x20, 0xc4, 0x3e, 0x2f, 0xc3, 0x47, 0x3d, 0x01, 0xec, 0x1d, 0x3d,
  0x18, 0x79, 0x21, 0xbd, 0x26, 0x01, 0x98, 0xbd, 0xcd, 0x33, 0x7c, 0x3e,
  0x03, 0xd2, 0xaf, 0x3e, 0xb2, 0x8a, 0x94, 0xbc, 0x46, 0xd7, 0x88, 0xbd,
  0x1e, 0xe8, 0x06, 0xbd, 0xa4, 0x08, 0xba, 0xbe, 0xd1, 0xf0, 0xb9, 0x3e,
  0x62, 0xf3, 0xaf, 0xbd, 0xd3, 0x30, 0xb3, 0xbe, 0xa2, 0x2a, 0x6f, 0x3e,
  0x87, 0x5c, 0xeb, 0x3d, 0x4c, 0x94, 0xe2, 0x3e, 0xf5, 0x02, 0x6e, 0x3e,
  0xb5, 0x63, 0xcd, 0xbd, 0x82, 0x81, 0xce, 0xbe, 0xd7, 0x71, 0xbb, 0xbe,
  0xe5, 0x11, 0xa0, 0x3d, 0x16, 0xb6, 0xde, 0x3e, 0x9e, 0xc3, 0x05, 0xbd,
  0x13, 0xaa, 0x90, 0xbd, 0x39, 0xec, 0x8b, 0x3c, 0x6c, 0x9f, 0x4f, 0xbd,
  0x05, 0xe2, 0x79, 0x3e, 0x31, 0x55, 0xea, 0xbd, 0x55, 0x95, 0xa1, 0xbe,
  0x2d, 0x53, 0x66, 0x3d, 0xaf, 0x9d, 0xfc, 0x3d, 0xac, 0x94, 0xcc, 0x3e,
  0x85, 0xd3, 0x15, 0x3e, 0x01, 0x7e, 0x0f, 0xbd, 0x5a, 0x6c, 0xb3, 0x3d,
  0xc2, 0xdd, 0xa1, 0xbe, 0xde, 0xba, 0x3f, 0xbd, 0xb2, 0x6f, 0xf0, 0x3d,
  0x3b, 0x58, 0x2a, 0xbe, 0xb9, 0x41, 0xe9, 0xbc, 0xf4, 0x70, 0xe7, 0x3b,
  0x8f, 0x22, 0x55, 0xbe, 0x91, 0xfe, 0x55, 0x3e, 0xc8, 0xd9, 0x69, 0xbc,
  0xc9, 0xa5, 0x70, 0xbe, 0x01, 0xae, 0x2f, 0x3c, 0x11, 0xaf, 0xd0, 0xbd,
  0x38, 0x0a, 0x76, 0x3e, 0x39, 0x8e, 0x58, 0x3d, 0x24, 0x95, 0x2c, 0x3d,
  0xea, 0x6f, 0xa2, 0xbd, 0x70, 0x69, 0x33, 0xbe, 0xec, 0xbf, 0xa7, 0xbe,
  0x7d, 0xb4, 0xbc, 0x3c, 0x0b, 0x34, 0x7f, 0xbe, 0xc1, 0x37, 0x90, 0xbe,
  0x15, 0x26, 0x04, 0x3c, 0x93, 0x9b, 0x3c, 0xbe, 0xba, 0xb5, 0xa4, 0xbd,
  0x48, 0x6c, 0x6b, 0xbe, 0xdf, 0x8e, 0x5e, 0x3d, 0x36, 0xa0, 0x25, 0xbe,
  0x04, 0x52, 0xaf, 0xbd, 0x70, 0xda, 0x14, 0x3e, 0x34, 0x64, 0xe5, 0xbd,
  0xe7, 0xf6, 0x7a, 0xbe, 0xda, 0x4b, 0x80, 0x3c, 0x3e, 0xdd, 0x9a, 0x3c,
  0xab, 0x58, 0xcb, 0xbc, 0xf7, 0x7e, 0x15, 0xbe, 0xde, 0x26, 0x04, 0x3d,
  0x5b, 0x8e, 0x99, 0xbe, 0xb6, 0xc9, 0xd8, 0x3d, 0xf6, 0x8f, 0xd2, 0x3d,
  0x7d, 0xd2, 0x68, 0xbd, 0x8f, 0x03, 0x98, 0xbe, 0x39, 0x38, 0x39, 0x3d,
  0x85, 0x53, 0xa8, 0xbd, 0x07, 0xdf, 0x6f, 0xbe, 0x27, 0xf9, 0xe9, 0x3d,
  0xf8, 0x16, 0xcc, 0xbd, 0x34, 0xd5, 0x07, 0x3e, 0x47, 0xab, 0x2d, 0x3e,
  0x2a, 0xcc, 0x1a, 0xbe, 0x95, 0xf4, 0xa7, 0xbd, 0x66, 0x00, 0x2f, 0xbe,
  0xf7, 0x7f, 0x1d, 0xbe, 0x5a, 0xb2, 0xb6, 0x3d, 0x0b, 0xd0, 0xa5, 0x3d,
  0xea, 0x1a, 0xac, 0xbd, 0x96, 0x1e, 0x64, 0x3d, 0x3a, 0x36, 0x6b, 0xbe,
  0x96, 0x52, 0xde, 0x3c, 0x87, 0x2e, 0xd6, 0xbc, 0xdd, 0xc2, 0xc1, 0x3c,
  0xb6, 0xe5, 0x1e, 0x3e, 0x24, 0x59, 0x1a, 0xbd, 0x92, 0xa2, 0x6e, 0x3d,
  0x1d, 0x31, 0x12, 0x3e, 0x28, 0x77, 0x9c, 0xbe, 0x10, 0x70, 0xb7, 0x3c,
  0xe7, 0xe9, 0x03, 0x3e, 0x5e, 0x73, 0xc2, 0xbd, 0xe7, 0xdb, 0x38, 0xbe,
  0x39, 0xe2, 0x9d, 0xbc, 0xfa, 0xa5, 0x7d, 0x3c, 0x53, 0x69, 0xa4, 0xbd,
  0x63, 0x7a, 0x29, 0xbe, 0xc8, 0x81, 0xbf, 0x3c, 0x82, 0xa6, 0x5c, 0xbd,
  0xc4, 0x0e, 0x18, 0x3c, 0xbd, 0x3a, 0x0b, 0x3e, 0x6c, 0xdd, 0x7e, 0xbe,
  0xd4, 0x95, 0x1a, 0x3d, 0xa3, 0xb1, 0x84, 0xba, 0x90, 0xba, 0x26, 0xbe,
  0x93, 0x56, 0x0f, 0x3d, 0x72, 0x39, 0x6f, 0x3d, 0x96, 0xd7, 0x17, 0xbe,
  0x5f, 0x07, 0x7c, 0xbe, 0x13, 0x47, 0xd4, 0x3d, 0xb9, 0x0d, 0x2e, 0xbd,
  0x4d, 0x92, 0x6d, 0xbb, 0x58, 0xed, 0x9a, 0xbd, 0x4c, 0x84, 0xbb, 0xbd,
  0x0a, 0x5d, 0xa7, 0x3a, 0x25, 0x66, 0x8e, 0xbe, 0x2e, 0x41, 0x0f, 0x3e,
  0xe5, 0x3a, 0xdb, 0xbd, 0x8e, 0xd2, 0x21, 0xbe, 0xf0, 0xd1, 0x4f, 0xbe,
  0x53, 0x2d, 0xff, 0xbd, 0x53, 0x94, 0x0d, 0xbe, 0x6f, 0xbf, 0x32, 0xbd,
  0xf9, 0xb3, 0x0b, 0xbe, 0x8f, 0xe5, 0x38, 0xbe, 0x10, 0x5b, 0xda, 0xbd,
  0x0d, 0x90, 0xf0, 0x3d, 0x01, 0x22, 0x8d, 0x3d, 0xff, 0xef, 0x9d, 0xbe,
  0xde, 0xe3, 0xf4, 0x3d, 0xbe, 0xcc, 0x94, 0x3d, 0xb9, 0x01, 0x3f, 0xbe,
  0x03, 0x82, 0x50, 0xbd, 0xd6, 0xff, 0x79, 0xbe, 0x73, 0x89, 0xa6, 0xbd,
  0x17, 0xc1, 0x93, 0xbd, 0xf1, 0x0e, 0x8b, 0xbe, 0x48, 0x50, 0x3f, 0xbe,
  0x40, 0xfc, 0xdb, 0x3c, 0xb3, 0x78, 0x15, 0xbd, 0x28, 0x51, 0xa3, 0x3d,
  0xd4, 0x8b, 0x24, 0xbe, 0x7c, 0xdc, 0x78, 0x3d, 0xb3, 0x86, 0xf3, 0x3c,
  0xbd, 0x45, 0x20, 0xbe, 0xfc, 0x9e, 0x6b, 0x3a, 0x0b, 0x64, 0x3c, 0x3b,
  0x3c, 0x88, 0x64, 0xbe, 0x6b, 0xfc, 0x7b, 0xbd, 0xe1, 0x92, 0x27, 0xbe,
  0x48, 0x34, 0x19, 0xbc, 0xe9, 0x6e, 0xd1, 0xbe, 0x33, 0x6f, 0x02, 0xbc,
  0x5c, 0xb6, 0x27, 0xbe, 0x3a, 0xe4, 0x61, 0x3e, 0xba, 0x39, 0x2d, 0x3d,
  0x1e, 0x35, 0xf9, 0x3d, 0xdb, 0x8c, 0x56, 0x3d, 0x52, 0x5e, 0xbb, 0xbe,
  0xd0, 0xf5, 0x8f, 0x3e, 0x8b, 0x41, 0xad, 0x3b, 0x70, 0x89, 0x05, 0x3d,
  0xd0, 0x50, 0x63, 0x3d, 0x3b, 0x25, 0x03, 0x3e, 0xc4, 0x57, 0x07, 0xbd,
  0x2a, 0x41, 0x8c, 0xbe, 0x32, 0xd0, 0xf2, 0xbd, 0x7e, 0x4b, 0x42, 0x3c,
  0x63, 0x19, 0xdd, 0xbd, 0x70, 0x12, 0xb2, 0xbe, 0x09, 0x92, 0xb8, 0xbd,
  0x1d, 0xd4, 0xac, 0x3d, 0x99, 0x17, 0x70, 0xbe, 0xa5, 0xfb, 0x42, 0xbe,
  0xa5, 0xcd, 0x1a, 0xbe, 0xe6, 0x70, 0x5f, 0xbb, 0x04, 0x31, 0x97, 0xbd,
  0xd8, 0x32, 0x0c, 0x3f, 0x5c, 0xf2, 0xc9, 0xbe, 0x6a, 0x9a, 0x95, 0x3d,
  0x2d, 0x5e, 0x95, 0xbe, 0x1b, 0x15, 0x75, 0x3c, 0x73, 0x57, 0x8f, 0xbd,
  0x6d, 0x1b, 0x6f, 0x3e, 0x60, 0x76, 0x41, 0xbb, 0xed, 0xf5, 0xf2, 0xbd,
  0xf0, 0x03, 0xc1, 0xbd, 0x06, 0x8d, 0xb2, 0x3d, 0xd1, 0xbe, 0x4d, 0xbe,
  0x49, 0xf9, 0x1b, 0xbe, 0x6e, 0xc2, 0x2e, 0xbe, 0x92, 0x40, 0x80, 0x3c,
  0x7f, 0xce, 0x44, 0xbd, 0x3a, 0x1d, 0xba, 0x3e, 0xed, 0xf1, 0x3f, 0xbe,
  0x19, 0xed, 0x3f, 0x3d, 0xfe, 0x7b, 0x2b, 0xbe, 0xae, 0x5a, 0x2d, 0x3e,
  0xd7, 0x42, 0xaa, 0xbd, 0x2c, 0x6d, 0x5a, 0x3d, 0x3f, 0xbc, 0xde, 0x3c,
  0x85, 0x6d, 0xbd, 0xbd, 0x78, 0xf0, 0xb3, 0x3d, 0x1a, 0xd8, 0x35, 0xbb,
  0x9d, 0x46, 0xb5, 0xbe, 0x75, 0xc4, 0xe1, 0xbd, 0xec, 0x0a, 0x56, 0xbd,
  0x80, 0x63, 0xc6, 0x3d, 0x64, 0x79, 0xb5, 0xbd, 0xb7, 0xb1, 0xd1, 0x3e,
  0x3f, 0x4f, 0xc5, 0xbd, 0x99, 0xa4, 0x00, 0x3e, 0x5a, 0x68, 0x0a, 0xbe,
  0x1c, 0x03, 0xad, 0x3d, 0x59, 0x4f, 0x85, 0xbd, 0xa5, 0x31, 0x05, 0xbc,
  0x47, 0x93, 0x11, 0xbe, 0x32, 0xf1, 0x58, 0xbe, 0xc4, 0xb9, 0x0c, 0x3e,
  0xec, 0x7c, 0xa6, 0x3d, 0x7f, 0xff, 0x78, 0xbe, 0xa9, 0x2c, 0x55, 0xbe,
  0x9d, 0x54, 0xe8, 0xbd, 0x12, 0xa0, 0x09, 0xbe, 0x16, 0xe0, 0xf2, 0xbc,
  0xd9, 0x3a, 0xae, 0x3e, 0xaa, 0x15, 0x2f, 0xbe, 0x5b, 0x17, 0x32, 0x3d,
  0xba, 0x22, 0xea, 0xbd, 0x78, 0x21, 0x04, 0x3e, 0xed, 0x94, 0x9c, 0xbd,
  0x73, 0x56, 0xfe, 0x3d, 0xa1, 0x57, 0x9b, 0xbd, 0x40, 0x1e, 0x6a, 0xbe,
  0x5d, 0x75, 0x3c, 0x3d, 0x43, 0x67, 0x2c, 0x3d, 0x2b, 0xb1, 0xfa, 0xbd,
  0xc1, 0xe6, 0x58, 0xbe, 0x88, 0xf4, 0xa4, 0xbd, 0x16, 0x41, 0x96, 0xbe,
  0x59, 0x23, 0xcf, 0xbc, 0xc3, 0xca, 0x8a, 0x3e, 0xcb, 0x55, 0x24, 0xbe,
  0xd5, 0x9a, 0xb7, 0x3c, 0xac, 0x8a, 0xab, 0xbd, 0x54, 0xff, 0x99, 0xbb,
  0xb1, 0x03, 0x14, 0xbe, 0x8f, 0x15, 0xed, 0xbd, 0xf9, 0x6d, 0x3c, 0x3d,
  0xad, 0xa2, 0x7c, 0x3d, 0x33, 0x3d, 0x75, 0xbe, 0x33, 0xed, 0x74, 0x3d,
  0x90, 0xe1, 0x2d, 0x3e, 0x04, 0xc7, 0x81, 0xbe, 0x3f, 0x20, 0xc0, 0xbd,
  0x42, 0x94, 0x08, 0xbd, 0xf2, 0x6d, 0x7b, 0x3d, 0x3d, 0x63, 0x17, 0x3e,
  0xb6, 0x69, 0x3f, 0xbe, 0x18, 0xe6, 0x34, 0x3d, 0x67, 0x54, 0x81, 0xbe,
  0x7f, 0x30, 0x71, 0xbd, 0xd1, 0x8b, 0x94, 0xbd, 0x08, 0x19, 0x96, 0x3d,
  0xd2, 0xcb, 0x42, 0x3b, 0xed, 0xf5, 0x3a, 0xbe, 0x31, 0xe1, 0x8a, 0x3c,
  0x2a, 0x37, 0x4c, 0x3d, 0xfd, 0x2b, 0x97, 0xbc, 0x3a, 0x38, 0x6b, 0xbe,
  0x23, 0x40, 0x3a, 0xbd, 0xe6, 0x2a, 0x1d, 0xbd, 0x97, 0xcc, 0x7d, 0xbe,
  0x8a, 0x1b, 0x9b, 0xbd, 0xc5, 0xc8, 0x31, 0xbe, 0x91, 0x32, 0x2b, 0xbe,
  0xd7, 0xdf, 0x27, 0xbe, 0x51, 0x62, 0xed, 0x3c, 0x39, 0x04, 0xf8, 0xbd,
  0xd2, 0xff, 0x51, 0xbe, 0xe0, 0x76, 0x6a, 0xbe, 0xd2, 0x8d, 0x00, 0x3d,
  0x31, 0x1b, 0xe0, 0xbd, 0xdb, 0xdc, 0x7b, 0x3c, 0xe7, 0x99, 0x50, 0x3c,
  0xcd, 0x10, 0x59, 0xbd, 0xaf, 0xb5, 0xd2, 0xbc, 0xc5, 0xf5, 0x13, 0xbe,
  0x39, 0x7d, 0x16, 0x3c, 0x89, 0x27, 0x37, 0xbe, 0x48, 0x64, 0x80, 0xbe,
  0x22, 0x34, 0x66, 0xbe, 0x2b, 0x8e, 0x79, 0xbc, 0xeb, 0xaf, 0x1f, 0xbe,
  0x54, 0xa9, 0xe5, 0x3d, 0xba, 0x94, 0x68, 0xbe, 0xbd, 0xd3, 0x55, 0xbc,
  0x61, 0x11, 0x28, 0xbd, 0xdb, 0xcd, 0x70, 0xbe, 0x9f, 0x5c, 0x5b, 0x3c,
  0x6f, 0x96, 0x44, 0xbe, 0xf0, 0xa6, 0xb7, 0x3d, 0xe4, 0x5d, 0x8c, 0x3c,
  0x9a, 0xd0, 0xce, 0x3d, 0xdb, 0x58, 0xea, 0xbd, 0xfb, 0x1e, 0x34, 0xbd,
  0x80, 0x72, 0x17, 0xbe, 0x34, 0x70, 0xfb, 0xbd, 0xea, 0x8a, 0x6f, 0xbd,
  0x03, 0x49, 0x96, 0xbe, 0x77, 0xe8, 0xbd, 0xbd, 0x1f, 0xa7, 0x19, 0x3e,
  0xf5, 0x8f, 0xf4, 0xbd, 0x24, 0xf8, 0x90, 0x3d, 0xd2, 0x13, 0xae, 0xbd,
  0x24, 0xd8, 0x9f, 0xbd, 0x97, 0xe1, 0x6d, 0xbe, 0x16, 0x98, 0xd9, 0xba,
  0x1b, 0x55, 0xaf, 0xbd, 0x36, 0x9e, 0x13, 0x3e, 0xf3, 0xd1, 0x90, 0xbc,
  0xac, 0xf6, 0xbe, 0xbd, 0x1d, 0x92, 0x74, 0xbe, 0xb9, 0x02, 0x8a, 0xbe,
  0xc4, 0xc6, 0x05, 0xbe, 0x50, 0xff, 0xae, 0xbc, 0x23, 0x07, 0x1d, 0xbe,
  0x8e, 0xa6, 0xc2, 0xbd, 0x72, 0xc2, 0x1b, 0xbe, 0x23, 0xf0, 0x37, 0xbe,
  0x8b, 0x1f, 0xf3, 0xbc, 0xe9, 0x7d, 0x32, 0xbe, 0xae, 0x55, 0x22, 0xbe,
  0x00, 0xa6, 0x54, 0x3b, 0x42, 0x8f, 0x62, 0xbd, 0x0d, 0xbf, 0x2f, 0x3e,
  0x31, 0x61, 0xb7, 0x3c, 0x56, 0x54, 0x00, 0x3d, 0xfa, 0xe6, 0x13, 0x3d,
  0xb0, 0xbf, 0x3f, 0x3d, 0xa9, 0x3c, 0x43, 0x3e, 0x3f, 0xf2, 0x43, 0xbe,
  0x40, 0x98, 0xb5, 0xbd, 0xf1, 0xe4, 0x0e, 0x3e, 0x63, 0x24, 0x92, 0xbe,
  0x97, 0x2a, 0xd2, 0x3c, 0x38, 0x1d, 0x12, 0xbe, 0xb6, 0x07, 0x45, 0xbe,
  0xd8, 0x86, 0x86, 0xbe, 0xad, 0x50, 0xfb, 0xbb, 0x33, 0x76, 0x35, 0xbe,
  0xc5, 0xae, 0x28, 0xbe, 0xb7, 0x0e, 0x8b, 0xbe, 0x29, 0x8a, 0x20, 0x3e,
  0xca, 0x14, 0x31, 0xbe, 0x35, 0x77, 0xfc, 0xbd, 0x7e, 0x1c, 0xc2, 0x3c,
  0xd1, 0xbd, 0xad, 0xbb, 0x41, 0xcf, 0xdc, 0xbd, 0xf0, 0x4d, 0x65, 0xbc,
  0x9a, 0x7f, 0x88, 0xbd, 0x2a, 0xaf, 0x5f, 0xbc, 0xa1, 0xe1, 0xa6, 0x3d,
  0xca, 0x93, 0x0b, 0x3e, 0x78, 0xc4, 0xf1, 0xbd, 0x58, 0x69, 0x33, 0xbe,
  0x42, 0x97, 0x23, 0xbe, 0x79, 0xa5, 0x7d, 0xbe, 0x88, 0xa4, 0x0f, 0xbe,
  0x9d, 0x33, 0x2e, 0xbe, 0x40, 0x6f, 0xf7, 0xbd, 0xa1, 0x9e, 0x5c, 0x3d,
  0x08, 0x7a, 0xf3, 0xbd, 0x48, 0x40, 0x8b, 0xbd, 0x3b, 0xd6, 0x66, 0xbe,
  0x55, 0x03, 0xcc, 0x3e, 0x1c, 0x91, 0x86, 0x3e, 0x14, 0x6c, 0x56, 0xbe,
  0x31, 0x7c, 0x46, 0x3e, 0xed, 0x66, 0x92, 0x3e, 0x35, 0x35, 0xb9, 0x3c,
  0xf2, 0x22, 0xf3, 0x3d, 0x0f, 0x12, 0x1d, 0x3e, 0x71, 0x66, 0xc9, 0xbe,
  0x35, 0xea, 0x5a, 0xbe, 0x9b, 0x91, 0x78, 0x3e, 0x26, 0x71, 0x09, 0x3c,
  0xf1, 0xe9, 0xcb, 0x3d, 0x5f, 0x2d, 0x8c, 0xbe, 0x58, 0x17, 0x01, 0x3e,
  0x5a, 0x28, 0x8c, 0xbc, 0x95, 0xf8, 0x93, 0xbd, 0x68, 0x57, 0x3a, 0xbe,
  0x42, 0x06, 0x7b, 0x3d, 0x35, 0xaf, 0x5b, 0x3e, 0x94, 0xd2, 0x21, 0xbd,
  0x5c, 0x21, 0x3c, 0xbd, 0x36, 0x9c, 0x84, 0xbb, 0x2c, 0x38, 0x9d, 0x3d,
  0x50, 0xb7, 0x02, 0x3e, 0x0b, 0x6c, 0x3d, 0xbe, 0xfe, 0x43, 0x32, 0xbe,
  0xc9, 0x60, 0xd8, 0x3d, 0xbb, 0xa2, 0x09, 0x3d, 0x71, 0x36, 0x92, 0x3d,
  0x4b, 0x41, 0x39, 0x3d, 0x4f, 0x6a, 0x02, 0xbd, 0x21, 0xe7, 0x24, 0xbe,
  0xec, 0x97, 0x16, 0xbe, 0xad, 0x5f, 0xec, 0x3c, 0x30, 0x80, 0x60, 0x3d,
  0xc4, 0x81, 0xe3, 0xbd, 0x1b, 0xa2, 0x78, 0xbd, 0xf0, 0xbf, 0x83, 0xbe,
  0xb2, 0x85, 0x0f, 0xbe, 0xba, 0x60, 0x3d, 0x3d, 0xd3, 0x24, 0x19, 0x3d,
  0xa7, 0x50, 0x7f, 0xbe, 0xc0, 0x3a, 0xfc, 0x3c, 0x50, 0x90, 0x4b, 0xbd,
  0xc6, 0x41, 0x8b, 0x3b, 0x2a, 0xba, 0x17, 0xbe, 0x63, 0x9f, 0xe4, 0xbe,
  0x2a, 0xac, 0x75, 0xbd, 0xc3, 0xc1, 0xd5, 0xbd, 0x81, 0xd8, 0xcf, 0x3d,
  0x44, 0x5c, 0x73, 0x3d, 0x4f, 0xa2, 0x1f, 0xbe, 0xa5, 0x28, 0x33, 0xbe,
  0xf0, 0x04, 0xd0, 0xbe, 0xf8, 0xa3, 0x75, 0xbe, 0x22, 0x54, 0x16, 0xbe,
  0x3e, 0xe5, 0xc6, 0xbd, 0x7a, 0x0a, 0x08, 0xbe, 0x5b, 0x36, 0x07, 0xbf,
  0xdf, 0x71, 0xa9, 0xbd, 0xf1, 0xba, 0x8e, 0xbe, 0xe1, 0x9b, 0x23, 0xbf,
  0xca, 0xa6, 0xf0, 0xbe, 0xb0, 0xd6, 0x56, 0xbe, 0xea, 0x00, 0xf9, 0xbd,
  0xcd, 0x6b, 0xd5, 0xbd, 0xe5, 0xaf, 0xa8, 0x3d, 0xa4, 0x81, 0xe8, 0xbd,
  0xbe, 0xc4, 0x4b, 0xbd, 0xa9, 0xe7, 0x02, 0xbd, 0x49, 0xc8, 0x72, 0x3e,
  0x51, 0x1d, 0xad, 0xbd, 0x55, 0xb9, 0x2f, 0xbe, 0xda, 0x38, 0x2d, 0x3e,
  0xcf, 0x70, 0xbb, 0xbe, 0x01, 0x19, 0x00, 0x3d, 0x26, 0x9a, 0x23, 0xbe,
  0xa8, 0x3b, 0x34, 0xbf, 0x6c, 0xfc, 0xb5, 0xbd, 0x55, 0x16, 0x23, 0x3d,
  0xbf, 0x16, 0x4a, 0x3d, 0x68, 0x22, 0x17, 0xbd, 0x1f, 0x6c, 0xe6, 0x3c,
  0xbf, 0x7b, 0xbc, 0x3d, 0x57, 0x31, 0x2c, 0xbe, 0x46, 0xd6, 0x3e, 0x3e,
  0xa9, 0xcd, 0xea, 0x3d, 0xe5, 0x7b, 0x26, 0xbe, 0x63, 0x04, 0x30, 0xbe,
  0xde, 0xda, 0x73, 0x3e, 0xb2, 0x51, 0xe9, 0x3d, 0xba, 0x16, 0x96, 0xbb,
  0xba, 0x10, 0x85, 0x3b, 0xb0, 0x39, 0x69, 0xbd, 0x06, 0xbe, 0x75, 0xbc,
  0xec, 0xbf, 0x9c, 0x3d, 0x40, 0x37, 0x89, 0x3d, 0x3d, 0x6b, 0x27, 0x3d,
  0x33, 0x4e, 0x98, 0x3d, 0xfc, 0x41, 0x72, 0x3d, 0x7a, 0xcd, 0x9d, 0x3d,
  0x45, 0x09, 0x32, 0x3e, 0xa5, 0xa3, 0xa1, 0x3d, 0xed, 0x44, 0x2f, 0x3d,
  0x4d, 0x51, 0xa8, 0xbd, 0x94, 0x3b, 0x8a, 0x3d, 0x00, 0x0c, 0x87, 0x3d,
  0x2f, 0x78, 0xdb, 0x3c, 0x38, 0xf9, 0xa2, 0xbb, 0xe9, 0x7a, 0xcc, 0x3c,
  0x76, 0x3f, 0xb3, 0x3d, 0x62, 0xfd, 0xff, 0xff, 0x10, 0x00, 0x00, 0x00,
  0x07, 0x00, 0x00, 0x00, 0x14, 0x00, 0x00, 0x00, 0x2c, 0x00, 0x00, 0x00,
  0x02, 0x00, 0x00, 0x00, 0x10, 0x00, 0x00, 0x00, 0x70, 0x00, 0x00, 0x00,
  0x17, 0x00, 0x00, 0x00, 0x73, 0x65, 0x71, 0x75, 0x65, 0x6e, 0x74, 0x69,
  0x61, 0x6c, 0x2f, 0x64, 0x65, 0x6e, 0x73, 0x65, 0x2f, 0x4d, 0x61, 0x74,
  0x4d, 0x75, 0x6c, 0x00, 0xcc, 0xfc, 0xff, 0xff, 0xd6, 0xfd, 0xff, 0xff,
  0x04, 0x00, 0x00, 0x00, 0x08, 0x00, 0x00, 0x00, 0xff, 0xff, 0xff, 0xff,
  0x70, 0x00, 0x00, 0x00, 0x00, 0x00, 0x0e, 0x00, 0x18, 0x00, 0x08, 0x00,
  0x07, 0x00, 0x0c, 0x00, 0x10, 0x00, 0x14, 0x00, 0x0e, 0x00, 0x00, 0x00,
  0x00, 0x00, 0x00, 0x02, 0x10, 0x00, 0x00, 0x00, 0x06, 0x00, 0x00, 0x00,
  0x10, 0x00, 0x00, 0x00, 0x2c, 0x00, 0x00, 0x00, 0x01, 0x00, 0x00, 0x00,
  0x02, 0x00, 0x00, 0x00, 0x18, 0x00, 0x00, 0x00, 0x73, 0x65, 0x71, 0x75,
  0x65, 0x6e, 0x74, 0x69, 0x61, 0x6c, 0x2f, 0x66, 0x6c, 0x61, 0x74, 0x74,
  0x65, 0x6e, 0x2f, 0x43, 0x6f, 0x6e, 0x73, 0x74, 0x00, 0x00, 0x00, 0x00,
  0x34, 0xfd, 0xff, 0xff, 0x3e, 0xfe, 0xff, 0xff, 0x04, 0x00, 0x00, 0x00,
  0x10, 0x00, 0x00, 0x00, 0xd6, 0x29, 0x80, 0xbf, 0xf9, 0x6f, 0xd2, 0xbf,
  0xcf, 0x1d, 0x6f, 0x3f, 0xa5, 0xf2, 0xda, 0xbe, 0x26, 0xfe, 0xff, 0xff,
  0x10, 0x00, 0x00, 0x00, 0x05, 0x00, 0x00, 0x00, 0x10, 0x00, 0x00, 0x00,
  0x44, 0x00, 0x00, 0x00, 0x01, 0x00, 0x00, 0x00, 0x04, 0x00, 0x00, 0x00,
  0x32, 0x00, 0x00, 0x00, 0x73, 0x65, 0x71, 0x75, 0x65, 0x6e, 0x74, 0x69,
  0x61, 0x6c, 0x2f, 0x64, 0x65, 0x6e, 0x73, 0x65, 0x5f, 0x31, 0x2f, 0x42,
  0x69, 0x61, 0x73, 0x41, 0x64, 0x64, 0x2f, 0x52, 0x65, 0x61, 0x64, 0x56,
  0x61, 0x72, 0x69, 0x61, 0x62, 0x6c, 0x65, 0x4f, 0x70, 0x2f, 0x72, 0x65,
  0x73, 0x6f, 0x75, 0x72, 0x63, 0x65, 0x00, 0x00, 0xa8, 0xfd, 0xff, 0xff,
  0xb2, 0xfe, 0xff, 0xff, 0x04, 0x00, 0x00, 0x00, 0x40, 0x00, 0x00, 0x00,
  0x66, 0x55, 0x1d, 0xbe, 0x47, 0x1d, 0xc6, 0xbf, 0x51, 0x31, 0xd9, 0x3f,
  0x5d, 0xb0, 0xf3, 0x3f, 0xcd, 0x6a, 0x1a, 0x40, 0xc1, 0xf9, 0x3b, 0xbe,
  0x37, 0x5e, 0xda, 0x3d, 0x27, 0xe6, 0x36, 0xbe, 0x56, 0x2d, 0xb3, 0xbf,
  0x32, 0x00, 0xb2, 0xbd, 0x59, 0xd8, 0xbf, 0xbd, 0x44, 0xc2, 0xba, 0x3f,
  0xc5, 0x5e, 0x1c, 0xbe, 0x46, 0xa1, 0x52, 0x3f, 0x76, 0x37, 0xfb, 0xbd,
  0x38, 0x7b, 0x06, 0xc0, 0xca, 0xfe, 0xff, 0xff, 0x10, 0x00, 0x00, 0x00,
  0x04, 0x00, 0x00, 0x00, 0x10, 0x00, 0x00, 0x00, 0x44, 0x00, 0x00, 0x00,
  0x01, 0x00, 0x00, 0x00, 0x10, 0x00, 0x00, 0x00, 0x30, 0x00, 0x00, 0x00,
  0x73, 0x65, 0x71, 0x75, 0x65, 0x6e, 0x74, 0x69, 0x61, 0x6c, 0x2f, 0x64,
  0x65, 0x6e, 0x73, 0x65, 0x2f, 0x42, 0x69, 0x61, 0x73, 0x41, 0x64, 0x64,
  0x2f, 0x52, 0x65, 0x61, 0x64, 0x56, 0x61, 0x72, 0x69, 0x61, 0x62, 0x6c,
  0x65, 0x4f, 0x70, 0x2f, 0x72, 0x65, 0x73, 0x6f, 0x75, 0x72, 0x63, 0x65,
  0x00, 0x00, 0x00, 0x00, 0x4c, 0xfe, 0xff, 0xff, 0x56, 0xff, 0xff, 0xff,
  0x04, 0x00, 0x00, 0x00, 0x40, 0x00, 0x00, 0x00, 0xb3, 0xc0, 0x9d, 0xbf,
  0x81, 0xe0, 0x1c, 0xbe, 0x8e, 0x3c, 0x25, 0x40, 0xba, 0xee, 0x61, 0x40,
  0xe9, 0xf9, 0x31, 0xba, 0xfa, 0x96, 0x34, 0xbb, 0xbd, 0x9e, 0xde, 0xbf,
  0x7d, 0x83, 0xef, 0xbe, 0x2a, 0x63, 0x68, 0x40, 0xef, 0xdf, 0x50, 0x3b,
  0x64, 0x29, 0xc4, 0xbf, 0xa3, 0xd7, 0x15, 0xc0, 0x10, 0x3e, 0xb3, 0x3e,
  0xcd, 0x8a, 0xb9, 0xbf, 0xeb, 0xc7, 0x3b, 0x40, 0x38, 0xda, 0xdd, 0xbf,
  0x6e, 0xff, 0xff, 0xff, 0x10, 0x00, 0x00, 0x00, 0x03, 0x00, 0x00, 0x00,
  0x10, 0x00, 0x00, 0x00, 0x48, 0x00, 0x00, 0x00, 0x01, 0x00, 0x00, 0x00,
  0x10, 0x00, 0x00, 0x00, 0x33, 0x00, 0x00, 0x00, 0x73, 0x65, 0x71, 0x75,
  0x65, 0x6e, 0x74, 0x69, 0x61, 0x6c, 0x2f, 0x63, 0x6f, 0x6e, 0x76, 0x32,
  0x64, 0x5f, 0x31, 0x2f, 0x42, 0x69, 0x61, 0x73, 0x41, 0x64, 0x64, 0x2f,
  0x52, 0x65, 0x61, 0x64, 0x56, 0x61, 0x72, 0x69, 0x61, 0x62, 0x6c, 0x65,
  0x4f, 0x70, 0x2f, 0x72, 0x65, 0x73, 0x6f, 0x75, 0x72, 0x63, 0x65, 0x00,
  0x04, 0x00, 0x06, 0x00, 0x04, 0x00, 0x00, 0x00, 0x00, 0x00, 0x06, 0x00,
  0x08, 0x00, 0x04, 0x00, 0x06, 0x00, 0x00, 0x00, 0x04, 0x00, 0x00, 0x00,
  0x20, 0x00, 0x00, 0x00, 0x23, 0x5b, 0x04, 0xbe, 0xda, 0xa9, 0x27, 0xc0,
  0x2f, 0x33, 0x19, 0xc0, 0x61, 0x6b, 0x1b, 0xc0, 0x42, 0xa4, 0x07, 0xc0,
  0x04, 0x86, 0x19, 0xc0, 0x69, 0x78, 0x4b, 0xbf, 0x38, 0x90, 0x26, 0xbe,
  0x00, 0x00, 0x0e, 0x00, 0x14, 0x00, 0x04, 0x00, 0x00, 0x00, 0x08, 0x00,
  0x0c, 0x00, 0x10, 0x00, 0x0e, 0x00, 0x00, 0x00, 0x10, 0x00, 0x00, 0x00,
  0x02, 0x00, 0x00, 0x00, 0x10, 0x00, 0x00, 0x00, 0x44, 0x00, 0x00, 0x00,
  0x01, 0x00, 0x00, 0x00, 0x08, 0x00, 0x00, 0x00, 0x31, 0x00, 0x00, 0x00,
  0x73, 0x65, 0x71, 0x75, 0x65, 0x6e, 0x74, 0x69, 0x61, 0x6c, 0x2f, 0x63,
  0x6f, 0x6e, 0x76, 0x32, 0x64, 0x2f, 0x42, 0x69, 0x61, 0x73, 0x41, 0x64,
  0x64, 0x2f, 0x52, 0x65, 0x61, 0x64, 0x56, 0x61, 0x72, 0x69, 0x61, 0x62,
  0x6c, 0x65, 0x4f, 0x70, 0x2f, 0x72, 0x65, 0x73, 0x6f, 0x75, 0x72, 0x63,
  0x65, 0x00, 0x00, 0x00, 0x90, 0xff, 0xff, 0xff, 0x14, 0x00, 0x18, 0x00,
  0x04, 0x00, 0x00, 0x00, 0x08, 0x00, 0x0c, 0x00, 0x10, 0x00, 0x00, 0x00,
  0x00, 0x00, 0x14, 0x00, 0x14, 0x00, 0x00, 0x00, 0x14, 0x00, 0x00, 0x00,
  0x01, 0x00, 0x00, 0x00, 0x20, 0x00, 0x00, 0x00, 0x44, 0x00, 0x00, 0x00,
  0x2c, 0x00, 0x00, 0x00, 0x04, 0x00, 0x00, 0x00, 0x01, 0x00, 0x00, 0x00,
  0x40, 0x00, 0x00, 0x00, 0x03, 0x00, 0x00, 0x00, 0x01, 0x00, 0x00, 0x00,
  0x0c, 0x00, 0x00, 0x00, 0x63, 0x6f, 0x6e, 0x76, 0x32, 0x64, 0x5f, 0x69,
  0x6e, 0x70, 0x75, 0x74, 0x00, 0x00, 0x00, 0x00, 0x04, 0x00, 0x00, 0x00,
  0xff, 0xff, 0xff, 0xff, 0x40, 0x00, 0x00, 0x00, 0x03, 0x00, 0x00, 0x00,
  0x01, 0x00, 0x00, 0x00, 0xfc, 0xff, 0xff, 0xff, 0x04, 0x00, 0x04, 0x00,
  0x04, 0x00, 0x00, 0x00
  // Paste the data of the char array in `src/model.cc` here
};

unsigned int model_tflite_len = 13120;// Fill the int in `src/model.cc` here