#include "magic_wand_model_data.h"

// We need to keep the data array aligned on some architectures.
#ifdef __has_attribute
#define HAVE_ATTRIBUTE(x) __has_attribute(x)
#else
#define HAVE_ATTRIBUTE(x) 0
#endif
#if HAVE_ATTRIBUTE(aligned) || (defined(__GNUC__) && !defined(__clang__))
#define DATA_ALIGN_ATTRIBUTE __attribute__((aligned(4)))
#else
#define DATA_ALIGN_ATTRIBUTE
#endif

const unsigned char g_magic_wand_model_data[] DATA_ALIGN_ATTRIBUTE = {
 0x1c, 0x00, 0x00, 0x00, 0x54, 0x46, 0x4c, 0x33, 0x14, 0x00, 0x20, 0x00,
  0x04, 0x00, 0x08, 0x00, 0x0c, 0x00, 0x10, 0x00, 0x14, 0x00, 0x00, 0x00,
  0x18, 0x00, 0x1c, 0x00, 0x14, 0x00, 0x00, 0x00, 0x03, 0x00, 0x00, 0x00,
  0x18, 0x00, 0x00, 0x00, 0x2c, 0x00, 0x00, 0x00, 0xd8, 0x00, 0x00, 0x00,
  0x2c, 0x00, 0x00, 0x00, 0x80, 0x00, 0x00, 0x00, 0x78, 0x00, 0x00, 0x00,
  0x05, 0x00, 0x00, 0x00, 0x28, 0x07, 0x00, 0x00, 0x44, 0x06, 0x00, 0x00,
  0xbc, 0x03, 0x00, 0x00, 0xf8, 0x02, 0x00, 0x00, 0xac, 0x01, 0x00, 0x00,
  0x01, 0x00, 0x00, 0x00, 0xd0, 0x00, 0x00, 0x00, 0x14, 0x00, 0x00, 0x00,
  0x98, 0x32, 0x00, 0x00, 0x94, 0x32, 0x00, 0x00, 0x8c, 0x31, 0x00, 0x00,
  0xd8, 0x30, 0x00, 0x00, 0x30, 0x30, 0x00, 0x00, 0xbc, 0x2f, 0x00, 0x00,
  0x50, 0x2f, 0x00, 0x00, 0x00, 0x13, 0x00, 0x00, 0xec, 0x11, 0x00, 0x00,
  0x10, 0x10, 0x00, 0x00, 0xb4, 0x07, 0x00, 0x00, 0x6c, 0x32, 0x00, 0x00,
  0x68, 0x32, 0x00, 0x00, 0x64, 0x32, 0x00, 0x00, 0x60, 0x32, 0x00, 0x00,
  0x5c, 0x32, 0x00, 0x00, 0x58, 0x32, 0x00, 0x00, 0x54, 0x32, 0x00, 0x00,
  0x50, 0x32, 0x00, 0x00, 0x3c, 0x00, 0x00, 0x00, 0x00, 0x00, 0x00, 0x00,
  0x01, 0x00, 0x00, 0x00, 0x0c, 0x00, 0x00, 0x00, 0x08, 0x00, 0x0c, 0x00,
  0x04, 0x00, 0x08, 0x00, 0x08, 0x00, 0x00, 0x00, 0x08, 0x00, 0x00, 0x00,
  0x13, 0x00, 0x00, 0x00, 0x13, 0x00, 0x00, 0x00, 0x6d, 0x69, 0x6e, 0x5f,
  0x72, 0x75, 0x6e, 0x74, 0x69, 0x6d, 0x65, 0x5f, 0x76, 0x65, 0x72, 0x73,
  0x69, 0x6f, 0x6e, 0x00, 0xfa, 0xce, 0xff, 0xff, 0x04, 0x00, 0x00, 0x00,
  0x10, 0x00, 0x00, 0x00, 0x31, 0x2e, 0x35, 0x2e, 0x30, 0x00, 0x00, 0x00,
  0x00, 0x00, 0x00, 0x00, 0x00, 0x00, 0x00, 0x00, 0x0f, 0x00, 0x00, 0x00,
  0x4d, 0x4c, 0x49, 0x52, 0x20, 0x43, 0x6f, 0x6e, 0x76, 0x65, 0x72, 0x74,
  0x65, 0x64, 0x2e, 0x00, 0x00, 0x00, 0x0e, 0x00, 0x18, 0x00, 0x04, 0x00,
  0x08, 0x00, 0x0c, 0x00, 0x10, 0x00, 0x14, 0x00, 0x0e, 0x00, 0x00, 0x00,
  0x14, 0x00, 0x00, 0x00, 0x5c, 0x00, 0x00, 0x00, 0x60, 0x00, 0x00, 0x00,
  0x64, 0x00, 0x00, 0x00, 0x84, 0x00, 0x00, 0x00, 0x12, 0x00, 0x00, 0x00,
  0x58, 0x31, 0x00, 0x00, 0xe8, 0x30, 0x00, 0x00, 0x44, 0x30, 0x00, 0x00,
  0x9c, 0x2f, 0x00, 0x00, 0xf4, 0x2e, 0x00, 0x00, 0x94, 0x2e, 0x00, 0x00,
  0x2c, 0x2e, 0x00, 0x00, 0xd8, 0x11, 0x00, 0x00, 0xbc, 0x10, 0x00, 0x00,
  0xe0, 0x0e, 0x00, 0x00, 0x0c, 0x06, 0x00, 0x00, 0x28, 0x05, 0x00, 0x00,
  0xe8, 0x03, 0x00, 0x00, 0x3c, 0x03, 0x00, 0x00, 0x98, 0x02, 0x00, 0x00,
  0xd4, 0x01, 0x00, 0x00, 0x10, 0x01, 0x00, 0x00, 0x84, 0x00, 0x00, 0x00,
  0x01, 0x00, 0x00, 0x00, 0x00, 0x00, 0x00, 0x00, 0x01, 0x00, 0x00, 0x00,
  0x11, 0x00, 0x00, 0x00, 0x08, 0x00, 0x00, 0x00, 0x74, 0x05, 0x00, 0x00,
  0x94, 0x04, 0x00, 0x00, 0x78, 0x03, 0x00, 0x00, 0xbc, 0x02, 0x00, 0x00,
  0x30, 0x02, 0x00, 0x00, 0x50, 0x01, 0x00, 0x00, 0xa8, 0x00, 0x00, 0x00,
  0x10, 0x00, 0x00, 0x00, 0x04, 0x00, 0x00, 0x00, 0x6d, 0x61, 0x69, 0x6e,
  0x00, 0x00, 0x00, 0x00, 0x7a, 0xff, 0xff, 0xff, 0x00, 0x00, 0x00, 0x09,
  0x04, 0x00, 0x00, 0x00, 0x1c, 0x00, 0x00, 0x00, 0x10, 0x00, 0x00, 0x00,
  0x04, 0x00, 0x00, 0x00, 0xf6, 0xcf, 0xff, 0xff, 0x00, 0x00, 0x80, 0x3f,
  0x01, 0x00, 0x00, 0x00, 0x11, 0x00, 0x00, 0x00, 0x01, 0x00, 0x00, 0x00,
  0x10, 0x00, 0x00, 0x00, 0xa0, 0xfa, 0xff, 0xff, 0x19, 0x00, 0x00, 0x00,
  0x00, 0x00, 0x00, 0x19, 0x01, 0x00, 0x00, 0x00, 0x84, 0xcf, 0xff, 0xff,
  0x14, 0x00, 0x00, 0x00, 0x12, 0x00, 0x00, 0x00, 0x18, 0x00, 0x00, 0x00,
  0x30, 0x00, 0x00, 0x00, 0x20, 0x00, 0x00, 0x00, 0x02, 0x00, 0x00, 0x00,
  0x01, 0x00, 0x00, 0x00, 0x03, 0x00, 0x00, 0x00, 0x08, 0x00, 0x00, 0x00,
  0x49, 0x64, 0x65, 0x6e, 0x74, 0x69, 0x74, 0x79, 0x00, 0x00, 0x00, 0x00,
  0x02, 0x00, 0x00, 0x00, 0xff, 0xff, 0xff, 0xff, 0x03, 0x00, 0x00, 0x00,
  0x68, 0xd0, 0xff, 0xff, 0x00, 0x00, 0x0e, 0x00, 0x18, 0x00, 0x08, 0x00,
  0x0c, 0x00, 0x10, 0x00, 0x07, 0x00, 0x14, 0x00, 0x0e, 0x00, 0x00, 0x00,
  0x00, 0x00, 0x00, 0x08, 0x03, 0x00, 0x00, 0x00, 0x18, 0x00, 0x00, 0x00,
  0x0c, 0x00, 0x00, 0x00, 0x04, 0x00, 0x00, 0x00, 0x84, 0xcf, 0xff, 0xff,
  0x01, 0x00, 0x00, 0x00, 0x10, 0x00, 0x00, 0x00, 0x03, 0x00, 0x00, 0x00,
  0x0f, 0x00, 0x00, 0x00, 0x07, 0x00, 0x00, 0x00, 0x04, 0x00, 0x00, 0x00,
  0x0c, 0xd0, 0xff, 0xff, 0x14, 0x00, 0x00, 0x00, 0x11, 0x00, 0x00, 0x00,
  0x18, 0x00, 0x00, 0x00, 0x5c, 0x00, 0x00, 0x00, 0x4c, 0x00, 0x00, 0x00,
  0x02, 0x00, 0x00, 0x00, 0x01, 0x00, 0x00, 0x00, 0x03, 0x00, 0x00, 0x00,
  0x34, 0x00, 0x00, 0x00, 0x73, 0x65, 0x71, 0x75, 0x65, 0x6e, 0x74, 0x69,
  0x61, 0x6c, 0x2f, 0x64, 0x65, 0x6e, 0x73, 0x65, 0x5f, 0x31, 0x2f, 0x4d,
  0x61, 0x74, 0x4d, 0x75, 0x6c, 0x3b, 0x73, 0x65, 0x71, 0x75, 0x65, 0x6e,
  0x74, 0x69, 0x61, 0x6c, 0x2f, 0x64, 0x65, 0x6e, 0x73, 0x65, 0x5f, 0x31,
  0x2f, 0x42, 0x69, 0x61, 0x73, 0x41, 0x64, 0x64, 0x00, 0x00, 0x00, 0x00,
  0x02, 0x00, 0x00, 0x00, 0xff, 0xff, 0xff, 0xff, 0x03, 0x00, 0x00, 0x00,
  0x0c, 0xd0, 0xff, 0xff, 0xda, 0xfc, 0xff, 0xff, 0x00, 0x00, 0x00, 0x08,
  0x03, 0x00, 0x00, 0x00, 0x24, 0x00, 0x00, 0x00, 0x18, 0x00, 0x00, 0x00,
  0x0c, 0x00, 0x00, 0x00, 0x00, 0x00, 0x06, 0x00, 0x08, 0x00, 0x07, 0x00,
  0x06, 0x00, 0x00, 0x00, 0x00, 0x00, 0x00, 0x01, 0x01, 0x00, 0x00, 0x00,
  0x0f, 0x00, 0x00, 0x00, 0x03, 0x00, 0x00, 0x00, 0x0e, 0x00, 0x00, 0x00,
  0x06, 0x00, 0x00, 0x00, 0x03, 0x00, 0x00, 0x00, 0xe8, 0xfb, 0xff, 0xff,
  0x09, 0x00, 0x00, 0x00, 0x00, 0x00, 0x00, 0x09, 0x01, 0x00, 0x00, 0x00,
  0xcc, 0xd0, 0xff, 0xff, 0x14, 0x00, 0x00, 0x00, 0x10, 0x00, 0x00, 0x00,
  0x18, 0x00, 0x00, 0x00, 0x6c, 0x00, 0x00, 0x00, 0x5c, 0x00, 0x00, 0x00,
  0x02, 0x00, 0x00, 0x00, 0x01, 0x00, 0x00, 0x00, 0x10, 0x00, 0x00, 0x00,
  0x46, 0x00, 0x00, 0x00, 0x73, 0x65, 0x71, 0x75, 0x65, 0x6e, 0x74, 0x69,
  0x61, 0x6c, 0x2f, 0x64, 0x65, 0x6e, 0x73, 0x65, 0x2f, 0x4d, 0x61, 0x74,
  0x4d, 0x75, 0x6c, 0x3b, 0x73, 0x65, 0x71, 0x75, 0x65, 0x6e, 0x74, 0x69,
  0x61, 0x6c, 0x2f, 0x64, 0x65, 0x6e, 0x73, 0x65, 0x2f, 0x52, 0x65, 0x6c,
  0x75, 0x3b, 0x73, 0x65, 0x71, 0x75, 0x65, 0x6e, 0x74, 0x69, 0x61, 0x6c,
  0x2f, 0x64, 0x65, 0x6e, 0x73, 0x65, 0x2f, 0x42, 0x69, 0x61, 0x73, 0x41,
  0x64, 0x64, 0x00, 0x00, 0x02, 0x00, 0x00, 0x00, 0xff, 0xff, 0xff, 0xff,
  0x10, 0x00, 0x00, 0x00, 0xec, 0xd1, 0xff, 0xff, 0x00, 0x00, 0x0a, 0x00,
  0x10, 0x00, 0x04, 0x00, 0x08, 0x00, 0x0c, 0x00, 0x0a, 0x00, 0x00, 0x00,
  0x02, 0x00, 0x00, 0x00, 0x10, 0x00, 0x00, 0x00, 0x04, 0x00, 0x00, 0x00,
  0x01, 0x00, 0x00, 0x00, 0x0e, 0x00, 0x00, 0x00, 0x02, 0x00, 0x00, 0x00,
  0x0d, 0x00, 0x00, 0x00, 0x05, 0x00, 0x00, 0x00, 0xa8, 0xfc, 0xff, 0xff,
  0x16, 0x00, 0x00, 0x00, 0x00, 0x00, 0x00, 0x16, 0x01, 0x00, 0x00, 0x00,
  0x8c, 0xd1, 0xff, 0xff, 0x14, 0x00, 0x00, 0x00, 0x0f, 0x00, 0x00, 0x00,
  0x18, 0x00, 0x00, 0x00, 0x40, 0x00, 0x00, 0x00, 0x30, 0x00, 0x00, 0x00,
  0x02, 0x00, 0x00, 0x00, 0x01, 0x00, 0x00, 0x00, 0x70, 0x00, 0x00, 0x00,
  0x1a, 0x00, 0x00, 0x00, 0x73, 0x65, 0x71, 0x75, 0x65, 0x6e, 0x74, 0x69,
  0x61, 0x6c, 0x2f, 0x66, 0x6c, 0x61, 0x74, 0x74, 0x65, 0x6e, 0x2f, 0x52,
  0x65, 0x73, 0x68, 0x61, 0x70, 0x65, 0x00, 0x00, 0x02, 0x00, 0x00, 0x00,
  0xff, 0xff, 0xff, 0xff, 0x70, 0x00, 0x00, 0x00, 0x70, 0xd1, 0xff, 0xff,
  0x3e, 0xfe, 0xff, 0xff, 0x00, 0x00, 0x00, 0x05, 0x01, 0x00, 0x00, 0x00,
  0x38, 0x00, 0x00, 0x00, 0x2c, 0x00, 0x00, 0x00, 0x14, 0x00, 0x00, 0x00,
  0x00, 0x00, 0x0e, 0x00, 0x14, 0x00, 0x00, 0x00, 0x10, 0x00, 0x0c, 0x00,
  0x08, 0x00, 0x04, 0x00, 0x0e, 0x00, 0x00, 0x00, 0x03, 0x00, 0x00, 0x00,
  0x01, 0x00, 0x00, 0x00, 0x03, 0x00, 0x00, 0x00, 0x01, 0x00, 0x00, 0x00,
  0x01, 0x00, 0x00, 0x00, 0x0d, 0x00, 0x00, 0x00, 0x01, 0x00, 0x00, 0x00,
  0x0c, 0x00, 0x00, 0x00, 0x2c, 0xd2, 0xff, 0xff, 0x14, 0x00, 0x00, 0x00,
  0x0e, 0x00, 0x00, 0x00, 0x20, 0x00, 0x00, 0x00, 0x58, 0x00, 0x00, 0x00,
  0x40, 0x00, 0x00, 0x00, 0x04, 0x00, 0x00, 0x00, 0x01, 0x00, 0x00, 0x00,
  0x07, 0x00, 0x00, 0x00, 0x01, 0x00, 0x00, 0x00, 0x10, 0x00, 0x00, 0x00,
  0x22, 0x00, 0x00, 0x00, 0x73, 0x65, 0x71, 0x75, 0x65, 0x6e, 0x74, 0x69,
  0x61, 0x6c, 0x2f, 0x6d, 0x61, 0x78, 0x5f, 0x70, 0x6f, 0x6f, 0x6c, 0x69,
  0x6e, 0x67, 0x32, 0x64, 0x5f, 0x31, 0x2f, 0x4d, 0x61, 0x78, 0x50, 0x6f,
  0x6f, 0x6c, 0x00, 0x00, 0x04, 0x00, 0x00, 0x00, 0xff, 0xff, 0xff, 0xff,
  0x07, 0x00, 0x00, 0x00, 0x01, 0x00, 0x00, 0x00, 0x10, 0x00, 0x00, 0x00,
  0x28, 0xd2, 0xff, 0xff, 0x1a, 0xfe, 0xff, 0xff, 0x00, 0x00, 0x00, 0x01,
  0x24, 0x00, 0x00, 0x00, 0x18, 0x00, 0x00, 0x00, 0x04, 0x00, 0x00, 0x00,
  0x0c, 0xfe, 0xff, 0xff, 0x01, 0x00, 0x00, 0x00, 0x01, 0x00, 0x00, 0x00,
  0x00, 0x00, 0x00, 0x01, 0x01, 0x00, 0x00, 0x00, 0x0c, 0x00, 0x00, 0x00,
  0x03, 0x00, 0x00, 0x00, 0x0b, 0x00, 0x00, 0x00, 0x09, 0x00, 0x00, 0x00,
  0x02, 0x00, 0x00, 0x00, 0xd4, 0xd2, 0xff, 0xff, 0x14, 0x00, 0x00, 0x00,
  0x0d, 0x00, 0x00, 0x00, 0x20, 0x00, 0x00, 0x00, 0xb8, 0x00, 0x00, 0x00,
  0xa0, 0x00, 0x00, 0x00, 0x04, 0x00, 0x00, 0x00, 0x01, 0x00, 0x00, 0x00,
  0x15, 0x00, 0x00, 0x00, 0x01, 0x00, 0x00, 0x00, 0x10, 0x00, 0x00, 0x00,
  0x83, 0x00, 0x00, 0x00, 0x73, 0x65, 0x71, 0x75, 0x65, 0x6e, 0x74, 0x69,
  0x61, 0x6c, 0x2f, 0x63, 0x6f, 0x6e, 0x76, 0x32, 0x64, 0x5f, 0x31, 0x2f,
  0x52, 0x65, 0x6c, 0x75, 0x3b, 0x73, 0x65, 0x71, 0x75, 0x65, 0x6e, 0x74,
  0x69, 0x61, 0x6c, 0x2f, 0x63, 0x6f, 0x6e, 0x76, 0x32, 0x64, 0x5f, 0x31,
  0x2f, 0x42, 0x69, 0x61, 0x73, 0x41, 0x64, 0x64, 0x3b, 0x73, 0x65, 0x71,
  0x75, 0x65, 0x6e, 0x74, 0x69, 0x61, 0x6c, 0x2f, 0x63, 0x6f, 0x6e, 0x76,
  0x32, 0x64, 0x5f, 0x31, 0x2f, 0x43, 0x6f, 0x6e, 0x76, 0x32, 0x44, 0x3b,
  0x73, 0x65, 0x71, 0x75, 0x65, 0x6e, 0x74, 0x69, 0x61, 0x6c, 0x2f, 0x63,
  0x6f, 0x6e, 0x76, 0x32, 0x64, 0x5f, 0x31, 0x2f, 0x42, 0x69, 0x61, 0x73,
  0x41, 0x64, 0x64, 0x2f, 0x52, 0x65, 0x61, 0x64, 0x56, 0x61, 0x72, 0x69,
  0x61, 0x62, 0x6c, 0x65, 0x4f, 0x70, 0x2f, 0x72, 0x65, 0x73, 0x6f, 0x75,
  0x72, 0x63, 0x65, 0x00, 0x04, 0x00, 0x00, 0x00, 0xff, 0xff, 0xff, 0xff,
  0x15, 0x00, 0x00, 0x00, 0x01, 0x00, 0x00, 0x00, 0x10, 0x00, 0x00, 0x00,
  0x40, 0xd4, 0xff, 0xff, 0x00, 0x00, 0x0e, 0x00, 0x1a, 0x00, 0x08, 0x00,
  0x0c, 0x00, 0x10, 0x00, 0x07, 0x00, 0x14, 0x00, 0x0e, 0x00, 0x00, 0x00,
  0x00, 0x00, 0x00, 0x05, 0x01, 0x00, 0x00, 0x00, 0x3c, 0x00, 0x00, 0x00,
  0x30, 0x00, 0x00, 0x00, 0x14, 0x00, 0x00, 0x00, 0x00, 0x00, 0x0e, 0x00,
  0x18, 0x00, 0x17, 0x00, 0x10, 0x00, 0x0c, 0x00, 0x08, 0x00, 0x04, 0x00,
  0x0e, 0x00, 0x00, 0x00, 0x03, 0x00, 0x00, 0x00, 0x03, 0x00, 0x00, 0x00,
  0x03, 0x00, 0x00, 0x00, 0x03, 0x00, 0x00, 0x00, 0x00, 0x00, 0x00, 0x01,
  0x01, 0x00, 0x00, 0x00, 0x0b, 0x00, 0x00, 0x00, 0x01, 0x00, 0x00, 0x00,
  0x0a, 0x00, 0x00, 0x00, 0x2c, 0xff, 0xff, 0xff, 0x11, 0x00, 0x00, 0x00,
  0x00, 0x00, 0x00, 0x11, 0x01, 0x00, 0x00, 0x00, 0x10, 0xd4, 0xff, 0xff,
  0x14, 0x00, 0x00, 0x00, 0x0c, 0x00, 0x00, 0x00, 0x20, 0x00, 0x00, 0x00,
  0x58, 0x00, 0x00, 0x00, 0x40, 0x00, 0x00, 0x00, 0x04, 0x00, 0x00, 0x00,
  0x01, 0x00, 0x00, 0x00, 0x15, 0x00, 0x00, 0x00, 0x01, 0x00, 0x00, 0x00,
  0x08, 0x00, 0x00, 0x00, 0x20, 0x00, 0x00, 0x00, 0x73, 0x65, 0x71, 0x75,
  0x65, 0x6e, 0x74, 0x69, 0x61, 0x6c, 0x2f, 0x6d, 0x61, 0x78, 0x5f, 0x70,
  0x6f, 0x6f, 0x6c, 0x69, 0x6e, 0x67, 0x32, 0x64, 0x2f, 0x4d, 0x61, 0x78,
  0x50, 0x6f, 0x6f, 0x6c, 0x00, 0x00, 0x00, 0x00, 0x04, 0x00, 0x00, 0x00,
  0xff, 0xff, 0xff, 0xff, 0x15, 0x00, 0x00, 0x00, 0x01, 0x00, 0x00, 0x00,
  0x08, 0x00, 0x00, 0x00, 0x1c, 0xd5, 0xff, 0xff, 0x00, 0x00, 0x0e, 0x00,
  0x14, 0x00, 0x00, 0x00, 0x08, 0x00, 0x0c, 0x00, 0x07, 0x00, 0x10, 0x00,
  0x0e, 0x00, 0x00, 0x00, 0x00, 0x00, 0x00, 0x01, 0x30, 0x00, 0x00, 0x00,
  0x24, 0x00, 0x00, 0x00, 0x10, 0x00, 0x00, 0x00, 0x0c, 0x00, 0x10, 0x00,
  0x00, 0x00, 0x04, 0x00, 0x08, 0x00, 0x0f, 0x00, 0x0c, 0x00, 0x00, 0x00,
  0x01, 0x00, 0x00, 0x00, 0x01, 0x00, 0x00, 0x00, 0x00, 0x00, 0x00, 0x01,
  0x01, 0x00, 0x00, 0x00, 0x0a, 0x00, 0x00, 0x00, 0x03, 0x00, 0x00, 0x00,
  0x00, 0x00, 0x00, 0x00, 0x08, 0x00, 0x00, 0x00, 0x01, 0x00, 0x00, 0x00,
  0x0c, 0x00, 0x10, 0x00, 0x0b, 0x00, 0x00, 0x00, 0x0c, 0x00, 0x04, 0x00,
  0x0c, 0x00, 0x00, 0x00, 0x03, 0x00, 0x00, 0x00, 0x00, 0x00, 0x00, 0x03,
  0x01, 0x00, 0x00, 0x00, 0xf0, 0xd4, 0xff, 0xff, 0x14, 0x00, 0x00, 0x00,
  0x0b, 0x00, 0x00, 0x00, 0x20, 0x00, 0x00, 0x00, 0xb0, 0x00, 0x00, 0x00,
  0x98, 0x00, 0x00, 0x00, 0x04, 0x00, 0x00, 0x00, 0x01, 0x00, 0x00, 0x00,
  0x40, 0x00, 0x00, 0x00, 0x03, 0x00, 0x00, 0x00, 0x08, 0x00, 0x00, 0x00,
  0x7b, 0x00, 0x00, 0x00, 0x73, 0x65, 0x71, 0x75, 0x65, 0x6e, 0x74, 0x69,
  0x61, 0x6c, 0x2f, 0x63, 0x6f, 0x6e, 0x76, 0x32, 0x64, 0x2f, 0x52, 0x65,
  0x6c, 0x75, 0x3b, 0x73, 0x65, 0x71, 0x75, 0x65, 0x6e, 0x74, 0x69, 0x61,
  0x6c, 0x2f, 0x63, 0x6f, 0x6e, 0x76, 0x32, 0x64, 0x2f, 0x42, 0x69, 0x61,
  0x73, 0x41, 0x64, 0x64, 0x3b, 0x73, 0x65, 0x71, 0x75, 0x65, 0x6e, 0x74,
  0x69, 0x61, 0x6c, 0x2f, 0x63, 0x6f, 0x6e, 0x76, 0x32, 0x64, 0x2f, 0x43,
  0x6f, 0x6e, 0x76, 0x32, 0x44, 0x3b, 0x73, 0x65, 0x71, 0x75, 0x65, 0x6e,
  0x74, 0x69, 0x61, 0x6c, 0x2f, 0x63, 0x6f, 0x6e, 0x76, 0x32, 0x64, 0x2f,
  0x42, 0x69, 0x61, 0x73, 0x41, 0x64, 0x64, 0x2f, 0x52, 0x65, 0x61, 0x64,
  0x56, 0x61, 0x72, 0x69, 0x61, 0x62, 0x6c, 0x65, 0x4f, 0x70, 0x2f, 0x72,
  0x65, 0x73, 0x6f, 0x75, 0x72, 0x63, 0x65, 0x00, 0x04, 0x00, 0x00, 0x00,
  0xff, 0xff, 0xff, 0xff, 0x40, 0x00, 0x00, 0x00, 0x03, 0x00, 0x00, 0x00,
  0x08, 0x00, 0x00, 0x00, 0x44, 0xd5, 0xff, 0xff, 0x4e, 0xd6, 0xff, 0xff,
  0x04, 0x00, 0x00, 0x00, 0x00, 0x08, 0x00, 0x00, 0x80, 0xbf, 0xa2, 0x3e,
  0xf6, 0x96, 0x16, 0x3e, 0x49, 0x0b, 0xc2, 0xbd, 0x61, 0x21, 0xeb, 0xbd,
  0x6e, 0xf5, 0xe7, 0x3c, 0xe4, 0xb2, 0xaa, 0xbe, 0x6d, 0x21, 0xd9, 0x3e,
  0xf0, 0xf5, 0x32, 0xbe, 0xaf, 0x0a, 0xae, 0x3c, 0x2b, 0x5b, 0xa2, 0x3e,
  0x8d, 0x80, 0x0f, 0x3e, 0xf7, 0xd5, 0x27, 0xbe, 0x1f, 0xfb, 0x86, 0xbd,
  0x4f, 0x6b, 0x80, 0xbe, 0x59, 0x1f, 0xdc, 0xbd, 0x04, 0x92, 0xc1, 0x3d,
  0xc8, 0xe3, 0x8f, 0xbe, 0x73, 0x91, 0x75, 0xbe, 0x02, 0xf4, 0x9b, 0x3c,
  0x15, 0xd6, 0x1e, 0xbd, 0x0f, 0x01, 0x4d, 0xbc, 0xa5, 0x8d, 0xae, 0x3d,
  0x1f, 0xce, 0xe2, 0xbd, 0xb6, 0xbc, 0xa4, 0x3d, 0x39, 0x44, 0xbd, 0xbe,
  0x3a, 0x4d, 0xe2, 0xbe, 0x3a, 0xe8, 0x7f, 0xbd, 0xe3, 0xdc, 0x83, 0xbb,
  0x0c, 0x5e, 0x50, 0xbd, 0xf7, 0x5b, 0x61, 0x3e, 0xb2, 0xbe, 0x33, 0xbe,
  0xf3, 0xd0, 0x28, 0x3e, 0xb5, 0xf0, 0x42, 0xbe, 0x8b, 0x76, 0x2a, 0xbd,
  0x4c, 0x61, 0x58, 0x3a, 0x8e, 0x77, 0x61, 0xbe, 0xe0, 0xee, 0xf6, 0xbd,
  0x7b, 0x10, 0xb2, 0xbd, 0xae, 0x74, 0x34, 0xbe, 0x81, 0xca, 0x11, 0x3e,
  0x38, 0x6e, 0x26, 0xbe, 0x70, 0x99, 0x91, 0x3b, 0x65, 0xfd, 0xa6, 0xbd,
  0xf1, 0x33, 0x27, 0x3d, 0x99, 0xe6, 0xc6, 0x3c, 0xe9, 0xff, 0x85, 0xbe,
  0x95, 0xce, 0x86, 0x3e, 0x7e, 0x67, 0xf2, 0xbc, 0xf7, 0xc0, 0x91, 0xbe,
  0x11, 0x08, 0xe6, 0xbe, 0x18, 0x4a, 0xa4, 0x3d, 0x50, 0x97, 0xd5, 0xbd,
  0xc0, 0xa4, 0x6e, 0xbc, 0xce, 0x7b, 0x8f, 0xbe, 0xb5, 0x04, 0x1b, 0x3d,
  0xb5, 0x1e, 0x68, 0xbe, 0x28, 0x31, 0xb2, 0xbd, 0x08, 0x31, 0xc7, 0xbe,
  0xb0, 0x8a, 0x8c, 0x3e, 0x0e, 0xa9, 0x13, 0x3d, 0xd1, 0xc5, 0x71, 0x3c,
  0x47, 0x15, 0x05, 0xbe, 0xcb, 0xf6, 0x22, 0x3d, 0x56, 0xea, 0xde, 0x3d,
  0xc0, 0x4d, 0x1b, 0xbd, 0x75, 0xc2, 0x6a, 0xbe, 0x2d, 0x55, 0xc7, 0x3e,
  0xe1, 0xc4, 0x8f, 0xbd, 0x1b, 0x48, 0x7c, 0x3d, 0xcd, 0x35, 0xba, 0x3e,
  0xb3, 0xef, 0x19, 0x3d, 0xee, 0x32, 0x67, 0x3e, 0x15, 0x7f, 0x04, 0xbe,
  0x2f, 0x54, 0x3e, 0x3e, 0xb3, 0x33, 0x91, 0xbd, 0x75, 0xe0, 0xab, 0xbd,
  0xd0, 0xd5, 0x8b, 0xbd, 0x42, 0x06, 0x64, 0xbe, 0x5f, 0xca, 0x11, 0x3e,
  0x39, 0xed, 0xa1, 0x3e, 0xc3, 0x73, 0x53, 0xbe, 0xd7, 0x94, 0x35, 0xbe,
  0x6a, 0x3f, 0xc8, 0xbd, 0x6e, 0x1f, 0x70, 0x3c, 0xfd, 0x27, 0xdd, 0xbd,
  0xca, 0x4a, 0x81, 0xbd, 0xd8, 0x6c, 0x24, 0xbe, 0x46, 0x27, 0x51, 0xbe,
  0x3c, 0x3f, 0xb2, 0xbe, 0x32, 0x9c, 0x0e, 0xbe, 0x62, 0x06, 0xf0, 0xbd,
  0x59, 0x7b, 0x68, 0xbd, 0xda, 0x22, 0xa2, 0xbd, 0x50, 0x7c, 0xde, 0xbd,
  0x98, 0x41, 0x22, 0xbe, 0xb4, 0x6a, 0x0d, 0x3d, 0x99, 0x35, 0x54, 0xbe,
  0x92, 0xb6, 0x27, 0x3e, 0x37, 0x8f, 0x4c, 0xbe, 0x62, 0x93, 0x27, 0x3e,
  0x7a, 0x17, 0xeb, 0xbd, 0xe9, 0x08, 0x3b, 0x3e, 0x86, 0xf7, 0x0b, 0xbe,
  0xff, 0xc8, 0x82, 0xbd, 0x00, 0x40, 0x73, 0x3c, 0x4b, 0x0c, 0x1a, 0x3e,
  0x31, 0x71, 0x6b, 0xbe, 0x55, 0x98, 0x83, 0xbd, 0xed, 0xfa, 0xa3, 0xbd,
  0x0e, 0x73, 0x90, 0x3e, 0x27, 0x42, 0x7c, 0x3c, 0x55, 0x2b, 0xb8, 0xbe,
  0x9b, 0xd1, 0x27, 0xbe, 0xc9, 0x03, 0x3d, 0xbe, 0x06, 0x6f, 0xd7, 0xbd,
  0xef, 0x97, 0x7e, 0xbe, 0xb0, 0xcc, 0x7c, 0xbd, 0x0a, 0xea, 0xe9, 0xbe,
  0x07, 0xe5, 0x55, 0xbe, 0xc2, 0xf4, 0xa4, 0xbe, 0x1f, 0xc3, 0xe9, 0x3e,
  0x07, 0xb9, 0x8c, 0x3d, 0x25, 0x7a, 0x83, 0x3e, 0x43, 0xe3, 0x53, 0xbe,
  0xe0, 0xc8, 0x21, 0x3e, 0x80, 0x8c, 0x97, 0xbe, 0x0b, 0x4e, 0xc7, 0x3e,
  0x82, 0xc3, 0xc3, 0x3d, 0x38, 0xd8, 0x23, 0xbf, 0x19, 0x61, 0xb0, 0xbe,
  0xa1, 0xcd, 0xb2, 0xbd, 0x7b, 0x2b, 0x18, 0xbe, 0xc0, 0x49, 0xa0, 0xbe,
  0x14, 0x98, 0x9e, 0xbe, 0xff, 0x45, 0x7e, 0xbe, 0x9d, 0x38, 0xb3, 0xbd,
  0xe5, 0x00, 0xc6, 0x3d, 0x1c, 0xbe, 0x39, 0xbe, 0xe8, 0x48, 0x73, 0xbd,
  0x77, 0xa7, 0xc7, 0x3d, 0x3e, 0x6a, 0x5e, 0xbe, 0xfd, 0x53, 0x69, 0x3e,
  0x34, 0x05, 0x69, 0x3e, 0x85, 0xcc, 0x36, 0x3e, 0xea, 0x3b, 0x0b, 0x3e,
  0x64, 0x16, 0x15, 0x3e, 0x39, 0x52, 0x42, 0xbe, 0x9e, 0x16, 0xa7, 0xbc,
  0x29, 0xb5, 0xaa, 0xbd, 0x13, 0xfd, 0xc1, 0x3d, 0x63, 0xdb, 0xc7, 0xbc,
  0xa9, 0x9e, 0x96, 0xbd, 0xdc, 0x63, 0x55, 0xbd, 0x1f, 0x32, 0x87, 0x3e,
  0xdd, 0x57, 0x05, 0xbe, 0x7b, 0x3c, 0xb1, 0xbd, 0xb6, 0x93, 0x31, 0xbd,
  0xef, 0x55, 0x2c, 0xbe, 0x76, 0xbd, 0x3d, 0xbc, 0x96, 0x04, 0x9e, 0xbe,
  0xd9, 0xad, 0x2b, 0x3e, 0x4a, 0x6d, 0x05, 0xbe, 0x90, 0xca, 0xa0, 0xbe,
  0x1b, 0xe2, 0x25, 0xbe, 0xa7, 0x06, 0x68, 0xbe, 0x80, 0x23, 0x93, 0x3d,
  0xde, 0x19, 0xde, 0x3c, 0xf2, 0xe8, 0x40, 0xbc, 0xa9, 0x51, 0x0b, 0x3e,
  0x41, 0xd7, 0x30, 0x3e, 0x13, 0x1a, 0x3f, 0xbe, 0x3f, 0x22, 0x1a, 0xbe,
  0x69, 0x83, 0x19, 0xbe, 0x38, 0x1f, 0xef, 0xbd, 0xa6, 0x2e, 0xcf, 0xbd,
  0x8d, 0x5f, 0xd6, 0xbd, 0xeb, 0x30, 0x9c, 0x3d, 0xef, 0xc4, 0x5c, 0xbc,
  0x3b, 0x5a, 0x12, 0x3d, 0xb9, 0xaa, 0x12, 0xbe, 0xb5, 0x11, 0x5c, 0xbc,
  0x6a, 0x4a, 0x84, 0x3d, 0x22, 0xf4, 0xec, 0x3d, 0xd1, 0x04, 0xa3, 0x3e,
  0xde, 0x8b, 0x3b, 0x3e, 0x60, 0x57, 0x39, 0xbe, 0xc6, 0x64, 0x84, 0x3e,
  0x63, 0x3d, 0x04, 0x3e, 0x7f, 0x1d, 0x45, 0x3d, 0xe9, 0xf2, 0xae, 0x3c,
  0x08, 0x1b, 0x83, 0x3e, 0xf9, 0xb3, 0x74, 0x3e, 0x6c, 0x2b, 0x76, 0x3d,
  0x07, 0xb7, 0x19, 0xbe, 0xe2, 0x29, 0x53, 0xbd, 0x87, 0xba, 0xb0, 0x3d,
  0xed, 0x77, 0x0a, 0xbc, 0x11, 0x81, 0x3d, 0x3e, 0x37, 0x55, 0xcc, 0x3c,
  0x24, 0x76, 0x37, 0xbe, 0x4b, 0x34, 0xb0, 0x3d, 0x94, 0x5b, 0x10, 0xbe,
  0xbc, 0x09, 0x91, 0x3e, 0x2d, 0x6d, 0x26, 0xbd, 0x9e, 0xdf, 0x20, 0x3d,
  0x26, 0xb2, 0x45, 0xbc, 0x14, 0x86, 0x8f, 0x3d, 0x28, 0xf5, 0x17, 0x3e,
  0xeb, 0x46, 0xc7, 0xbd, 0x61, 0x9b, 0x0c, 0x3e, 0x63, 0x36, 0x94, 0x3c,
  0x9e, 0x4a, 0x7b, 0x3e, 0xb5, 0x6e, 0x0a, 0x3e, 0x30, 0x47, 0x32, 0xbd,
  0xaa, 0x19, 0x50, 0x3d, 0x32, 0xbe, 0x44, 0x3d, 0x90, 0x24, 0x47, 0x3d,
  0x06, 0xd9, 0xad, 0xbd, 0xb9, 0x5f, 0xcd, 0x3d, 0x24, 0xfb, 0xcb, 0x3c,
  0x5d, 0x7f, 0x1a, 0xbe, 0xa4, 0x0a, 0xdd, 0x3d, 0x8e, 0x0a, 0x7b, 0xbd,
  0x11, 0xc4, 0xc1, 0xbc, 0x92, 0xb1, 0xb1, 0xbd, 0x0d, 0x13, 0x7c, 0xbd,
  0x7d, 0x5c, 0x4e, 0xbe, 0xa4, 0xf8, 0x78, 0x3e, 0x9d, 0xd5, 0x81, 0xbe,
  0x4e, 0xa6, 0x9c, 0x3e, 0xbb, 0x70, 0x4c, 0x3e, 0xdd, 0xdc, 0x95, 0xbd,
  0x84, 0x5b, 0xcd, 0x3c, 0x60, 0xa0, 0x1a, 0xbe, 0xc7, 0x9c, 0x52, 0xbe,
  0xde, 0xc7, 0x42, 0x3e, 0x20, 0x50, 0x5d, 0xbe, 0xb8, 0x60, 0xe6, 0x3d,
  0xca, 0xa8, 0x12, 0x3e, 0xa6, 0x23, 0xfc, 0x3e, 0x37, 0xc5, 0xdc, 0x3e,
  0x25, 0xc5, 0xdd, 0x3c, 0x00, 0xd9, 0x47, 0xbe, 0x11, 0x8a, 0x83, 0xbd,
  0x1f, 0xb4, 0x8e, 0xbe, 0xbe, 0x9d, 0xa0, 0xbd, 0xa0, 0x22, 0xd4, 0xbc,
  0x58, 0xd7, 0xa1, 0x3e, 0xfa, 0x83, 0xa6, 0xbc, 0xa5, 0x05, 0x49, 0xb9,
  0xcb, 0x7d, 0x06, 0xbe, 0x5d, 0xb2, 0xb4, 0xbd, 0x73, 0x6c, 0x4d, 0xbe,
  0x5c, 0x04, 0x30, 0xbd, 0x58, 0x2d, 0xef, 0xbc, 0x7e, 0x44, 0x40, 0x3e,
  0xdf, 0x29, 0xe1, 0x3e, 0x41, 0xa3, 0x05, 0x3d, 0x56, 0xa1, 0x92, 0xbd,
  0x5a, 0x21, 0x8a, 0xbe, 0x5e, 0xda, 0xcd, 0xbd, 0x13, 0x07, 0x66, 0x3e,
  0x46, 0xdc, 0x61, 0x3d, 0xd6, 0xd9, 0xc3, 0xbd, 0x82, 0xea, 0x44, 0xbe,
  0x0e, 0x72, 0xe8, 0xbe, 0x71, 0xe7, 0x09, 0xbe, 0x45, 0x44, 0x24, 0xbe,
  0xf7, 0x35, 0x99, 0xbd, 0x91, 0x53, 0x0f, 0xbe, 0xdd, 0x33, 0x96, 0xbe,
  0xff, 0x78, 0xb3, 0x3d, 0x00, 0x38, 0x15, 0xbe, 0x0e, 0x54, 0xdc, 0xbe,
  0xe9, 0x33, 0xd8, 0xbd, 0xca, 0x97, 0xa4, 0xbc, 0x17, 0x7f, 0xb3, 0xbd,
  0xca, 0xd5, 0x98, 0xbb, 0x4b, 0xf5, 0x49, 0xbe, 0xe3, 0x74, 0x6a, 0x3d,
  0x5e, 0xdb, 0x32, 0xbe, 0x43, 0x70, 0xb0, 0x3e, 0x95, 0x02, 0x93, 0x3d,
  0x86, 0x58, 0x8e, 0xbc, 0xfb, 0x22, 0x5a, 0x3e, 0x78, 0x87, 0x34, 0xbe,
  0x57, 0xab, 0x94, 0xbd, 0xa9, 0x02, 0x51, 0xbe, 0x2d, 0xd7, 0xae, 0x3e,
  0x91, 0x49, 0xec, 0xbd, 0x10, 0xb2, 0x57, 0xbe, 0xe9, 0x28, 0x93, 0x3e,
  0xe2, 0x4d, 0x92, 0xbe, 0x80, 0xeb, 0xe3, 0x3e, 0xe9, 0x6e, 0x85, 0x3e,
  0x61, 0x29, 0x97, 0x3e, 0xa1, 0xe2, 0x05, 0xbc, 0x75, 0xce, 0x74, 0x3e,
  0x51, 0xa1, 0xc8, 0xbe, 0x6b, 0x96, 0x2e, 0xbe, 0x25, 0x70, 0xbf, 0xbe,
  0x21, 0xfa, 0xf8, 0xbd, 0x90, 0x05, 0x6a, 0x3e, 0x1d, 0x52, 0x8e, 0xbe,
  0xf2, 0x4a, 0x83, 0x3e, 0xdb, 0xef, 0x28, 0x3d, 0x94, 0x51, 0xb5, 0xbd,
  0x8f, 0xb0, 0x2c, 0xbe, 0x23, 0xa3, 0x59, 0xbe, 0x3a, 0x3c, 0x0c, 0xbe,
  0xec, 0x73, 0x52, 0xbd, 0x3c, 0xdc, 0x30, 0x3d, 0xd4, 0x43, 0x3a, 0xbe,
  0xbd, 0xa5, 0xca, 0xbe, 0x5c, 0xd5, 0x46, 0x3d, 0x41, 0x3d, 0x2a, 0xbe,
  0x1f, 0x15, 0x33, 0xbe, 0xc8, 0xad, 0x17, 0xbe, 0x93, 0xa3, 0x01, 0xbe,
  0xe8, 0xf5, 0xf6, 0x3d, 0x09, 0xe7, 0x9b, 0x3c, 0xf2, 0xab, 0x57, 0x3c,
  0x34, 0x54, 0xd8, 0x3e, 0x22, 0x74, 0x10, 0xbe, 0x2e, 0x02, 0x82, 0x3e,
  0x9e, 0x49, 0x38, 0xbe, 0x2c, 0xb6, 0xe9, 0x3d, 0x07, 0x9a, 0xb8, 0x3e,
  0x71, 0x3f, 0x59, 0xbe, 0xbe, 0x90, 0x75, 0xbe, 0x2a, 0xd9, 0xb7, 0xbd,
  0xd1, 0xaf, 0x71, 0xbe, 0x1a, 0x75, 0x39, 0xbe, 0xc0, 0x8b, 0xa1, 0xbd,
  0xbf, 0x56, 0x9d, 0xbe, 0xcf, 0x09, 0x46, 0xbc, 0xda, 0x22, 0x4b, 0xbe,
  0xb2, 0x08, 0x90, 0xbe, 0x6e, 0x96, 0xea, 0xbd, 0xed, 0xaf, 0x5c, 0xbe,
  0xe2, 0x5a, 0x36, 0xbe, 0xe1, 0x89, 0xb7, 0x3d, 0x50, 0x8d, 0x41, 0xbe,
  0xbf, 0x36, 0xcf, 0x3d, 0x63, 0xa3, 0xbe, 0xbc, 0x49, 0xf4, 0xa1, 0x3e,
  0x33, 0x20, 0x3f, 0xbe, 0x18, 0x6a, 0x9b, 0x3c, 0x08, 0x87, 0x37, 0xbe,
  0x40, 0x1a, 0x8a, 0x3e, 0x0f, 0xb9, 0x12, 0xbd, 0xcf, 0x18, 0x95, 0x3d,
  0x12, 0xea, 0x02, 0x3e, 0x91, 0xf1, 0xf5, 0xbd, 0x3c, 0xae, 0xe3, 0xbd,
  0x3f, 0x0d, 0x32, 0xbe, 0xcd, 0xaa, 0xc8, 0xbd, 0x46, 0x1c, 0x72, 0xbe,
  0x09, 0xee, 0x2d, 0xbd, 0x69, 0xda, 0x3e, 0xbe, 0x46, 0x6c, 0x06, 0x3d,
  0x71, 0x45, 0xd9, 0x3e, 0x45, 0x14, 0x20, 0xbd, 0xf6, 0x48, 0xbb, 0xbd,
  0x26, 0xe6, 0xab, 0xbc, 0x5b, 0x8c, 0xc1, 0xbc, 0x5d, 0x19, 0xf0, 0xbd,
  0xfa, 0xea, 0x58, 0xbd, 0x5b, 0xd4, 0x52, 0xbe, 0xf3, 0x2e, 0x80, 0xbc,
  0x16, 0xdc, 0x56, 0xbe, 0xd0, 0xeb, 0xde, 0xbd, 0xde, 0x55, 0xea, 0xbd,
  0xfa, 0x32, 0x4c, 0xbe, 0x7c, 0xa8, 0x5e, 0xbe, 0xce, 0x10, 0x31, 0xbe,
  0x81, 0x7b, 0x10, 0xbe, 0xfe, 0x49, 0xab, 0x3e, 0x08, 0xa0, 0x54, 0xbe,
  0x08, 0x37, 0xe8, 0x3d, 0x20, 0xf6, 0x38, 0xbe, 0xef, 0xeb, 0xc2, 0xbd,
  0xb7, 0x24, 0xee, 0xbd, 0x93, 0xfc, 0x11, 0xbe, 0xca, 0x0f, 0x47, 0x3e,
  0x64, 0x19, 0x99, 0x3c, 0x9c, 0xd3, 0x3a, 0xbd, 0xb6, 0xa3, 0x4d, 0xbe,
  0xd6, 0x12, 0x5b, 0xbd, 0xbd, 0x14, 0xfe, 0xbe, 0x57, 0xae, 0xff, 0x3e,
  0xf4, 0x18, 0x0c, 0xbf, 0xb6, 0x1c, 0x03, 0x3e, 0x9a, 0x81, 0x47, 0x3d,
  0xf9, 0x0f, 0xdf, 0xbc, 0xf4, 0x58, 0x3c, 0xbe, 0x22, 0xe4, 0x13, 0x3e,
  0x94, 0xff, 0x84, 0xbe, 0xe7, 0x64, 0x05, 0xbc, 0x73, 0x6d, 0x39, 0x3e,
  0x86, 0xd4, 0xab, 0xbe, 0x03, 0x0f, 0x87, 0xbd, 0xbd, 0x52, 0x88, 0x3d,
  0xc7, 0xe3, 0x26, 0xbe, 0x64, 0x2a, 0x66, 0xbd, 0xe9, 0xc5, 0x8c, 0xbc,
  0xda, 0x5b, 0x0a, 0xbe, 0x59, 0x67, 0x86, 0x3e, 0x54, 0xc1, 0x6b, 0xbe,
  0xa3, 0x36, 0x4f, 0xbe, 0x1c, 0xc7, 0xe0, 0xbc, 0x27, 0xa8, 0x9d, 0xbd,
  0x54, 0x7b, 0x5a, 0xbd, 0x65, 0x3d, 0x88, 0x3e, 0xd4, 0x69, 0x16, 0xbe,
  0xc1, 0x34, 0x7b, 0x3d, 0x5d, 0xaa, 0x87, 0xbe, 0xdc, 0x10, 0x51, 0xbe,
  0xb6, 0xea, 0xf3, 0xbd, 0xf4, 0x42, 0x25, 0xbe, 0x90, 0x3f, 0xb3, 0xbd,
  0x27, 0x19, 0x22, 0xbe, 0x87, 0x55, 0x8d, 0xbe, 0xdd, 0x1a, 0x13, 0xbe,
  0x7c, 0xc7, 0x21, 0xbd, 0xf8, 0x10, 0xb7, 0xbd, 0x77, 0x24, 0xc8, 0x3c,
  0x2e, 0x61, 0xb5, 0xbe, 0xd9, 0x44, 0x5b, 0x3e, 0xda, 0xbe, 0xd0, 0xbe,
  0xa4, 0x8c, 0x11, 0xbe, 0x04, 0xec, 0x45, 0xbe, 0x86, 0x2e, 0xaf, 0xbc,
  0x00, 0x40, 0x6d, 0xbc, 0x4b, 0x8a, 0x0f, 0x3e, 0x0c, 0xd9, 0x3d, 0xbe,
  0x06, 0x80, 0x4d, 0x3b, 0xd2, 0xbc, 0x83, 0xbd, 0x8c, 0x69, 0x17, 0x3e,
  0xd4, 0x3b, 0xf6, 0x3d, 0x3b, 0x04, 0x83, 0x3d, 0x90, 0x94, 0x1a, 0x3d,
  0x05, 0x07, 0xbc, 0x3d, 0xe8, 0x44, 0x53, 0xbe, 0x67, 0x9c, 0x60, 0x3e,
  0xbd, 0x53, 0x16, 0x3c, 0xb7, 0x9e, 0x36, 0x3e, 0xd1, 0xa6, 0x78, 0x3d,
  0xf4, 0x03, 0x30, 0xbe, 0x14, 0x41, 0xca, 0xbd, 0x20, 0x0a, 0x45, 0xbd,
  0xe6, 0x08, 0x25, 0xbe, 0x58, 0xda, 0xa5, 0x3c, 0x6e, 0xba, 0x6d, 0xbe,
  0x0e, 0x4c, 0xc6, 0xbe, 0x93, 0x0f, 0x7b, 0xbe, 0xba, 0xc9, 0x0b, 0xbf,
  0x7f, 0x67, 0x4d, 0xbe, 0xcb, 0x63, 0xe1, 0xbd, 0xce, 0xe7, 0x18, 0xbe,
  0x0e, 0xbf, 0x4e, 0xbc, 0xd2, 0xfd, 0x02, 0x3e, 0xa6, 0x2c, 0x9f, 0xbe,
  0x7f, 0x70, 0x5a, 0x3e, 0x4c, 0x02, 0xd0, 0xbe, 0x86, 0x3a, 0xb3, 0xbd,
  0xad, 0xc9, 0x7c, 0xbc, 0x5d, 0x74, 0x4b, 0xbd, 0x0d, 0xaf, 0x91, 0xbc,
  0xb6, 0xd9, 0x1b, 0x3d, 0xc0, 0x44, 0x85, 0x3d, 0x76, 0x2f, 0xc1, 0x3e,
  0x99, 0x37, 0x80, 0xbd, 0x7f, 0xf6, 0xeb, 0xbd, 0x01, 0x17, 0x07, 0xbd,
  0x53, 0x08, 0x92, 0x3d, 0x60, 0x4f, 0x80, 0xbd, 0x52, 0xe8, 0x05, 0x3e,
  0x63, 0x0a, 0xb0, 0x3e, 0x21, 0xe5, 0x6d, 0x3e, 0xd0, 0x92, 0x38, 0xbd,
  0x5c, 0x7a, 0xae, 0x3d, 0x12, 0x73, 0x36, 0x3d, 0xab, 0x55, 0xe0, 0x3d,
  0x76, 0xf4, 0x2a, 0x3b, 0x79, 0x58, 0xf6, 0xbc, 0xf0, 0xfe, 0x8b, 0xbe,
  0x18, 0x90, 0xbf, 0x3d, 0x64, 0xaa, 0x63, 0xbe, 0x84, 0x80, 0x3d, 0xbe,
  0xb5, 0xb2, 0x5b, 0xbd, 0xe2, 0xd9, 0x79, 0xbe, 0x85, 0x45, 0x44, 0x3d,
  0x29, 0x0f, 0xbf, 0xbe, 0xa0, 0x49, 0x0b, 0xbf, 0x32, 0x1b, 0xe0, 0xbc,
  0xea, 0xc8, 0x71, 0xbe, 0xdf, 0xe4, 0x99, 0xbe, 0xe1, 0x99, 0x6a, 0x3e,
  0xb1, 0xb0, 0x1d, 0x3e, 0xae, 0x7a, 0x4f, 0x3e, 0x0c, 0x7a, 0xd8, 0x3d,
  0x95, 0x6e, 0xf2, 0xbe, 0xa0, 0x3f, 0x37, 0x3e, 0x24, 0x31, 0x24, 0xbe,
  0xab, 0xfc, 0xff, 0xbb, 0xe0, 0x41, 0xe2, 0xbe, 0x5d, 0x47, 0xae, 0x3d,
  0x74, 0x09, 0x8c, 0xbe, 0x2a, 0x9b, 0x1a, 0xbb, 0x09, 0x46, 0x0c, 0xbe,
  0x39, 0x9e, 0x8a, 0xbd, 0x26, 0xde, 0xff, 0xff, 0x10, 0x00, 0x00, 0x00,
  0x0a, 0x00, 0x00, 0x00, 0x1c, 0x00, 0x00, 0x00, 0x38, 0x00, 0x00, 0x00,
  0x04, 0x00, 0x00, 0x00, 0x10, 0x00, 0x00, 0x00, 0x04, 0x00, 0x00, 0x00,
  0x01, 0x00, 0x00, 0x00, 0x08, 0x00, 0x00, 0x00, 0x1a, 0x00, 0x00, 0x00,
  0x73, 0x65, 0x71, 0x75, 0x65, 0x6e, 0x74, 0x69, 0x61, 0x6c, 0x2f, 0x63,
  0x6f, 0x6e, 0x76, 0x32, 0x64, 0x5f, 0x31, 0x2f, 0x43, 0x6f, 0x6e, 0x76,
  0x32, 0x44, 0x00, 0x00, 0x9c, 0xdd, 0xff, 0xff, 0xa6, 0xde, 0xff, 0xff,
  0x04, 0x00, 0x00, 0x00, 0x80, 0x01, 0x00, 0x00, 0xb9, 0xd9, 0x30, 0x3e,
  0x5f, 0x9b, 0x2e, 0x3e, 0x94, 0xb9, 0xe5, 0x3d, 0x11, 0x8b, 0x20, 0x3e,
  0x3f, 0x0f, 0x69, 0x3e, 0xb5, 0xa5, 0x33, 0x3e, 0x6c, 0x07, 0xb1, 0xbe,
  0x05, 0xe7, 0x0a, 0xbe, 0xe9, 0x4f, 0x58, 0x3c, 0xb4, 0x32, 0x1d, 0xbc,
  0xec, 0xb8, 0x8e, 0xbe, 0xae, 0xca, 0xae, 0xbe, 0x25, 0x81, 0x55, 0x3e,
  0x54, 0xc6, 0x83, 0x3e, 0x9a, 0x1b, 0x83, 0x3e, 0x50, 0x77, 0x07, 0xbd,
  0x27, 0x52, 0x02, 0x3c, 0xf1, 0x6f, 0x05, 0xbc, 0x93, 0xe4, 0xc8, 0xbc,
  0x17, 0xad, 0x9b, 0xbe, 0x35, 0xb3, 0x4c, 0xbe, 0x5c, 0xed, 0xc5, 0xbc,
  0xe7, 0x4d, 0x98, 0xbd, 0x21, 0x8d, 0xf2, 0x3c, 0xc8, 0xee, 0xe7, 0x3c,
  0x01, 0x2e, 0x1f, 0xbe, 0x5e, 0x6e, 0xce, 0x3d, 0x8b, 0x17, 0x9a, 0xbc,
  0xe1, 0xaa, 0x11, 0xbe, 0x50, 0x4f, 0xcf, 0x3c, 0x4a, 0xf7, 0xc9, 0xbd,
  0xd6, 0x60, 0x7e, 0x3d, 0xd0, 0x79, 0x10, 0x3e, 0xa6, 0x91, 0x0c, 0xbe,
  0x45, 0x32, 0x9f, 0x3e, 0xd0, 0x05, 0xf6, 0x3c, 0x43, 0x88, 0xe3, 0x3d,
  0x84, 0x1f, 0x8b, 0xbd, 0xc5, 0xa3, 0xdb, 0xbd, 0x40, 0x93, 0x87, 0x3e,
  0x6a, 0xdc, 0xb7, 0x3c, 0x57, 0xdb, 0x5b, 0xbe, 0xfa, 0xb3, 0xef, 0xbe,
  0x54, 0xc1, 0x4b, 0x3e, 0x29, 0x9b, 0x83, 0x3d, 0x07, 0x6a, 0x0d, 0x3f,
  0xdc, 0x15, 0x49, 0x3d, 0xa3, 0x9e, 0xea, 0x3d, 0xdb, 0x0c, 0x53, 0x3e,
  0xfb, 0x6e, 0x12, 0xbe, 0x18, 0x22, 0x44, 0x3d, 0x5f, 0x84, 0x1a, 0x3e,
  0x51, 0xae, 0xfc, 0xbd, 0x44, 0x85, 0x6f, 0x3b, 0x17, 0xb2, 0x44, 0xbd,
  0x82, 0x1c, 0x0c, 0x3a, 0x45, 0x20, 0x92, 0x3d, 0x28, 0xcd, 0x0f, 0xbe,
  0x94, 0xc8, 0x04, 0x3e, 0x4a, 0xa9, 0xde, 0x3d, 0x2f, 0xa8, 0xcb, 0xbd,
  0x83, 0xe6, 0x0b, 0x3e, 0x33, 0xaa, 0x34, 0x3d, 0xe9, 0x67, 0x8b, 0xbd,
  0x70, 0x36, 0xd7, 0xbe, 0x48, 0x84, 0xbf, 0xbd, 0x2a, 0xfc, 0x6e, 0x3e,
  0x54, 0x1f, 0xa7, 0x3d, 0x9c, 0xad, 0xdb, 0xbc, 0xa1, 0xd5, 0xe9, 0x3d,
  0x33, 0x5a, 0xaf, 0x3e, 0x79, 0xfd, 0x10, 0x3e, 0xc5, 0x3d, 0x31, 0x3d,
  0x97, 0x54, 0x68, 0xbd, 0xb6, 0x9e, 0x1f, 0xbe, 0x5e, 0x23, 0x90, 0x3e,
  0x63, 0xc1, 0x01, 0x3d, 0xf1, 0x58, 0xd4, 0xbd, 0x9d, 0x98, 0xec, 0xbb,
  0x59, 0x20, 0xff, 0x3d, 0x80, 0xe7, 0xbf, 0x3e, 0x1a, 0xc6, 0x9d, 0xbe,
  0x7e, 0xbc, 0xef, 0xbd, 0xf1, 0xe8, 0xd1, 0xbc, 0xfa, 0xaf, 0x39, 0xbe,
  0x21, 0x12, 0xdb, 0xbd, 0xb6, 0x43, 0x90, 0xbd, 0x65, 0xd5, 0x8c, 0xbe,
  0x97, 0x72, 0x98, 0xbe, 0x6f, 0x5b, 0x84, 0xbe, 0x75, 0xc8, 0x83, 0x3e,
  0x85, 0x67, 0x21, 0x3e, 0xb5, 0xa6, 0x24, 0x3e, 0xc2, 0xcd, 0x47, 0x3e,
  0x7a, 0xda, 0x8e, 0x3e, 0xa0, 0xc4, 0x6c, 0x3e, 0xfe, 0xdf, 0xff, 0xff,
  0x10, 0x00, 0x00, 0x00, 0x09, 0x00, 0x00, 0x00, 0x1c, 0x00, 0x00, 0x00,
  0x38, 0x00, 0x00, 0x00, 0x04, 0x00, 0x00, 0x00, 0x08, 0x00, 0x00, 0x00,
  0x04, 0x00, 0x00, 0x00, 0x03, 0x00, 0x00, 0x00, 0x01, 0x00, 0x00, 0x00,
  0x18, 0x00, 0x00, 0x00, 0x73, 0x65, 0x71, 0x75, 0x65, 0x6e, 0x74, 0x69,
  0x61, 0x6c, 0x2f, 0x63, 0x6f, 0x6e, 0x76, 0x32, 0x64, 0x2f, 0x43, 0x6f,
  0x6e, 0x76, 0x32, 0x44, 0x00, 0x00, 0x00, 0x00, 0x74, 0xdf, 0xff, 0xff,
  0x7e, 0xe0, 0xff, 0xff, 0x04, 0x00, 0x00, 0x00, 0xc0, 0x00, 0x00, 0x00,
  0x65, 0x02, 0x8e, 0xbe, 0xad, 0xf2, 0x30, 0x3c, 0xcb, 0xe0, 0x0a, 0x3e,
  0x42, 0xa3, 0xa2, 0x3e, 0xd2, 0x6a, 0x87, 0x3e, 0x7b, 0xd7, 0x1d, 0xbe,
  0x86, 0x1b, 0xb1, 0xbe, 0x8a, 0xc8, 0xa5, 0xbd, 0x83, 0x22, 0x02, 0xbf,
  0x4a, 0x99, 0x92, 0x3e, 0xf8, 0x60, 0x7d, 0x3c, 0x42, 0x4e, 0x2f, 0xbe,
  0x4a, 0xd4, 0xa0, 0x3e, 0x6f, 0x61, 0xa2, 0xbd, 0xb6, 0x52, 0x88, 0xbe,
  0x1e, 0x23, 0x12, 0x3e, 0x29, 0xd8, 0xd6, 0x3d, 0x15, 0xd7, 0x95, 0x3d,
  0xb0, 0xc8, 0xad, 0x3d, 0x0e, 0x8e, 0xbe, 0x3e, 0xc3, 0x5f, 0x5d, 0x3e,
  0x51, 0x40, 0x93, 0xbe, 0xa5, 0x13, 0x56, 0x3e, 0x64, 0x76, 0x57, 0xbd,
  0x85, 0xad, 0xd2, 0xbe, 0x77, 0x2c, 0xa1, 0x3e, 0x4c, 0x7e, 0x31, 0x3e,
  0x3a, 0x90, 0x67, 0x3e, 0xf9, 0xe9, 0xb0, 0x3e, 0xbc, 0x6d, 0xa4, 0xbe,
  0x26, 0x25, 0xa5, 0xbe, 0xa4, 0x7d, 0x6b, 0x3d, 0x96, 0x33, 0xc1, 0x3e,
  0x90, 0x12, 0xf5, 0x3c, 0x86, 0xce, 0x7f, 0x3d, 0xa6, 0x20, 0x00, 0xbf,
  0xe2, 0x8e, 0x52, 0x3e, 0x9d, 0xf6, 0x9c, 0x3c, 0x03, 0x68, 0x51, 0x3e,
  0x6e, 0x84, 0x85, 0x3c, 0xe7, 0xbe, 0x56, 0x3e, 0x2f, 0x80, 0x17, 0x3e,
  0x9d, 0xff, 0xe3, 0x3e, 0x8b, 0x3f, 0xa5, 0x3e, 0x5a, 0x0f, 0x94, 0x3e,
  0x9e, 0x46, 0xbf, 0x3e, 0x58, 0x85, 0xc0, 0xbe, 0xe6, 0x7a, 0x6d, 0x3d,
  0x16, 0xe1, 0xff, 0xff, 0x10, 0x00, 0x00, 0x00, 0x08, 0x00, 0x00, 0x00,
  0x14, 0x00, 0x00, 0x00, 0x30, 0x00, 0x00, 0x00, 0x02, 0x00, 0x00, 0x00,
  0x03, 0x00, 0x00, 0x00, 0x10, 0x00, 0x00, 0x00, 0x19, 0x00, 0x00, 0x00,
  0x73, 0x65, 0x71, 0x75, 0x65, 0x6e, 0x74, 0x69, 0x61, 0x6c, 0x2f, 0x64,
  0x65, 0x6e, 0x73, 0x65, 0x5f, 0x31, 0x2f, 0x4d, 0x61, 0x74, 0x4d, 0x75,
  0x6c, 0x00, 0x00, 0x00, 0x84, 0xe0, 0xff, 0xff, 0x8e, 0xe1, 0xff, 0xff,
  0x04, 0x00, 0x00, 0x00, 0x00, 0x1c, 0x00, 0x00, 0xd1, 0x52, 0x29, 0xbe,
  0xb5, 0x80, 0x55, 0xbc, 0xff, 0x04, 0x01, 0xbd, 0x41, 0x35, 0x99, 0x3d,
  0xc0, 0x1f, 0x80, 0xbd, 0xe2, 0x63, 0x12, 0xbc, 0xe3, 0x78, 0x1d, 0xbd,
  0xcf, 0xfc, 0x3b, 0xbe, 0xed, 0xa8, 0x14, 0xbe, 0x74, 0xdb, 0x7b, 0x3d,
  0x21, 0xd3, 0xd8, 0x3d, 0x7e, 0x5d, 0x08, 0xbe, 0x40, 0xa7, 0x89, 0xbd,
  0x70, 0xe5, 0x1f, 0xbe, 0x44, 0x79, 0xf7, 0xbc, 0x28, 0xbd, 0x02, 0x3e,
  0xa7, 0xbf, 0x7c, 0x3d, 0xe2, 0x52, 0xd7, 0xbd, 0xe3, 0xdf, 0x59, 0xbe,
  0xb6, 0xa6, 0x16, 0xbe, 0x3d, 0x37, 0x33, 0xbe, 0x7e, 0x03, 0x48, 0xbe,
  0x90, 0xf5, 0x85, 0xbe, 0x70, 0x35, 0xe9, 0xbd, 0x30, 0x86, 0x20, 0x3e,
  0xe1, 0x48, 0xfd, 0xbd, 0xdc, 0x4d, 0x26, 0xbe, 0x1d, 0x72, 0x3d, 0xbe,
  0xbd, 0x26, 0x5d, 0xbe, 0x5a, 0xd7, 0x1c, 0x3d, 0xc2, 0xed, 0xc2, 0xbd,
  0x4a, 0x80, 0x39, 0x3d, 0x4b, 0x1d, 0xce, 0x3d, 0x29, 0x7a, 0x5e, 0xbe,
  0xc2, 0x1a, 0x1e, 0xbe, 0x2a, 0x22, 0x00, 0xbe, 0x1e, 0x6e, 0xa7, 0xbd,
  0x4b, 0x8c, 0xc3, 0x3b, 0x80, 0x4d, 0x69, 0xbe, 0x61, 0x4c, 0x0a, 0xbd,
  0xf6, 0x57, 0xe2, 0xbd, 0xb7, 0x71, 0xdb, 0x3d, 0x25, 0x4b, 0xb7, 0xbd,
  0x6b, 0xd2, 0x8e, 0x3d, 0xc7, 0xca, 0xc2, 0x3d, 0x45, 0xf0, 0x89, 0xbe,
  0xf9, 0x5e, 0x31, 0x3d, 0x87, 0xc2, 0xd6, 0x3d, 0x80, 0x2f, 0x02, 0xbe,
  0x68, 0x1e, 0x08, 0xbd, 0x66, 0xbf, 0xa9, 0x3d, 0x50, 0x6b, 0xcf, 0xbd,
  0x3f, 0x33, 0x0c, 0x3e, 0x60, 0x8d, 0x88, 0xbe, 0xb2, 0xe3, 0x13, 0xbe,
  0xd5, 0x40, 0xda, 0x3d, 0x1f, 0x52, 0x08, 0x3e, 0x8e, 0x34, 0x17, 0x3e,
  0x9d, 0xb6, 0x5e, 0xbe, 0x35, 0x03, 0xe0, 0x39, 0xb0, 0xb9, 0x3d, 0xbe,
  0xe2, 0x34, 0x78, 0xbe, 0x97, 0x3c, 0x22, 0x3e, 0x54, 0x61, 0x1e, 0x3e,
  0x6f, 0xfd, 0x3e, 0x3c, 0xc1, 0xcd, 0xa1, 0x3d, 0x9b, 0x36, 0x58, 0xbe,
  0x06, 0x85, 0x4e, 0x3d, 0xa0, 0x84, 0x3a, 0xbe, 0x65, 0xc5, 0x8c, 0xbc,
  0xce, 0xd6, 0xbe, 0xbd, 0x70, 0xee, 0xda, 0x3d, 0x22, 0x2e, 0x17, 0x3a,
  0xe7, 0x02, 0x24, 0xbe, 0xb3, 0x66, 0xb6, 0xbd, 0x6f, 0x2e, 0x3d, 0xbe,
  0xac, 0x7d, 0xfe, 0x3c, 0xb4, 0x98, 0xb4, 0x3c, 0xb9, 0xe0, 0x3f, 0x3e,
  0x88, 0x56, 0x60, 0x3d, 0x1d, 0xd4, 0xf3, 0xbd, 0x2d, 0xa3, 0x8d, 0xbb,
  0x7a, 0xea, 0x34, 0xbe, 0x05, 0x69, 0x86, 0xbc, 0x68, 0x12, 0x78, 0xbe,
  0x4c, 0xba, 0x82, 0xbe, 0x29, 0xb8, 0x29, 0xbe, 0x52, 0x0e, 0xc5, 0xbd,
  0xe6, 0x61, 0xd3, 0xbd, 0xb7, 0xa4, 0x04, 0xbe, 0x65, 0x4d, 0x74, 0xbc,
  0x17, 0x62, 0x15, 0xbe, 0x4a, 0xf8, 0x51, 0xbe, 0x33, 0xcc, 0x67, 0xbd,
  0x07, 0xed, 0xb2, 0xbd, 0xd0, 0xab, 0x85, 0x3d, 0x1b, 0xe4, 0x84, 0x3c,
  0x82, 0xf4, 0x87, 0xbd, 0x63, 0x62, 0x23, 0xbe, 0x63, 0x8a, 0x91, 0x3d,
  0x5c, 0x95, 0x6d, 0xbe, 0xf2, 0x0d, 0x27, 0xbe, 0xd8, 0x0b, 0x74, 0xbe,
  0xb8, 0xbf, 0x0a, 0xbe, 0x66, 0x50, 0xae, 0xbd, 0x63, 0x4c, 0xce, 0xbc,
  0x97, 0xfe, 0x73, 0x3c, 0xce, 0xd3, 0x06, 0xbe, 0x4b, 0xdf, 0x6c, 0xbd,
  0xb4, 0xf0, 0x99, 0x3d, 0x84, 0x20, 0x9d, 0x3d, 0x02, 0x89, 0xc1, 0x3c,
  0x7b, 0x45, 0x1b, 0xbf, 0xea, 0x58, 0xe0, 0xbe, 0x56, 0x53, 0xdb, 0xbe,
  0x45, 0xd8, 0xe3, 0xbe, 0x18, 0x58, 0x39, 0xbe, 0x2d, 0x97, 0xe3, 0xbe,
  0x77, 0x87, 0x94, 0xbe, 0x47, 0xa9, 0x41, 0xbe, 0xf2, 0xf3, 0x08, 0xbf,
  0x07, 0x23, 0x90, 0xbe, 0x16, 0x4c, 0x47, 0x3c, 0xa8, 0xbb, 0x13, 0xbe,
  0xb0, 0xf0, 0xcd, 0xbe, 0x0b, 0x1d, 0x20, 0xbf, 0xf2, 0x06, 0xb8, 0xbe,
  0x62, 0x7c, 0xab, 0x3b, 0x66, 0xaf, 0xd8, 0xbe, 0x87, 0x6c, 0x93, 0xbe,
  0x8f, 0x82, 0xa1, 0xbe, 0x91, 0xcc, 0x9e, 0xbe, 0x10, 0x00, 0x41, 0xbf,
  0x81, 0xf9, 0x85, 0xbe, 0x66, 0xb5, 0x3e, 0xbe, 0x4e, 0xef, 0x8f, 0xbd,
  0xb9, 0x3b, 0x76, 0xbd, 0xe1, 0xb5, 0xf7, 0x3b, 0x5a, 0xd6, 0x5c, 0xbd,
  0x21, 0x3d, 0xb5, 0x3d, 0xd2, 0xbd, 0x97, 0xbe, 0xaf, 0xb2, 0x20, 0xbf,
  0xf2, 0x01, 0x6a, 0xbe, 0x00, 0xde, 0xe5, 0xbd, 0x5a, 0x0f, 0x6d, 0xbe,
  0xb3, 0x00, 0x6c, 0xbe, 0x26, 0x0d, 0x0f, 0xbf, 0xaa, 0x24, 0xa2, 0xbe,
  0x81, 0x88, 0x09, 0xbf, 0xc1, 0x36, 0x12, 0xbe, 0x8b, 0x2c, 0x3f, 0xbe,
  0x3c, 0x22, 0xf2, 0x3c, 0x4d, 0x2f, 0x75, 0xbd, 0x22, 0x95, 0xf8, 0x3d,
  0x82, 0xcd, 0x55, 0xbe, 0xb1, 0x73, 0xad, 0xbd, 0xd7, 0xfd, 0x98, 0xbd,
  0xe1, 0x34, 0x46, 0xbf, 0xf4, 0x7f, 0x03, 0xbf, 0xd0, 0x6f, 0x38, 0x3e,
  0xf8, 0xde, 0xaa, 0xbc, 0x9d, 0x44, 0x16, 0x3c, 0x0e, 0x7c, 0xbc, 0xbe,
  0xcd, 0xfc, 0xcd, 0xbe, 0xe4, 0xb7, 0x4a, 0xbf, 0xbe, 0x83, 0x76, 0xbe,
  0xe3, 0x4e, 0x7e, 0xbe, 0xd2, 0xc3, 0x67, 0xbe, 0x38, 0x77, 0x83, 0xbe,
  0xf8, 0xd9, 0xf2, 0xbd, 0x89, 0x0c, 0xb3, 0xbe, 0xbf, 0xa8, 0x56, 0x3e,
  0x3e, 0x0a, 0x5e, 0xbc, 0xad, 0xa0, 0x59, 0xbf, 0xc1, 0xb5, 0x72, 0x3d,
  0x72, 0x0a, 0x73, 0xbe, 0xd5, 0x51, 0xbc, 0xbd, 0x3f, 0xbd, 0x82, 0x3e,
  0x67, 0x8c, 0x25, 0xbe, 0x84, 0x60, 0x87, 0x3d, 0x44, 0x5f, 0x12, 0x3f,
  0x06, 0x20, 0xdc, 0x3d, 0xce, 0xc3, 0xfa, 0xbd, 0x06, 0x96, 0x25, 0xbe,
  0x75, 0xde, 0x16, 0xbc, 0xca, 0xc1, 0x10, 0xbb, 0x03, 0xd8, 0xb9, 0xbc,
  0x98, 0x36, 0x90, 0x3d, 0x39, 0x2b, 0x55, 0xbe, 0x3c, 0x4d, 0x13, 0xbf,
  0x9d, 0xe6, 0xd7, 0x3e, 0x12, 0xa6, 0x80, 0x3e, 0x6b, 0x3e, 0xb0, 0x3d,
  0xa3, 0xc7, 0xc5, 0x3e, 0x0c, 0xfc, 0x37, 0xba, 0x79, 0x2d, 0x07, 0xbd,
  0x79, 0x92, 0xe1, 0x3e, 0x83, 0x97, 0x70, 0x3c, 0x62, 0xc0, 0x85, 0xbd,
  0xb4, 0xda, 0xc3, 0x3d, 0x10, 0xc8, 0x81, 0x3d, 0xf9, 0xbe, 0x29, 0x3e,
  0x81, 0x26, 0xa3, 0xbe, 0xa5, 0x4a, 0x08, 0x3d, 0x10, 0x26, 0x03, 0x3e,
  0xa0, 0xac, 0xcf, 0xbe, 0x84, 0x03, 0x55, 0x3e, 0x0f, 0xae, 0x94, 0xbd,
  0xaa, 0x9a, 0x0c, 0x3c, 0xb7, 0xfd, 0xc0, 0x3d, 0x29, 0x09, 0x6b, 0x3d,
  0x3d, 0x99, 0xf9, 0x3c, 0x57, 0x01, 0xb1, 0x3e, 0x7b, 0xca, 0x07, 0x3e,
  0x91, 0x84, 0x6d, 0x3d, 0xb4, 0xc0, 0x15, 0x3e, 0x68, 0xdf, 0x71, 0x3d,
  0x0a, 0xc0, 0x4b, 0xbd, 0x30, 0x1a, 0xaa, 0xbd, 0x40, 0x66, 0x28, 0x3e,
  0x30, 0x12, 0x00, 0x3e, 0x1a, 0x57, 0xf7, 0xbd, 0xd0, 0x84, 0xd3, 0x3e,
  0xd4, 0x1d, 0x3e, 0xbe, 0x39, 0xfd, 0xbc, 0x3d, 0x7b, 0x78, 0x90, 0xbe,
  0x60, 0x8a, 0x09, 0x3e, 0xd3, 0xe3, 0x1f, 0xbe, 0x27, 0x3c, 0xb5, 0xbe,
  0xe1, 0x2b, 0x52, 0x3c, 0xd0, 0xc1, 0x5f, 0x3d, 0x0d, 0xf1, 0x46, 0xbe,
  0x5c, 0xef, 0x21, 0x3d, 0x65, 0xc6, 0xa4, 0xbe, 0x67, 0xbe, 0xcf, 0x3e,
  0x72, 0xd5, 0x78, 0xbd, 0xfb, 0x97, 0xbe, 0x3d, 0xd1, 0xaf, 0x41, 0x3d,
  0x7d, 0x76, 0xbb, 0x3d, 0xbf, 0xf2, 0xcd, 0x3b, 0xbc, 0xfb, 0xba, 0x3d,
  0x3b, 0xf3, 0x35, 0xbf, 0xfe, 0x0d, 0x88, 0x3e, 0x52, 0xe3, 0x89, 0x3d,
  0x15, 0x67, 0xa5, 0x3f, 0x84, 0xd0, 0x0b, 0xbd, 0x73, 0x7c, 0x14, 0xbd,
  0xa2, 0xe1, 0x54, 0xbe, 0x8d, 0xb6, 0xb9, 0xbe, 0xcd, 0x21, 0x15, 0xbf,
  0x8c, 0x71, 0xbd, 0x3e, 0xbe, 0x3a, 0xf7, 0xbe, 0xa3, 0xa4, 0xa1, 0x3d,
  0xab, 0x20, 0x90, 0xbd, 0x16, 0x92, 0xc3, 0x3e, 0x5d, 0xf6, 0xc9, 0xbd,
  0xb6, 0x53, 0xd4, 0x3e, 0xbe, 0xc7, 0xfa, 0xbe, 0xd4, 0x57, 0x9d, 0xbd,
  0xe6, 0x94, 0x74, 0x3e, 0xbb, 0x46, 0xc3, 0x3f, 0x63, 0xf5, 0x18, 0x3e,
  0x5f, 0x1b, 0xe9, 0xbc, 0xba, 0x53, 0x2f, 0xbe, 0x09, 0x07, 0x8a, 0xbd,
  0x94, 0x4f, 0x2f, 0xbe, 0x35, 0xcb, 0x96, 0x3e, 0x1f, 0xe1, 0x8b, 0xbe,
  0xf7, 0x57, 0xb4, 0x3d, 0x41, 0xef, 0x18, 0xbe, 0xdb, 0x6f, 0x7e, 0x3e,
  0x00, 0x87, 0x9e, 0xbd, 0x53, 0x9a, 0xd3, 0x3e, 0xa6, 0x5b, 0x91, 0xbe,
  0x11, 0x25, 0x39, 0x3e, 0xe9, 0x75, 0x98, 0x3d, 0x64, 0x72, 0xbf, 0x3f,
  0xd8, 0x05, 0x6b, 0x3d, 0x53, 0xf3, 0x1a, 0xbd, 0x9c, 0x9f, 0x21, 0xbe,
  0x59, 0x87, 0xb3, 0x3e, 0x0a, 0xc8, 0x81, 0xbe, 0xf3, 0x6a, 0x05, 0xbd,
  0xd6, 0x27, 0x0b, 0xbe, 0xf8, 0xdf, 0x9c, 0x3e, 0xfb, 0xa5, 0xd6, 0xbd,
  0x3c, 0x28, 0x4a, 0x3c, 0x09, 0xe5, 0x4e, 0xbd, 0xa6, 0x74, 0x34, 0x3e,
  0xca, 0x3a, 0x23, 0xbe, 0xf8, 0x1a, 0x1a, 0x3e, 0xd2, 0x06, 0x15, 0x3e,
  0x82, 0x70, 0xb9, 0x3e, 0x5f, 0x0d, 0x15, 0x3d, 0xef, 0xb8, 0x54, 0xbd,
  0x12, 0xf4, 0x42, 0xbf, 0xe5, 0xce, 0x54, 0x3e, 0x33, 0xe9, 0x70, 0xbe,
  0x5b, 0xf5, 0x8a, 0x3e, 0xe6, 0x33, 0x04, 0xbe, 0xb5, 0xb5, 0xbd, 0x3e,
  0x2c, 0x9c, 0xe7, 0x3c, 0xf3, 0xeb, 0xae, 0x3d, 0x99, 0x1e, 0xc9, 0xbe,
  0xf0, 0x36, 0x15, 0x3e, 0x27, 0x7d, 0x34, 0xbe, 0xae, 0xa5, 0x16, 0x3e,
  0x31, 0x6f, 0x6e, 0x3e, 0x62, 0x13, 0x98, 0x3e, 0xee, 0xd6, 0xd9, 0x3d,
  0x64, 0x05, 0x28, 0xbc, 0x0c, 0x35, 0xf4, 0xbe, 0xb5, 0xc3, 0x83, 0x3e,
  0xa9, 0xb7, 0x1a, 0xbf, 0xd5, 0x22, 0x96, 0x3e, 0x69, 0x44, 0x05, 0xbe,
  0x96, 0x85, 0xcf, 0x3d, 0x7d, 0xe8, 0xa1, 0x3d, 0x4a, 0x6d, 0x93, 0x3c,
  0xed, 0x0d, 0xdf, 0xbd, 0xa1, 0x34, 0x82, 0xbc, 0xc1, 0xe4, 0x8e, 0xbe,
  0xf4, 0x9a, 0xfb, 0x3c, 0xca, 0xde, 0xe7, 0x3c, 0x1f, 0x05, 0x2e, 0xbe,
  0xe3, 0x88, 0x8b, 0x3d, 0xd5, 0xe1, 0xa5, 0x3a, 0xac, 0xce, 0x18, 0xbe,
  0xfa, 0x01, 0x23, 0xbe, 0x97, 0x36, 0xc4, 0xbe, 0xb8, 0x4f, 0x38, 0x3e,
  0x03, 0x36, 0xb8, 0x3e, 0x54, 0x63, 0x86, 0x3d, 0xb8, 0x3d, 0xab, 0x3c,
  0x56, 0xe5, 0xcd, 0x3d, 0x39, 0x2f, 0x53, 0xbe, 0xc7, 0xea, 0x90, 0xbe,
  0xf2, 0x04, 0xd8, 0xbe, 0x5a, 0x02, 0x71, 0xbe, 0xd0, 0xcb, 0xf9, 0xbe,
  0xf6, 0xcf, 0xf7, 0xbd, 0x21, 0xa2, 0xb4, 0xbe, 0x51, 0x6a, 0x88, 0xbe,
  0xac, 0xc1, 0xb1, 0xbe, 0xd3, 0xdc, 0xab, 0xbe, 0x1a, 0xf2, 0x11, 0xbd,
  0x00, 0x64, 0x8c, 0x3d, 0x58, 0x7a, 0xaf, 0xbc, 0x6f, 0xe2, 0x7d, 0xbe,
  0xea, 0xff, 0x07, 0xbf, 0x4f, 0x21, 0xba, 0x3d, 0xf4, 0xb2, 0x19, 0xbe,
  0x73, 0x6e, 0x12, 0xbd, 0x12, 0x4a, 0xdf, 0xbd, 0x5f, 0x7e, 0x26, 0xbd,
  0x97, 0x58, 0xa6, 0xbe, 0x5f, 0x4d, 0x94, 0xbd, 0x37, 0x42, 0x90, 0xbe,
  0x76, 0x19, 0xb2, 0xbe, 0xcd, 0x19, 0xf0, 0x3d, 0x5c, 0x8d, 0x8d, 0x3d,
  0xb9, 0xa6, 0x36, 0x3c, 0xa8, 0x5e, 0x1e, 0xbd, 0xb6, 0xa2, 0x82, 0x3d,
  0xef, 0xfc, 0x63, 0xbe, 0x81, 0x47, 0x88, 0xbe, 0x88, 0xe9, 0x1f, 0xbd,
  0xec, 0x83, 0x82, 0x3d, 0xa4, 0x7d, 0x92, 0xbd, 0x10, 0x36, 0x84, 0xbc,
  0x88, 0x44, 0x75, 0xbe, 0xa2, 0x5f, 0x01, 0xbe, 0x55, 0x6d, 0x51, 0xbd,
  0xee, 0x29, 0x2b, 0xbe, 0xec, 0xd1, 0x51, 0xbe, 0x0a, 0xb7, 0x37, 0xbd,
  0x79, 0xa2, 0x23, 0x3d, 0x12, 0x53, 0x80, 0xbe, 0x85, 0x54, 0x53, 0xbe,
  0x2b, 0x0e, 0x88, 0x3d, 0x15, 0xdd, 0x35, 0xbe, 0x0a, 0x72, 0xe8, 0xbe,
  0x51, 0x77, 0x27, 0x3d, 0x93, 0x5c, 0x19, 0xbe, 0xa1, 0x7f, 0x9f, 0x3b,
  0x9a, 0x61, 0x73, 0x3e, 0x87, 0xef, 0xfc, 0x3b, 0x2a, 0x10, 0x1d, 0xbe,
  0x27, 0xdf, 0xcc, 0x3c, 0x7a, 0x03, 0x61, 0xbe, 0x1c, 0x85, 0x53, 0xbe,
  0xb4, 0xaa, 0x8a, 0xbe, 0xc2, 0x79, 0xa5, 0x3c, 0xbf, 0xbd, 0x15, 0x3e,
  0x22, 0x76, 0xc3, 0x3c, 0xfc, 0x54, 0x4d, 0xbd, 0x41, 0x42, 0x0c, 0xbe,
  0x47, 0xdb, 0x0a, 0xbf, 0x78, 0xcc, 0xa9, 0x3d, 0x7f, 0xbe, 0x3e, 0x3e,
  0x00, 0x58, 0x77, 0x3d, 0x37, 0xa5, 0x26, 0x3d, 0x0d, 0xd2, 0xff, 0xbd,
  0xcf, 0xa7, 0x5d, 0x3d, 0x3c, 0x91, 0xcd, 0x3e, 0xc9, 0xd2, 0x2e, 0x3d,
  0x80, 0xd6, 0x63, 0xbe, 0xce, 0x5a, 0x54, 0xbd, 0x83, 0xf1, 0x96, 0x3e,
  0x5c, 0xfc, 0xa2, 0x3c, 0x2e, 0xf9, 0x69, 0x3c, 0x4d, 0xa9, 0xc4, 0xbc,
  0x61, 0xbe, 0x10, 0x3e, 0x35, 0x79, 0xb0, 0xbe, 0x10, 0xf3, 0x01, 0x3f,
  0x98, 0x57, 0x7c, 0x3e, 0xd3, 0xb0, 0x13, 0x3e, 0xd1, 0x26, 0x99, 0x3e,
  0x69, 0xbb, 0x5f, 0xbd, 0x1d, 0xd8, 0x69, 0x3d, 0x56, 0xd5, 0x66, 0x3e,
  0x14, 0x55, 0x9a, 0x3c, 0x26, 0xbc, 0x89, 0xbe, 0xa0, 0xc9, 0x93, 0x3d,
  0x81, 0xbf, 0xa4, 0xbd, 0xec, 0x0e, 0x16, 0x3e, 0x86, 0x56, 0xc9, 0xbd,
  0xca, 0xaa, 0x61, 0xbd, 0xca, 0x88, 0x23, 0x3e, 0xd0, 0x90, 0x0a, 0xbf,
  0xc7, 0xe2, 0xac, 0x3e, 0x05, 0x9b, 0xd2, 0x3d, 0x04, 0xd6, 0x16, 0x3e,
  0x87, 0x50, 0x8d, 0xbd, 0x55, 0x6e, 0x99, 0x3d, 0x7e, 0x61, 0x6c, 0xbe,
  0x32, 0x50, 0x13, 0x3f, 0xa6, 0x72, 0x97, 0x3d, 0xec, 0xad, 0x93, 0xbd,
  0x19, 0x25, 0x9d, 0xbd, 0xe0, 0x75, 0xae, 0x3e, 0xf4, 0x0b, 0xbc, 0x3d,
  0xe6, 0xbd, 0xde, 0xbd, 0x01, 0x4b, 0xf1, 0x3d, 0x50, 0x1c, 0x44, 0x3e,
  0x50, 0xe4, 0x08, 0xbe, 0x96, 0xde, 0x69, 0x3e, 0xaa, 0x42, 0x1c, 0xbe,
  0xd4, 0x96, 0x32, 0x3d, 0xd4, 0x55, 0x96, 0xbe, 0x82, 0xf1, 0x55, 0x3e,
  0x7d, 0xdd, 0x82, 0xbd, 0x73, 0x2d, 0x9a, 0xbe, 0x3f, 0xcb, 0x43, 0x3d,
  0x41, 0x13, 0x8c, 0x3d, 0x19, 0xa9, 0x35, 0xbe, 0x23, 0x53, 0x0a, 0x3d,
  0x70, 0x5e, 0x72, 0xbe, 0xd0, 0x1f, 0xbf, 0x3e, 0x49, 0x64, 0xa9, 0xbd,
  0x57, 0xfd, 0x2e, 0x3e, 0xac, 0x9c, 0x73, 0x3e, 0x48, 0xc3, 0x07, 0x3e,
  0xb0, 0xcf, 0x0d, 0x3d, 0x6f, 0x16, 0x10, 0x3d, 0x8c, 0x4f, 0xf3, 0xbc,
  0xff, 0x11, 0x85, 0x3c, 0x12, 0xe7, 0x58, 0x3e, 0x68, 0x59, 0xbc, 0x3d,
  0x88, 0xec, 0x1e, 0xbe, 0x1e, 0x05, 0x58, 0xbd, 0x9c, 0x42, 0xf7, 0xbc,
  0x04, 0xd1, 0x09, 0xbe, 0x67, 0x33, 0xd6, 0xbd, 0x96, 0x5d, 0xaf, 0x3d,
  0x99, 0xda, 0x20, 0xbd, 0x5e, 0xf1, 0x1d, 0xbd, 0xec, 0x0a, 0xea, 0xbd,
  0xa5, 0x2e, 0x32, 0x3e, 0xc8, 0x01, 0x03, 0x3e, 0xc4, 0xc1, 0xa9, 0x3d,
  0x47, 0xfa, 0x41, 0x3d, 0xce, 0xca, 0xa2, 0x3d, 0xb1, 0x5d, 0x90, 0x3e,
  0x5d, 0x66, 0xb1, 0xbd, 0x14, 0xeb, 0x9d, 0x3d, 0x71, 0x13, 0x87, 0xbd,
  0x69, 0xde, 0x41, 0xbd, 0x78, 0x8e, 0x0b, 0x3e, 0xa1, 0x73, 0x02, 0xbe,
  0xc8, 0xb2, 0x4c, 0x3e, 0x8b, 0x11, 0x24, 0x3c, 0xba, 0x5b, 0xab, 0x3e,
  0x4d, 0xa0, 0x2a, 0xbe, 0x97, 0x3b, 0x5e, 0x3e, 0x35, 0x17, 0xf2, 0x3b,
  0x7e, 0x03, 0xe8, 0x3e, 0x48, 0xfa, 0x39, 0x3c, 0xd1, 0xa6, 0xfa, 0xbd,
  0x4c, 0xe3, 0x30, 0x3d, 0x70, 0xf7, 0x20, 0xbe, 0x14, 0x90, 0x2f, 0xbd,
  0xc8, 0xcc, 0xb2, 0xbd, 0x56, 0xed, 0x84, 0xbc, 0x5b, 0x95, 0x0e, 0x3e,
  0xf6, 0x83, 0x41, 0xbd, 0x3b, 0xd2, 0x6c, 0x3d, 0x02, 0xa3, 0x32, 0x3e,
  0x88, 0x36, 0x95, 0x3e, 0xf7, 0xcd, 0x1d, 0xbe, 0x24, 0x85, 0x2b, 0xbe,
  0xed, 0xe9, 0x5b, 0xbe, 0xb5, 0x62, 0x97, 0x3e, 0x0e, 0x04, 0x96, 0xbc,
  0x74, 0x40, 0x19, 0x3e, 0x74, 0x50, 0x19, 0x3e, 0x72, 0xbd, 0x96, 0xbe,
  0xa1, 0xfd, 0x0f, 0xbe, 0x8e, 0x4b, 0xce, 0xbd, 0xd7, 0xdd, 0x05, 0xbd,
  0x03, 0x06, 0x8f, 0x3e, 0x95, 0x66, 0x57, 0xbe, 0x2b, 0x12, 0x89, 0x3d,
  0xf3, 0x7e, 0xb5, 0x3d, 0x62, 0xb9, 0x40, 0x3d, 0xab, 0x5b, 0x32, 0xbd,
  0x05, 0x1b, 0x6b, 0xbe, 0x47, 0xeb, 0x4c, 0xbe, 0x3b, 0xa8, 0xc0, 0x3d,
  0x3a, 0x66, 0x35, 0xbe, 0xd8, 0x15, 0xeb, 0x3b, 0x57, 0xac, 0x1d, 0x3e,
  0x16, 0x27, 0x22, 0xbe, 0xb6, 0x6f, 0xa9, 0x3d, 0x7b, 0xdb, 0x2d, 0xbc,
  0xb9, 0x64, 0xd5, 0xbd, 0xd5, 0x00, 0x15, 0x3e, 0x2b, 0x49, 0x7f, 0xbe,
  0x6c, 0x6d, 0x19, 0x3e, 0xcd, 0x3f, 0x8b, 0xbe, 0xdd, 0xe2, 0x3e, 0x3e,
  0x54, 0x98, 0x06, 0x3e, 0xc0, 0x4f, 0xd3, 0xbb, 0xab, 0x22, 0xb7, 0x3c,
  0xcc, 0x60, 0x34, 0x3d, 0x14, 0xf2, 0x30, 0xbd, 0x34, 0x62, 0x22, 0x3d,
  0xb7, 0xe7, 0x74, 0xbc, 0xfb, 0xf6, 0x0e, 0xbe, 0x32, 0x9c, 0x47, 0xbd,
  0x28, 0x27, 0x52, 0xbd, 0x72, 0x07, 0xda, 0xbc, 0x5e, 0x9e, 0x00, 0xbd,
  0xa8, 0x3d, 0x39, 0xbe, 0x50, 0x39, 0x89, 0x3e, 0xbe, 0x1b, 0xc8, 0xbd,
  0x43, 0xdd, 0xcb, 0x3c, 0xd7, 0x78, 0xcc, 0xbc, 0x40, 0x8b, 0x91, 0xbc,
  0x53, 0xd5, 0x5f, 0xbc, 0xb8, 0xda, 0x8c, 0xbe, 0xc8, 0xc5, 0x37, 0x3f,
  0x7c, 0x2d, 0xb4, 0xbe, 0x6f, 0x4b, 0x2e, 0xbe, 0xe2, 0xd6, 0x92, 0xbe,
  0x88, 0x42, 0xa1, 0xbd, 0x60, 0xfb, 0xe5, 0xbd, 0xaf, 0xe6, 0xcd, 0xbd,
  0xdd, 0x80, 0x80, 0x3c, 0x5a, 0xe5, 0x01, 0xbe, 0x1f, 0x9e, 0x8e, 0xbc,
  0x66, 0xd6, 0xb7, 0x3e, 0x35, 0x91, 0x98, 0xbd, 0xfe, 0x45, 0x6c, 0xbe,
  0x01, 0x9c, 0x60, 0xbd, 0xd6, 0xa5, 0xb0, 0xb8, 0xc7, 0x8e, 0x4a, 0x3c,
  0x40, 0x4f, 0x97, 0x3e, 0xcf, 0xb8, 0xa3, 0xbe, 0xc5, 0xee, 0x80, 0xbe,
  0x77, 0x1b, 0x92, 0x3d, 0xe0, 0x44, 0xd5, 0xbd, 0x93, 0xfb, 0x15, 0xbe,
  0x8c, 0x71, 0x9c, 0x3c, 0x22, 0x69, 0x41, 0x3c, 0x02, 0x91, 0x4d, 0xbe,
  0x2a, 0x7e, 0xc0, 0xbe, 0xc6, 0x11, 0x00, 0xbe, 0x59, 0x69, 0x63, 0x3b,
  0x75, 0x96, 0xcf, 0xbc, 0x5a, 0x3d, 0xfa, 0xbb, 0xa0, 0x28, 0x12, 0x3e,
  0x58, 0xcf, 0xd3, 0x3d, 0xed, 0x49, 0xe5, 0x3e, 0xeb, 0xd3, 0x1d, 0xbd,
  0x9b, 0x16, 0xd0, 0xbd, 0xd1, 0x4c, 0x3d, 0x3d, 0x01, 0x61, 0x06, 0xbe,
  0xcf, 0xa7, 0x21, 0xbe, 0x13, 0x99, 0x7f, 0x3e, 0x7f, 0xdb, 0x3d, 0x3e,
  0xa6, 0x87, 0x12, 0x3e, 0xdc, 0xa2, 0xe7, 0x3d, 0xd2, 0x8a, 0x2d, 0xbe,
  0x0b, 0x55, 0xd6, 0x3d, 0x2f, 0xb9, 0x50, 0x3e, 0x94, 0x39, 0xee, 0xbd,
  0x3e, 0x32, 0x93, 0x3d, 0x49, 0x7e, 0x59, 0x3e, 0xd3, 0x05, 0x84, 0x3e,
  0x11, 0xbf, 0x29, 0x3d, 0x5c, 0x30, 0x6b, 0x3e, 0x5d, 0x91, 0x5e, 0x3c,
  0x42, 0x34, 0x34, 0xbe, 0x99, 0x20, 0x43, 0xbe, 0x60, 0x46, 0xb1, 0x3e,
  0x86, 0xf1, 0x26, 0x3e, 0xdb, 0xe0, 0x14, 0x3e, 0x6a, 0x13, 0x2e, 0xbe,
  0x3d, 0x40, 0x04, 0x3e, 0x23, 0x6b, 0x51, 0x3d, 0xa9, 0xbd, 0x4c, 0xbe,
  0xfd, 0x1a, 0x7f, 0x3d, 0xa1, 0xa1, 0xab, 0x3e, 0xdb, 0x1c, 0x04, 0x3e,
  0xba, 0x14, 0xcf, 0x3e, 0x1c, 0xbb, 0xfd, 0x3d, 0x48, 0x4d, 0xf6, 0xbd,
  0xb4, 0x93, 0x69, 0xbe, 0x91, 0xcb, 0x94, 0xbd, 0x8d, 0x06, 0xb4, 0xbe,
  0xa0, 0x89, 0x1f, 0xbd, 0x2d, 0x96, 0x2e, 0x3b, 0xea, 0xb6, 0xc6, 0x3e,
  0x6f, 0xfd, 0x04, 0x3d, 0xe7, 0xe3, 0x00, 0xbd, 0x48, 0x42, 0x78, 0xbe,
  0x9a, 0xdc, 0xc8, 0x3c, 0x70, 0xe7, 0xd9, 0x3d, 0x9d, 0x3c, 0x79, 0x3e,
  0xa4, 0x16, 0x4f, 0xbb, 0xe6, 0x25, 0x4c, 0x3e, 0x60, 0x34, 0xe9, 0xbd,
  0xa0, 0x98, 0x28, 0xbd, 0xcb, 0x9c, 0x39, 0xbe, 0x97, 0xb1, 0x37, 0xbe,
  0x22, 0xd0, 0x29, 0xbe, 0xf8, 0xfd, 0x7c, 0xbc, 0x34, 0xc7, 0xcb, 0xbb,
  0x7d, 0x23, 0xc4, 0xbd, 0xea, 0xf0, 0xac, 0x3d, 0x18, 0x55, 0xdf, 0xbd,
  0x39, 0xc0, 0x9b, 0x3d, 0x92, 0xca, 0x4a, 0x3e, 0x11, 0xaf, 0x15, 0x3d,
  0x1d, 0x1e, 0xa6, 0x3e, 0x48, 0x33, 0x4a, 0xbe, 0x45, 0xce, 0x57, 0x3e,
  0x07, 0xdb, 0x04, 0xbe, 0xa2, 0x14, 0x56, 0x3e, 0x8d, 0x14, 0x56, 0xbe,
  0x78, 0xfb, 0x9e, 0xbe, 0x98, 0x5a, 0x90, 0xbe, 0x0d, 0x5b, 0x60, 0xbe,
  0x25, 0xbe, 0x0d, 0x3e, 0x16, 0x07, 0x27, 0x3e, 0xd7, 0x79, 0x70, 0xbd,
  0x8f, 0x5b, 0x80, 0x3d, 0x7b, 0x21, 0xb8, 0xbb, 0x43, 0xc8, 0xff, 0x3b,
  0xaa, 0x84, 0x9e, 0xbd, 0x9a, 0x54, 0x8d, 0xbd, 0x3d, 0x09, 0xa2, 0xbd,
  0xf6, 0xa7, 0x8a, 0x3b, 0xb9, 0x3d, 0x45, 0xbe, 0x7b, 0x04, 0xe3, 0x3c,
  0x88, 0x40, 0x96, 0xbd, 0x0e, 0x4a, 0xe5, 0xbd, 0x35, 0x4b, 0x7e, 0xbe,
  0x3b, 0xa6, 0x34, 0xbe, 0x15, 0x50, 0x33, 0xbe, 0x9d, 0x00, 0x76, 0xbe,
  0x09, 0xa2, 0x64, 0xbe, 0x54, 0xe7, 0xc1, 0xbd, 0x59, 0x4e, 0xaa, 0xbd,
  0xc8, 0xed, 0xda, 0xbd, 0x5a, 0x2a, 0x00, 0x3e, 0x2d, 0x09, 0x2c, 0xbd,
  0x3e, 0xc7, 0x90, 0x3d, 0x4d, 0x8f, 0xcd, 0xbd, 0xc2, 0xeb, 0xa8, 0x3d,
  0x24, 0x41, 0x9d, 0xbc, 0xac, 0xd2, 0x13, 0xbe, 0xe5, 0x19, 0x81, 0xbe,
  0xb4, 0x51, 0x64, 0xbd, 0x99, 0xdd, 0x08, 0xbe, 0xa7, 0xfd, 0xae, 0xbd,
  0xc9, 0x04, 0x24, 0xbe, 0xe4, 0x95, 0x23, 0xbe, 0xcc, 0x79, 0xb1, 0xbb,
  0x47, 0xa5, 0x45, 0xbe, 0x2f, 0x93, 0x6e, 0x3d, 0xf5, 0xa8, 0x07, 0xbc,
  0xdd, 0x96, 0x2d, 0x3e, 0x15, 0x24, 0x77, 0xbe, 0xe0, 0x60, 0x82, 0x3c,
  0xea, 0x1d, 0x07, 0x3e, 0x8a, 0xfb, 0xc7, 0x3d, 0xcf, 0x01, 0x59, 0xbe,
  0x02, 0xf0, 0x19, 0xbd, 0x77, 0x38, 0x06, 0x3d, 0x00, 0x90, 0xa7, 0x3d,
  0x65, 0x6d, 0x97, 0x3d, 0xb8, 0x66, 0xa4, 0x3d, 0x38, 0xf6, 0x06, 0x3d,
  0x05, 0x68, 0x48, 0xbc, 0xe6, 0x42, 0x87, 0x3d, 0xde, 0x5e, 0xb1, 0xbd,
  0x86, 0xf9, 0x24, 0xbe, 0x73, 0x36, 0x3c, 0x3d, 0xd1, 0x66, 0x87, 0xbe,
  0x91, 0x44, 0xb8, 0xbc, 0x8e, 0x5a, 0xd8, 0x3b, 0x0b, 0x89, 0x3e, 0x3e,
  0xfe, 0xab, 0x48, 0x3d, 0x4a, 0xd7, 0xf1, 0xbd, 0x39, 0x38, 0xc4, 0xbd,
  0x20, 0x35, 0x46, 0xbe, 0x09, 0xed, 0x76, 0xbd, 0x2d, 0x03, 0xfa, 0x3d,
  0xd2, 0xa2, 0x2d, 0xbe, 0x6e, 0xf1, 0x30, 0x3e, 0x22, 0x9d, 0xec, 0xbd,
  0x1b, 0x56, 0x48, 0xbe, 0xd9, 0xf9, 0x7b, 0x3d, 0x72, 0x9b, 0x85, 0xbd,
  0x2a, 0xbb, 0x03, 0x3e, 0x0a, 0x02, 0x15, 0xbe, 0xc0, 0xc6, 0x10, 0xbe,
  0xe7, 0x9f, 0xc7, 0x3d, 0x46, 0xa4, 0xaf, 0x3c, 0x9a, 0x35, 0xa8, 0x3c,
  0x1a, 0xb1, 0x71, 0xbe, 0x7f, 0x6b, 0x4d, 0xbd, 0x18, 0x2b, 0x11, 0xbe,
  0x01, 0xa2, 0x43, 0xbe, 0xfa, 0x3e, 0xf8, 0xbd, 0xef, 0x4c, 0x19, 0xbe,
  0x17, 0x35, 0x42, 0xbe, 0x7f, 0x03, 0x87, 0xbe, 0x09, 0x36, 0x3e, 0x3e,
  0xb8, 0x08, 0x4d, 0xbe, 0x1c, 0x49, 0xf6, 0xba, 0x31, 0x5f, 0xdc, 0x3d,
  0xf9, 0xa7, 0x7e, 0x3d, 0xa0, 0x7f, 0x09, 0xbe, 0x52, 0x7a, 0xf0, 0xbd,
  0x57, 0xa2, 0xf5, 0xbd, 0x4d, 0x9e, 0x50, 0xbe, 0x11, 0x29, 0x98, 0xbd,
  0x7b, 0xef, 0x10, 0xbd, 0xcf, 0xe6, 0x48, 0xbe, 0x13, 0xc2, 0xbd, 0x3d,
  0x7c, 0xb0, 0x21, 0xbd, 0x80, 0xa2, 0x1b, 0xbe, 0x06, 0x1d, 0x93, 0xbe,
  0xd5, 0x52, 0x03, 0x3e, 0x64, 0x00, 0x11, 0xbd, 0x43, 0xc3, 0x50, 0xbe,
  0xdf, 0x2f, 0x6c, 0xbe, 0xd1, 0x21, 0xaa, 0xbd, 0x5b, 0x80, 0x50, 0xbe,
  0xaf, 0x73, 0x6d, 0xbd, 0xf9, 0x1a, 0x0f, 0xbd, 0x6e, 0x11, 0x99, 0xbe,
  0x87, 0x62, 0xc9, 0xbd, 0xda, 0x5b, 0x0d, 0xbd, 0xf4, 0xd3, 0xc9, 0xbd,
  0x11, 0x0d, 0x93, 0xbc, 0xef, 0xb8, 0x9c, 0x3d, 0x42, 0x72, 0x32, 0x3e,
  0xe1, 0x78, 0x18, 0xbe, 0x35, 0xc7, 0xa3, 0x3c, 0xb5, 0x9e, 0x9a, 0x3d,
  0x41, 0xc9, 0x6d, 0xbe, 0x30, 0x7c, 0xda, 0x3e, 0x06, 0x66, 0x01, 0xbf,
  0x58, 0x53, 0x8b, 0x3e, 0x8d, 0xbe, 0x0e, 0xbb, 0x52, 0x96, 0x2d, 0x3d,
  0x8d, 0x8f, 0x86, 0xbd, 0x42, 0x1d, 0x17, 0xbe, 0xf0, 0x96, 0x0b, 0x3e,
  0xbf, 0xa3, 0x2d, 0xbe, 0x21, 0xa9, 0x06, 0xbf, 0x75, 0x11, 0xa0, 0x3e,
  0xc5, 0xf7, 0x27, 0xbf, 0x3c, 0xe6, 0xa0, 0xbb, 0xa1, 0xc4, 0x74, 0xbe,
  0x7d, 0x1b, 0x00, 0x3f, 0x62, 0x7a, 0xb6, 0xbe, 0xb5, 0xf4, 0xb4, 0x3e,
  0xd6, 0x94, 0x09, 0xbf, 0x09, 0x92, 0x71, 0xbd, 0xd1, 0x7f, 0x87, 0xbe,
  0x09, 0x9f, 0x90, 0x3b, 0x27, 0x2a, 0x5f, 0x3d, 0x43, 0x5f, 0xa5, 0x3d,
  0x52, 0xeb, 0x17, 0x3e, 0x55, 0x45, 0xd1, 0x3e, 0xa2, 0x60, 0x18, 0xbf,
  0x85, 0x6a, 0xb6, 0x3e, 0xed, 0x4c, 0xf3, 0xbe, 0xcf, 0x70, 0xec, 0x3c,
  0x84, 0xf5, 0xac, 0xbe, 0xed, 0x1e, 0x63, 0x3e, 0x01, 0xf5, 0x96, 0xbe,
  0x4c, 0x20, 0x89, 0x3e, 0x45, 0x94, 0x13, 0xbe, 0x62, 0xbe, 0x59, 0xbc,
  0x7d, 0x77, 0x23, 0x3d, 0x27, 0xb5, 0x9d, 0xbd, 0x55, 0x96, 0x0b, 0x3d,
  0x21, 0x68, 0xfb, 0x3d, 0x28, 0x8f, 0xb8, 0xbc, 0x0d, 0xfc, 0xa8, 0x3e,
  0xe3, 0x28, 0x19, 0xbe, 0x3a, 0xdd, 0x68, 0x3e, 0x29, 0x53, 0x9f, 0xbe,
  0xe2, 0xff, 0xc5, 0xbd, 0xa7, 0xd2, 0x9e, 0xbd, 0x87, 0x62, 0x9d, 0x3e,
  0x16, 0x24, 0x0e, 0xbe, 0xf8, 0x35, 0x67, 0x3e, 0x87, 0x8f, 0x49, 0xbd,
  0xb4, 0xaa, 0xa7, 0xb9, 0x1d, 0x39, 0x85, 0xbc, 0xae, 0x3a, 0xbe, 0x3c,
  0xc1, 0x29, 0xc5, 0x3a, 0x73, 0xea, 0x81, 0x3d, 0x2c, 0xd7, 0x82, 0x3e,
  0x7c, 0xd5, 0x8a, 0x3e, 0x54, 0x66, 0x48, 0xbc, 0xe7, 0xfe, 0x46, 0x3d,
  0xc6, 0x83, 0x3d, 0x3d, 0x7a, 0xcd, 0x27, 0xbc, 0x01, 0xc1, 0x46, 0xbd,
  0xef, 0xca, 0x07, 0x3f, 0x8e, 0x97, 0x28, 0xbe, 0xe1, 0xde, 0x87, 0x3c,
  0xff, 0x26, 0xb5, 0xbc, 0xe9, 0xc0, 0xdf, 0xbd, 0x1e, 0x70, 0x21, 0xbd,
  0xa5, 0x6b, 0x81, 0xbd, 0xb2, 0xba, 0x9b, 0x3d, 0x6e, 0x65, 0x49, 0x3e,
  0x30, 0xbf, 0x80, 0x3d, 0x28, 0x8c, 0x4c, 0x3e, 0x59, 0xc8, 0xcd, 0xbe,
  0x56, 0x95, 0x09, 0x3e, 0xb4, 0x16, 0x18, 0xbe, 0x85, 0xe3, 0x8e, 0xbb,
  0x75, 0x10, 0x6e, 0xbe, 0xae, 0x25, 0x29, 0x3f, 0x02, 0x5d, 0xa4, 0xbe,
  0xab, 0xc4, 0xa6, 0xbb, 0xff, 0xd0, 0x75, 0xbd, 0xcc, 0x99, 0xfe, 0xbe,
  0x58, 0x1d, 0x70, 0xbe, 0x82, 0xe3, 0x43, 0xbe, 0x6e, 0x1d, 0x2a, 0xbc,
  0x79, 0x90, 0x3e, 0x3e, 0xe8, 0x04, 0xb6, 0xbe, 0xf3, 0x49, 0x26, 0x3e,
  0x1f, 0xd7, 0xe0, 0xbe, 0x85, 0x15, 0x87, 0x3e, 0x1a, 0xec, 0x81, 0xbe,
  0x26, 0xc5, 0x0d, 0x3d, 0xe2, 0xd4, 0xee, 0xbe, 0x25, 0x1b, 0x93, 0x3e,
  0xca, 0x77, 0xc6, 0xbd, 0x6c, 0x77, 0x12, 0x3e, 0x3d, 0x87, 0xd7, 0xbb,
  0xb1, 0xdb, 0x1c, 0xbd, 0xca, 0x75, 0x13, 0xbd, 0x4b, 0xb9, 0x83, 0xbd,
  0xda, 0xda, 0x14, 0x3c, 0xf9, 0x23, 0xdc, 0xbc, 0xaf, 0xe7, 0xb7, 0xbd,
  0xd1, 0xf4, 0x76, 0x3d, 0x31, 0x10, 0x44, 0xbe, 0x42, 0x6d, 0xc1, 0xbe,
  0x32, 0x46, 0x0f, 0xbe, 0xf3, 0x2b, 0x21, 0xbd, 0x71, 0x9b, 0x74, 0xbd,
  0x6b, 0xd2, 0x8e, 0x3e, 0xcf, 0x70, 0x79, 0xbd, 0xbe, 0x96, 0x51, 0xbd,
  0xa1, 0x0c, 0x77, 0xbe, 0x89, 0xcb, 0xc6, 0x3d, 0xe2, 0xcb, 0x3b, 0x3d,
  0xf3, 0xef, 0xbc, 0xbd, 0x8d, 0x54, 0xe9, 0x3c, 0x2c, 0x8a, 0x52, 0xbe,
  0x49, 0x61, 0x82, 0xbe, 0x2c, 0x44, 0x2c, 0xbe, 0xc6, 0x2c, 0x33, 0xbe,
  0xcf, 0xdb, 0x1c, 0x3d, 0xf0, 0x20, 0x13, 0x3e, 0xa3, 0xa2, 0x6c, 0xbc,
  0xfc, 0x06, 0x06, 0xbe, 0xbf, 0x80, 0xe1, 0xbd, 0x50, 0x7f, 0x15, 0xbe,
  0xbd, 0x62, 0x8c, 0xbd, 0x22, 0x7a, 0x46, 0xbe, 0x60, 0xf8, 0x4f, 0xbc,
  0x6f, 0xbc, 0xb1, 0xbc, 0xc5, 0xc0, 0x0e, 0x3d, 0xce, 0x51, 0x82, 0xbd,
  0x2b, 0xc1, 0xe1, 0x3d, 0xa3, 0x37, 0xa6, 0xbc, 0x21, 0xfb, 0x11, 0xbe,
  0x00, 0xf4, 0xcc, 0x3d, 0x4c, 0xbc, 0x45, 0xbd, 0x3e, 0x85, 0xea, 0x3c,
  0x35, 0x50, 0x1f, 0x3d, 0x04, 0x85, 0x77, 0xbe, 0x04, 0x98, 0x27, 0xbe,
  0xa1, 0x3e, 0x86, 0x3d, 0xdc, 0x91, 0xba, 0xbc, 0xc6, 0x62, 0x47, 0xbb,
  0xd7, 0xea, 0x4a, 0xbe, 0x6f, 0x8b, 0x6c, 0xbe, 0x68, 0xbc, 0xdc, 0xbd,
  0x93, 0xd1, 0x19, 0xbe, 0xcd, 0xac, 0xbf, 0xbd, 0x72, 0xf0, 0x24, 0xbc,
  0x55, 0x52, 0xb9, 0xbd, 0x88, 0x7d, 0xf2, 0x3a, 0x67, 0x67, 0x15, 0xbe,
  0x32, 0xb8, 0xfe, 0x3d, 0x62, 0x8e, 0xbc, 0xbd, 0x9d, 0x1e, 0x6a, 0xbe,
  0x6d, 0x71, 0xcc, 0xbd, 0x84, 0x18, 0x67, 0xbe, 0x7f, 0xb8, 0x5c, 0xbe,
  0x31, 0x60, 0x37, 0x3e, 0x9d, 0xf6, 0x5c, 0xbd, 0x23, 0x05, 0x0c, 0x3d,
  0xb3, 0xee, 0x8b, 0xbe, 0x34, 0x1d, 0x07, 0xbe, 0x4d, 0x32, 0x3c, 0xbd,
  0xe1, 0xea, 0x10, 0xbe, 0xb7, 0x59, 0x39, 0xbd, 0x4f, 0x35, 0xb3, 0x3c,
  0xde, 0x64, 0x11, 0x3e, 0x1c, 0xf3, 0xfa, 0x3b, 0x60, 0xd1, 0xd0, 0xbd,
  0x75, 0x57, 0x58, 0xbd, 0xc3, 0x6f, 0x21, 0x3c, 0xd9, 0x73, 0x15, 0x3e,
  0xd8, 0x17, 0x87, 0xbe, 0xcd, 0x9f, 0x10, 0xbe, 0xa8, 0xf2, 0xb5, 0x3c,
  0xd2, 0x92, 0x56, 0xbe, 0x31, 0xa1, 0x2a, 0x3d, 0xec, 0x5b, 0xd4, 0xbd,
  0xcd, 0xc1, 0x50, 0xbe, 0x24, 0xad, 0x79, 0x3d, 0x53, 0x20, 0x4a, 0xbe,
  0x2f, 0x10, 0x2b, 0x3d, 0x22, 0x08, 0x03, 0x3d, 0xb9, 0x28, 0xa4, 0xbb,
  0x9c, 0xd4, 0x72, 0xbe, 0x5e, 0x7b, 0x01, 0x3d, 0x03, 0xe5, 0x32, 0x3e,
  0x49, 0x7e, 0xc7, 0xbd, 0x3f, 0xe0, 0x02, 0x3d, 0x0a, 0x5a, 0x4f, 0xbe,
  0x74, 0xa6, 0x3b, 0xbe, 0xce, 0xfa, 0xb2, 0xbd, 0x20, 0x83, 0xc2, 0xbd,
  0x68, 0x9f, 0x81, 0xbe, 0x2c, 0x24, 0x2e, 0xbe, 0xac, 0xea, 0xc4, 0xbb,
  0x6b, 0xae, 0x4f, 0xbe, 0xe3, 0xf4, 0x57, 0xbe, 0x0e, 0xa4, 0x9e, 0x3d,
  0x22, 0x0c, 0x15, 0x3e, 0x92, 0x03, 0x66, 0xbe, 0x67, 0xf1, 0xfd, 0x3d,
  0x14, 0x7e, 0x01, 0xbe, 0xb1, 0x20, 0x85, 0xbe, 0x64, 0x05, 0x34, 0xbe,
  0x9c, 0x57, 0xd0, 0x3d, 0x6e, 0x60, 0x41, 0xbe, 0x0e, 0x07, 0x8f, 0xbd,
  0x40, 0x92, 0xac, 0xbe, 0x62, 0xc4, 0x50, 0xbe, 0xe4, 0xad, 0x79, 0xbe,
  0xfa, 0x11, 0x00, 0xbe, 0xfd, 0x15, 0x8d, 0xbe, 0x1d, 0xc6, 0xf5, 0xbd,
  0x58, 0x46, 0xd8, 0xbd, 0x21, 0xf3, 0x5b, 0xbe, 0x0a, 0x8f, 0x4a, 0xbe,
  0xb8, 0x9c, 0x86, 0xbc, 0x0f, 0x0e, 0xe5, 0x3c, 0xdf, 0x4b, 0x25, 0x3d,
  0xff, 0xa2, 0x62, 0xbd, 0x71, 0xa9, 0x4a, 0x3e, 0xd0, 0x4f, 0xd7, 0xbd,
  0xbe, 0xcd, 0xc6, 0x3d, 0x77, 0x21, 0x09, 0xbc, 0xf3, 0xff, 0x39, 0x3c,
  0x23, 0x7b, 0x0a, 0x3e, 0x4d, 0x3f, 0x3a, 0x3c, 0x06, 0x77, 0x30, 0x3d,
  0x01, 0x71, 0xce, 0x3d, 0xf9, 0x58, 0x34, 0xbd, 0xcf, 0x94, 0xce, 0x3d,
  0x8c, 0x33, 0x3b, 0xbd, 0xed, 0x61, 0x4d, 0x3e, 0x1b, 0x5d, 0x70, 0xbe,
  0xfb, 0x06, 0x1e, 0x3e, 0xef, 0xbb, 0x2c, 0xbe, 0x51, 0x60, 0x7b, 0x3d,
  0x7c, 0x27, 0x2d, 0x3c, 0xfa, 0x81, 0x0a, 0x3f, 0x5c, 0xec, 0x89, 0xbd,
  0x93, 0x08, 0xba, 0xba, 0x57, 0xdb, 0x03, 0xbe, 0x86, 0x86, 0x03, 0x3e,
  0x08, 0xde, 0x26, 0x3b, 0x1a, 0xd7, 0x47, 0x3d, 0x19, 0x08, 0xa3, 0xbd,
  0x31, 0x7d, 0xe6, 0x3d, 0xb1, 0x26, 0xb7, 0xbc, 0x9f, 0x8c, 0x1d, 0x3e,
  0x0e, 0xb7, 0xc1, 0xbd, 0x95, 0xeb, 0xac, 0x3d, 0x82, 0x23, 0xd8, 0xbd,
  0x2e, 0x90, 0x9e, 0x3d, 0x19, 0x96, 0x35, 0xbd, 0xa5, 0x86, 0x1b, 0x3f,
  0xbb, 0xd8, 0xc2, 0xbd, 0xef, 0xe2, 0xb8, 0xbc, 0x29, 0x61, 0x8e, 0xbe,
  0xbd, 0xb3, 0xdd, 0xbd, 0x4b, 0x2e, 0x37, 0xbe, 0x45, 0xe6, 0x87, 0x3d,
  0xbe, 0xc6, 0x33, 0xbe, 0xe8, 0x1c, 0xd3, 0x3d, 0xd6, 0x08, 0x2f, 0xbd,
  0x1f, 0xbc, 0x73, 0xbc, 0x79, 0xd8, 0xec, 0x3b, 0x44, 0x89, 0x39, 0xbd,
  0xaf, 0xbf, 0x13, 0x3d, 0xb5, 0x6d, 0xe3, 0xbd, 0x7a, 0xc9, 0x6d, 0xbc,
  0x24, 0xfa, 0x77, 0x3e, 0x74, 0x4a, 0xac, 0xbb, 0x18, 0xcc, 0xd6, 0xbc,
  0xe7, 0xfb, 0xa7, 0xbe, 0xe4, 0x1e, 0x95, 0x3d, 0xe6, 0x46, 0x03, 0xbf,
  0xdb, 0x11, 0xcb, 0x3d, 0x43, 0x56, 0x52, 0xbe, 0xf3, 0xd0, 0x5c, 0x3d,
  0xf8, 0xdc, 0xda, 0x3c, 0xc4, 0xef, 0x48, 0x3e, 0x39, 0x8c, 0x6e, 0x3d,
  0x6b, 0x93, 0x9d, 0x3d, 0xee, 0x57, 0x24, 0xbd, 0x7c, 0x56, 0xb8, 0xbd,
  0xdf, 0x69, 0xf5, 0xbc, 0x59, 0x6b, 0x40, 0x3f, 0xa9, 0xef, 0x0d, 0x3d,
  0xda, 0xa4, 0x84, 0xbc, 0x54, 0x67, 0xce, 0xbd, 0x1d, 0x7b, 0x5c, 0xbe,
  0x1e, 0x87, 0xff, 0xbc, 0x73, 0xc2, 0x72, 0x3d, 0x0d, 0xf9, 0x26, 0xbe,
  0x69, 0x8e, 0x18, 0x3d, 0xee, 0x90, 0xfb, 0x3c, 0xf8, 0x34, 0x7c, 0x3e,
  0xa7, 0xd8, 0xab, 0xbd, 0x9e, 0x5e, 0x12, 0x3d, 0x93, 0xa8, 0x14, 0xbc,
  0x88, 0x18, 0x4a, 0xbd, 0x00, 0x55, 0x31, 0x3e, 0x4b, 0xd9, 0x1d, 0x3f,
  0xf2, 0x18, 0xd5, 0x3d, 0x28, 0xfe, 0xca, 0xbb, 0x1a, 0x0e, 0x5d, 0xbd,
  0x96, 0xfb, 0xd8, 0x3d, 0x17, 0xa4, 0x84, 0x3d, 0xdb, 0x8b, 0xcb, 0xbc,
  0xac, 0xe0, 0x41, 0xbe, 0xa5, 0x38, 0x3a, 0x3e, 0x35, 0x3a, 0xec, 0xbc,
  0x05, 0x1a, 0x81, 0x3e, 0xa4, 0xa5, 0x00, 0xbd, 0x21, 0xb3, 0x9d, 0x3d,
  0x8a, 0x92, 0x64, 0xbc, 0xbc, 0xa4, 0x15, 0xbd, 0x49, 0x2d, 0x1e, 0xbd,
  0x7c, 0x3d, 0x17, 0x3b, 0x42, 0x16, 0x8c, 0x3c, 0x34, 0x9a, 0x9c, 0xbc,
  0x73, 0xa4, 0xad, 0xbc, 0x25, 0xd7, 0xfc, 0x3d, 0xff, 0x60, 0xb4, 0xbc,
  0x2a, 0x43, 0x19, 0x3d, 0x43, 0xb1, 0x46, 0x3e, 0x85, 0x16, 0xb0, 0x3c,
  0x25, 0x75, 0xdc, 0x3a, 0x93, 0x4a, 0xca, 0xbd, 0x32, 0x67, 0x28, 0xbd,
  0x41, 0xf8, 0x4a, 0xbe, 0xcc, 0x5f, 0x3b, 0xbe, 0x32, 0xbd, 0x63, 0xbd,
  0x4c, 0xa9, 0x4b, 0xbe, 0x2c, 0x00, 0xdb, 0xbd, 0x48, 0xb4, 0x98, 0xbe,
  0x1c, 0x50, 0xea, 0x3c, 0x21, 0xc7, 0xe1, 0x3d, 0x5e, 0x71, 0xc7, 0x3d,
  0x30, 0x37, 0x65, 0xbe, 0xaa, 0x9c, 0xaa, 0x3d, 0x54, 0x10, 0xc0, 0xbd,
  0x42, 0x2e, 0x39, 0xbe, 0x6e, 0xd1, 0x9a, 0x3c, 0xff, 0xf7, 0xa6, 0x3d,
  0x7e, 0xb2, 0x8d, 0x3d, 0x07, 0xae, 0x7b, 0xbe, 0x9c, 0x01, 0x8b, 0x3d,
  0x41, 0x65, 0x0c, 0xbd, 0x3b, 0x38, 0x89, 0xbd, 0x21, 0xaf, 0x3a, 0xbe,
  0x1b, 0x0e, 0xa8, 0xbd, 0x63, 0x54, 0x90, 0xbe, 0xd8, 0x27, 0xe3, 0xbd,
  0x82, 0x2f, 0x6c, 0x3d, 0xac, 0xc0, 0xe7, 0xbd, 0xa9, 0x3a, 0x89, 0x3d,
  0xdc, 0x43, 0x51, 0x3d, 0x5c, 0x2f, 0x5e, 0xbe, 0x24, 0x8a, 0xa5, 0xbd,
  0x2f, 0x50, 0xae, 0x3c, 0x98, 0xaf, 0xa2, 0x3d, 0x6e, 0x86, 0x0b, 0x3e,
  0x6f, 0xce, 0xfb, 0xbc, 0xfc, 0x14, 0x42, 0x3e, 0xf0, 0xef, 0x85, 0xbe,
  0x16, 0xae, 0x8c, 0xbc, 0x8d, 0xa1, 0x04, 0xbc, 0x16, 0x3d, 0x9f, 0xbe,
  0x68, 0x30, 0xef, 0x3d, 0xe3, 0x05, 0x05, 0xbd, 0x4e, 0x04, 0x7e, 0x3d,
  0x24, 0xbb, 0x95, 0xbc, 0xfe, 0xf0, 0x54, 0x3d, 0xe9, 0x5f, 0x05, 0x3e,
  0x14, 0x16, 0x7f, 0xbb, 0x55, 0xdb, 0xfb, 0x3c, 0x83, 0xf3, 0x18, 0xbe,
  0xeb, 0x92, 0xa5, 0x3d, 0x65, 0x8c, 0x14, 0x3d, 0x41, 0xa9, 0x5a, 0xbe,
  0x15, 0xde, 0x17, 0xbe, 0x12, 0xba, 0xdd, 0xbd, 0x04, 0x28, 0xc6, 0xbd,
  0x22, 0x4a, 0x08, 0xbe, 0x15, 0x76, 0x99, 0xbd, 0x10, 0x28, 0x41, 0x3e,
  0x2e, 0x20, 0x9a, 0xbd, 0xdd, 0x71, 0xaa, 0x3d, 0xd2, 0xb7, 0x36, 0x3d,
  0x37, 0x7a, 0x6f, 0xbd, 0x3a, 0x03, 0xbf, 0x3d, 0x7d, 0xcf, 0xd1, 0xbd,
  0xf3, 0xac, 0x0c, 0xbe, 0xc3, 0x0a, 0x30, 0x3d, 0x82, 0x9b, 0xfa, 0xbd,
  0x78, 0xf0, 0x14, 0xbd, 0xdb, 0xe9, 0x75, 0xbe, 0xd2, 0x8a, 0xe7, 0xbd,
  0xf4, 0x07, 0x09, 0xbe, 0x13, 0x9f, 0x2c, 0xbe, 0xe4, 0xd1, 0x1a, 0xbe,
  0x0f, 0xa1, 0x54, 0xbd, 0xd3, 0xcf, 0xbc, 0xbb, 0x13, 0x57, 0xfb, 0xbd,
  0x55, 0x0e, 0x09, 0xbe, 0x4a, 0xae, 0x66, 0xbe, 0x9d, 0xae, 0x71, 0x3d,
  0x3b, 0x84, 0x91, 0xbd, 0xd6, 0x70, 0xc1, 0x3b, 0x80, 0xf9, 0x50, 0xbe,
  0x7d, 0xa4, 0x5d, 0xbe, 0xc5, 0x34, 0xea, 0xbc, 0x01, 0xb0, 0x82, 0x3d,
  0xa4, 0x8e, 0x6d, 0x3d, 0xc0, 0x4d, 0x63, 0xbd, 0x90, 0x47, 0x64, 0xbd,
  0x6c, 0xfe, 0x4d, 0xbe, 0xc1, 0xe8, 0x3f, 0xbc, 0xff, 0xe4, 0x98, 0xb9,
  0x8b, 0x0c, 0x0e, 0x3e, 0x77, 0xc0, 0x21, 0x3e, 0xb5, 0x2d, 0x94, 0xbd,
  0x4c, 0x21, 0x84, 0xbe, 0x00, 0xd1, 0xd1, 0xbd, 0xb9, 0x35, 0x8e, 0xbc,
  0x65, 0x6c, 0x89, 0xbc, 0x03, 0x67, 0x93, 0xbe, 0x37, 0xea, 0xa9, 0xbd,
  0x49, 0x6f, 0x0b, 0xbe, 0x24, 0xf8, 0xb1, 0xbc, 0x70, 0x1f, 0xb3, 0xbe,
  0xef, 0xb9, 0x71, 0xbe, 0x4d, 0xa1, 0x00, 0xbe, 0x69, 0x3c, 0x01, 0x3e,
  0xc3, 0x88, 0x34, 0x3c, 0x5c, 0xab, 0xfd, 0x3d, 0xa4, 0x58, 0x41, 0x3d,
  0x99, 0xbc, 0x07, 0xbe, 0xd2, 0x06, 0x27, 0xbe, 0x18, 0x4e, 0x2c, 0xbe,
  0x8f, 0x4e, 0xdc, 0xbd, 0xa9, 0x0d, 0x6e, 0xbe, 0x34, 0x84, 0xc8, 0x3e,
  0x8c, 0x11, 0xb3, 0xbd, 0xe2, 0xfb, 0x0e, 0xbd, 0x1a, 0xb5, 0x6e, 0xbc,
  0x7b, 0xdd, 0x33, 0xbe, 0xb4, 0x6b, 0x5c, 0xbd, 0x6e, 0x03, 0x87, 0xbd,
  0x4b, 0x7d, 0xf1, 0xbd, 0x7b, 0x2b, 0x35, 0x3d, 0xa4, 0x53, 0x3f, 0xbc,
  0x83, 0xf6, 0x33, 0xbd, 0x25, 0xfe, 0xae, 0xbd, 0xc4, 0xa8, 0xb3, 0xbb,
  0x21, 0x6d, 0x2a, 0xbd, 0xdb, 0x7e, 0xa4, 0xbd, 0xf6, 0xa2, 0x96, 0x3d,
  0x93, 0x36, 0x7c, 0x3e, 0xff, 0x54, 0xae, 0xbd, 0x7b, 0xe9, 0x80, 0xbe,
  0xe2, 0xf9, 0x82, 0xbd, 0x37, 0x9f, 0x2a, 0xbe, 0xd9, 0x49, 0x1d, 0xbd,
  0xb1, 0xda, 0x3f, 0xbe, 0x6a, 0x2c, 0x79, 0x3d, 0x53, 0xaa, 0xfb, 0x3c,
  0xb6, 0x42, 0x4d, 0xbe, 0x98, 0xce, 0x8a, 0xbe, 0x6e, 0x9f, 0x76, 0xbd,
  0xd3, 0xc2, 0x28, 0xbe, 0x83, 0xe7, 0x55, 0x3e, 0x1a, 0x0f, 0x1d, 0x3e,
  0x2e, 0x9d, 0x81, 0x3d, 0x98, 0x02, 0xb5, 0x3e, 0x0b, 0xaa, 0xd4, 0x3d,
  0x40, 0x89, 0x03, 0xbe, 0x82, 0x7e, 0x05, 0xbe, 0x01, 0x77, 0x30, 0xbe,
  0xde, 0xb1, 0x61, 0xbe, 0x40, 0x00, 0x3c, 0xbe, 0xbd, 0x9d, 0x66, 0x3e,
  0x1a, 0x63, 0x9c, 0xbd, 0x0d, 0x7e, 0xfa, 0xbd, 0x31, 0xf6, 0x3b, 0x3e,
  0x03, 0xab, 0xbf, 0x3d, 0xb3, 0x1a, 0xaa, 0xbd, 0x6f, 0xb4, 0xbb, 0x3d,
  0x91, 0x94, 0xee, 0x3d, 0xe2, 0x18, 0x96, 0x3d, 0xfd, 0x0c, 0xd7, 0x3e,
  0x9b, 0x89, 0xa0, 0x3e, 0xb4, 0xee, 0xdf, 0xbd, 0x32, 0xe5, 0x2f, 0xbe,
  0x87, 0x6a, 0x2e, 0x3c, 0xbd, 0xee, 0x94, 0xbe, 0x78, 0x29, 0xb7, 0x3d,
  0x81, 0x96, 0xa8, 0xbd, 0x0a, 0x4e, 0xf3, 0xbd, 0x63, 0xdc, 0x0d, 0xbd,
  0xcd, 0x49, 0xce, 0xbd, 0xfd, 0x67, 0x6b, 0x3d, 0x0f, 0x89, 0x7c, 0xbe,
  0x8c, 0x3c, 0x3b, 0x3d, 0x07, 0x00, 0xa3, 0x3e, 0xc2, 0x40, 0x0a, 0x3d,
  0xc4, 0xc7, 0xdc, 0x3e, 0xbf, 0x2b, 0x23, 0x3e, 0xc8, 0x81, 0x03, 0xbd,
  0xbc, 0x21, 0xa8, 0xbd, 0xf9, 0x47, 0x08, 0xbe, 0x25, 0x24, 0x05, 0x3d,
  0xa9, 0x4e, 0x54, 0x3b, 0x7d, 0x1d, 0x73, 0xbd, 0x16, 0x69, 0x4f, 0xbe,
  0x2e, 0x9c, 0xe4, 0xbb, 0xbb, 0xba, 0x42, 0xbe, 0xe0, 0x77, 0xdc, 0xbd,
  0x60, 0xcf, 0x36, 0xbe, 0x01, 0x49, 0x8d, 0x3e, 0xb8, 0xcd, 0x83, 0xbd,
  0x94, 0x4b, 0xe2, 0xbd, 0x96, 0x93, 0x04, 0x3f, 0x8a, 0x8c, 0x86, 0x3d,
  0x3a, 0x96, 0xd3, 0xbd, 0xe4, 0x9d, 0x87, 0x3d, 0x85, 0x54, 0x10, 0xbe,
  0x74, 0x1b, 0x5f, 0xbe, 0xb0, 0x6f, 0x94, 0xbe, 0x01, 0x80, 0x25, 0x3d,
  0xf7, 0x7f, 0xd8, 0xbd, 0x9d, 0x84, 0xc4, 0xbd, 0x57, 0xb8, 0x93, 0x3d,
  0xbb, 0xbd, 0xe2, 0x3d, 0x05, 0x12, 0xdf, 0x3d, 0x46, 0x09, 0x34, 0xbe,
  0x14, 0x52, 0x90, 0x3d, 0xcf, 0xee, 0xd6, 0xbd, 0xea, 0xb8, 0x85, 0x3e,
  0x8d, 0xc7, 0x84, 0xbb, 0xe1, 0x39, 0x25, 0x3d, 0xb5, 0x2d, 0x9d, 0xbd,
  0xf0, 0xb3, 0x2d, 0xbe, 0xea, 0xdf, 0x8d, 0xbe, 0x59, 0x36, 0x96, 0xbc,
  0x90, 0x1b, 0x07, 0xbe, 0x62, 0x53, 0x2b, 0xbe, 0x75, 0xf3, 0xc6, 0xbd,
  0x45, 0xc1, 0x7a, 0xbe, 0xc2, 0xaf, 0x13, 0x3e, 0xf5, 0xa8, 0x92, 0xbc,
  0xc0, 0x88, 0x87, 0x3d, 0x06, 0x88, 0xc5, 0xbd, 0xd6, 0x19, 0x95, 0x3d,
  0xde, 0x8a, 0x90, 0xbd, 0x38, 0x0f, 0x56, 0x3e, 0x14, 0xb5, 0x2c, 0x3d,
  0x8d, 0xb2, 0x4a, 0x3e, 0xeb, 0x8a, 0x3e, 0xbe, 0xa9, 0x89, 0x5f, 0xba,
  0xe7, 0x6a, 0x58, 0x3e, 0xff, 0xde, 0x92, 0x3b, 0xe0, 0x06, 0x72, 0x3e,
  0x2b, 0x53, 0x97, 0xbd, 0xe6, 0xff, 0x42, 0xbe, 0xc2, 0x35, 0xe4, 0x3d,
  0xb5, 0x25, 0x15, 0xbf, 0xb8, 0x6a, 0xb6, 0x3e, 0x6c, 0x38, 0xde, 0xbe,
  0x71, 0x9d, 0x89, 0x3d, 0xa0, 0xf6, 0x18, 0xbe, 0x7e, 0x53, 0xf5, 0xbc,
  0x3b, 0xb4, 0xd1, 0x3d, 0x34, 0x1d, 0x2b, 0xbf, 0x3a, 0x8f, 0x36, 0xbe,
  0xd6, 0x3f, 0xd2, 0x3b, 0xf5, 0x42, 0x38, 0xbe, 0x5d, 0xde, 0x10, 0x3f,
  0xf7, 0x30, 0x88, 0x3d, 0x84, 0x82, 0x5b, 0xbd, 0x99, 0x67, 0xcf, 0x3d,
  0x18, 0xfc, 0x56, 0x3e, 0xfb, 0x9c, 0xae, 0xbd, 0x36, 0x92, 0x9b, 0x3d,
  0x84, 0x48, 0xe8, 0xbd, 0xe7, 0x4e, 0x47, 0xbe, 0x50, 0xf1, 0x4f, 0x3a,
  0x6e, 0x2e, 0x5b, 0x3e, 0x63, 0x45, 0xb4, 0xbe, 0xb2, 0xf8, 0x1c, 0xbf,
  0x15, 0xae, 0xd9, 0xbe, 0xfe, 0x83, 0xc5, 0xbc, 0xa9, 0xb2, 0x37, 0xbe,
  0x31, 0xfc, 0x97, 0xbe, 0x92, 0x51, 0xd3, 0xbd, 0x48, 0x67, 0x92, 0xbe,
  0x41, 0xa4, 0x2b, 0xbd, 0x3b, 0xb1, 0xd2, 0xbe, 0xd3, 0xbe, 0x1a, 0x3e,
  0xad, 0x0e, 0x32, 0xbf, 0x10, 0x2f, 0xa2, 0xbd, 0xae, 0x6e, 0x0f, 0xbf,
  0xef, 0xb4, 0xf4, 0x3c, 0x2c, 0x64, 0x16, 0xbf, 0xdd, 0x53, 0xe4, 0xbe,
  0x22, 0x45, 0x03, 0xbf, 0xde, 0x66, 0xb0, 0xbe, 0x98, 0xba, 0x3a, 0xbd,
  0x26, 0x83, 0x38, 0xbe, 0xf1, 0x5c, 0x99, 0xbe, 0x8d, 0x68, 0x5f, 0xbe,
  0x07, 0xe3, 0xd5, 0xbe, 0x90, 0x52, 0x32, 0xbd, 0xcf, 0x04, 0x14, 0xbf,
  0xbf, 0x02, 0x46, 0x3e, 0x95, 0x6e, 0x83, 0xbc, 0x16, 0x92, 0x19, 0xbe,
  0x8e, 0x05, 0x97, 0xbe, 0x8e, 0x00, 0xab, 0xbc, 0x40, 0xbe, 0x1e, 0xbf,
  0x45, 0x5e, 0x92, 0xbe, 0x3a, 0x92, 0x26, 0x3e, 0x97, 0x41, 0x12, 0xbd,
  0x0e, 0xcc, 0xdb, 0xbc, 0x24, 0xc6, 0x21, 0xbe, 0xed, 0xb3, 0x52, 0xbe,
  0xbe, 0x05, 0xd8, 0xbe, 0x09, 0xb2, 0x56, 0xbe, 0x20, 0xd0, 0xd3, 0xbd,
  0x30, 0x48, 0x37, 0xbe, 0x9a, 0x15, 0x32, 0xbc, 0x1c, 0xab, 0x66, 0x3e,
  0x29, 0xbe, 0x47, 0x3d, 0xb3, 0xd3, 0x24, 0x3d, 0xe7, 0xb5, 0x39, 0xbb,
  0xf6, 0x69, 0x64, 0xbe, 0x59, 0xf7, 0x8d, 0xbd, 0x91, 0xa3, 0x16, 0x3f,
  0xd4, 0x17, 0xc6, 0x3d, 0xd4, 0xb2, 0xe4, 0xbb, 0x3d, 0x9d, 0x03, 0x3d,
  0x9d, 0x0c, 0x27, 0xbe, 0xff, 0x1a, 0x35, 0x3d, 0xb9, 0xc5, 0x29, 0xbe,
  0x5b, 0x6a, 0xf0, 0x3c, 0x94, 0x3a, 0x50, 0xbb, 0xd1, 0x1d, 0x07, 0xbe,
  0x67, 0xe2, 0xfc, 0x3d, 0x58, 0x29, 0x95, 0x3e, 0x51, 0x97, 0x9b, 0x3c,
  0x72, 0x4a, 0xca, 0xbd, 0x03, 0xcf, 0xd5, 0x3c, 0x62, 0x14, 0x16, 0x3d,
  0x7b, 0xbd, 0x9e, 0x3e, 0x34, 0x27, 0x4c, 0x3d, 0x7e, 0xb5, 0x81, 0x3c,
  0xde, 0x15, 0xc9, 0x3c, 0xe4, 0xff, 0x33, 0x3e, 0x71, 0xa2, 0x4e, 0x3c,
  0x7c, 0x08, 0xe6, 0xbd, 0x3d, 0x2a, 0x01, 0x3e, 0xcf, 0xc3, 0x14, 0x3d,
  0xbf, 0xcd, 0x9b, 0xbc, 0x36, 0x78, 0x8f, 0x3e, 0xd9, 0x80, 0x21, 0xbe,
  0x10, 0xe3, 0x75, 0xbd, 0x82, 0xe9, 0x89, 0xbd, 0xaf, 0x09, 0x99, 0x3c,
  0xd0, 0x6d, 0xc3, 0xbd, 0x0a, 0x47, 0x41, 0xbe, 0xfb, 0xad, 0x65, 0xbe,
  0x83, 0xd8, 0x2b, 0xbe, 0x49, 0x02, 0x86, 0xbd, 0x92, 0x8a, 0x38, 0xbe,
  0xf9, 0xb4, 0x1f, 0x3d, 0x5e, 0x0b, 0x60, 0xbe, 0x8b, 0xc0, 0x05, 0xbe,
  0x27, 0x7c, 0x85, 0xbd, 0xa7, 0x93, 0x50, 0x3d, 0x61, 0xa7, 0x0f, 0xbe,
  0xe1, 0x4f, 0x93, 0xbd, 0x34, 0x72, 0x2c, 0xbd, 0x15, 0x89, 0xab, 0x3c,
  0x86, 0x7b, 0xa6, 0x3c, 0xbc, 0x8c, 0x42, 0xbe, 0x2a, 0xbb, 0x83, 0xbe,
  0xd4, 0x7b, 0xd2, 0xbd, 0x57, 0xe5, 0x8d, 0xbe, 0xc0, 0xb9, 0x5a, 0x3d,
  0xeb, 0x6b, 0x07, 0x3e, 0x38, 0xd0, 0xf7, 0xbd, 0x26, 0xb2, 0x15, 0x3d,
  0x89, 0xab, 0x15, 0xbe, 0x64, 0x74, 0x94, 0xbe, 0x7b, 0xd0, 0x57, 0xbe,
  0x33, 0x2d, 0x94, 0x3d, 0x10, 0x2c, 0xe2, 0xbd, 0xd7, 0x1b, 0x41, 0x3e,
  0x8f, 0xdd, 0xcc, 0x3d, 0x9b, 0x71, 0x0d, 0x3e, 0xb6, 0x74, 0x24, 0xbe,
  0xbf, 0x34, 0x82, 0xb8, 0xce, 0x0a, 0x8f, 0xbe, 0xd8, 0x11, 0xf6, 0xbd,
  0xcc, 0x8b, 0x18, 0xbe, 0xc8, 0x68, 0x24, 0xbe, 0xfe, 0x9e, 0xf6, 0x3d,
  0xff, 0x5a, 0x89, 0x3d, 0x9d, 0xd1, 0x10, 0xbe, 0x3b, 0xa8, 0x16, 0x3e,
  0xc8, 0x79, 0x62, 0x3d, 0x2c, 0xce, 0xec, 0xbd, 0xd0, 0xce, 0xc9, 0xbd,
  0xa9, 0xb4, 0xbf, 0xbb, 0xad, 0xd1, 0x0f, 0x3e, 0xff, 0x03, 0xc4, 0x3c,
  0x0f, 0x75, 0x41, 0x3e, 0x19, 0xc4, 0x9e, 0xbd, 0x0c, 0x9a, 0x0a, 0x3d,
  0x21, 0x5a, 0x23, 0xbe, 0xf7, 0xba, 0x08, 0xbe, 0x65, 0x04, 0x3a, 0x3e,
  0x12, 0x0b, 0x0a, 0xbe, 0x5b, 0xd4, 0xe9, 0xbc, 0xe1, 0x95, 0xea, 0x3c,
  0x1a, 0xdb, 0x05, 0xbe, 0x79, 0x40, 0x5d, 0xbd, 0x1c, 0xb2, 0x3f, 0x3e,
  0x87, 0xcf, 0x43, 0xbe, 0x05, 0x2c, 0x81, 0xbe, 0x53, 0x1f, 0x35, 0x3d,
  0x0b, 0x4d, 0x2b, 0xbe, 0x85, 0x82, 0xf8, 0x3a, 0xe7, 0xaf, 0xdd, 0x3d,
  0xf4, 0xee, 0x5e, 0xbe, 0x0c, 0x20, 0x9d, 0xbe, 0xb8, 0x44, 0x4b, 0x3e,
  0x3a, 0x12, 0x1e, 0xbe, 0x96, 0xf1, 0x24, 0xbe, 0x5f, 0xd3, 0x10, 0x3e,
  0xb7, 0x8e, 0x0c, 0x3e, 0xae, 0x24, 0xf5, 0x3d, 0x9d, 0x41, 0x03, 0x3e,
  0xef, 0xfa, 0x4f, 0xbe, 0xb1, 0xb2, 0x29, 0x3e, 0xae, 0x11, 0x4f, 0xbe,
  0x14, 0xe7, 0x1e, 0xbd, 0x18, 0xa3, 0xc5, 0xbd, 0x4b, 0x23, 0x55, 0xbe,
  0xb4, 0x20, 0xaf, 0xbd, 0xb4, 0x85, 0x81, 0xbe, 0xa9, 0xc1, 0x8b, 0xbe,
  0x2a, 0xc8, 0x05, 0x3e, 0x31, 0xc2, 0x26, 0xbe, 0x22, 0x35, 0xef, 0x3c,
  0xe0, 0xf4, 0x6b, 0xbe, 0xb8, 0x40, 0xbc, 0x3c, 0xc0, 0x45, 0x62, 0xbe,
  0x57, 0xe4, 0x12, 0xbe, 0x66, 0xa1, 0x39, 0xbe, 0x3b, 0xbb, 0x59, 0x3d,
  0x67, 0x8a, 0x2c, 0xbd, 0xc3, 0x14, 0xd9, 0xbc, 0x7c, 0x53, 0xa6, 0x3d,
  0xea, 0x97, 0x74, 0xbe, 0x37, 0x75, 0x81, 0xbc, 0x49, 0xa2, 0xf5, 0x3c,
  0x1f, 0x1a, 0x58, 0x3c, 0x3d, 0xbb, 0x16, 0x3c, 0x11, 0xbf, 0x43, 0xbc,
  0x90, 0x47, 0xad, 0xbd, 0x81, 0x4e, 0x54, 0xbd, 0x04, 0xa8, 0x22, 0xbe,
  0x77, 0xa6, 0xd2, 0xbd, 0x55, 0xda, 0x0e, 0xbe, 0x03, 0x4d, 0x07, 0xbe,
  0xf2, 0x37, 0x70, 0xbe, 0xf3, 0x15, 0x85, 0x3c, 0xc2, 0x28, 0x97, 0xbc,
  0x0e, 0xf8, 0x9c, 0xbe, 0x6f, 0xd0, 0x8c, 0x3c, 0x87, 0xce, 0x5b, 0xbe,
  0xef, 0xca, 0x56, 0xbd, 0x38, 0x4f, 0xb8, 0xbd, 0x37, 0x3f, 0x83, 0xbe,
  0x91, 0xef, 0x5a, 0x3b, 0x9a, 0x82, 0xc4, 0xbb, 0xc5, 0xbf, 0x90, 0x3d,
  0xfb, 0xb2, 0xa9, 0xbd, 0x61, 0x97, 0x9b, 0xbd, 0xb8, 0x06, 0x50, 0xbc,
  0xa9, 0xee, 0x8b, 0xbd, 0x1c, 0xa5, 0xfa, 0x3d, 0xe4, 0x10, 0x1a, 0x3d,
  0x8c, 0xfb, 0x78, 0xbd, 0x31, 0xf3, 0x79, 0x3e, 0x72, 0x15, 0x55, 0xbd,
  0xdd, 0xd6, 0x3c, 0x3d, 0xc4, 0xb1, 0xbc, 0xbd, 0x74, 0x8a, 0x00, 0xbe,
  0x3a, 0xbd, 0x90, 0xbe, 0x49, 0x20, 0x40, 0xbe, 0xca, 0x41, 0xaf, 0xbe,
  0x04, 0x55, 0x7f, 0x3b, 0xaa, 0x04, 0xb6, 0xbe, 0x34, 0xd7, 0x81, 0x3e,
  0x4e, 0x0d, 0x4c, 0xbd, 0x61, 0x62, 0xcd, 0xbd, 0x76, 0xbf, 0x34, 0x3e,
  0x56, 0x50, 0xa8, 0xbd, 0x2e, 0xdc, 0x25, 0x3d, 0xe7, 0x07, 0x8b, 0xbc,
  0xcc, 0x56, 0x65, 0x3d, 0xb9, 0x7a, 0x60, 0xbe, 0xf0, 0xea, 0xca, 0xbc,
  0x7f, 0x06, 0x1b, 0xbd, 0x20, 0x8b, 0xd5, 0x3d, 0x10, 0xcc, 0x56, 0x3e,
  0x2a, 0xa1, 0xb1, 0xbd, 0x53, 0xcc, 0xbd, 0x3e, 0x42, 0x62, 0x0e, 0xbe,
  0x2b, 0x92, 0x37, 0xbe, 0xfe, 0xd8, 0x61, 0xbd, 0x85, 0xbe, 0x10, 0x3e,
  0xe8, 0x53, 0x31, 0xbe, 0x25, 0xe6, 0x51, 0x3e, 0xaa, 0xad, 0x7a, 0xbe,
  0x8d, 0x9a, 0x8a, 0x3d, 0x6a, 0x83, 0x94, 0x3e, 0x72, 0xbd, 0xa8, 0xbd,
  0x3e, 0x85, 0xa4, 0xba, 0x22, 0xb6, 0xe6, 0xbc, 0x6a, 0x58, 0xf1, 0xbc,
  0x56, 0x6b, 0xe0, 0x3d, 0x3d, 0x1e, 0xe5, 0x3d, 0x19, 0xf5, 0x8e, 0x3d,
  0x9c, 0x64, 0xe6, 0x3c, 0x96, 0x6b, 0x0d, 0x3f, 0x17, 0x0b, 0x6a, 0x3e,
  0xf3, 0xad, 0x1a, 0xbd, 0x93, 0xf9, 0x5c, 0xbd, 0xc2, 0x06, 0xc3, 0x3e,
  0xe1, 0x5a, 0xbc, 0x3c, 0x70, 0xcb, 0x88, 0x3e, 0x17, 0x0d, 0x06, 0x3e,
  0xcb, 0x01, 0xc0, 0xbe, 0x7a, 0x86, 0xef, 0x3d, 0xc4, 0x26, 0x76, 0xbd,
  0x76, 0x31, 0xa7, 0xbe, 0x6c, 0x20, 0x51, 0x3e, 0x6e, 0x47, 0x6f, 0xbe,
  0xa7, 0xb1, 0xff, 0x3d, 0x5b, 0x37, 0x35, 0xbe, 0xc2, 0x2b, 0xe0, 0x3e,
  0xe8, 0x40, 0x8e, 0x3d, 0xa0, 0x4d, 0xa0, 0x3d, 0x66, 0x32, 0x17, 0xbe,
  0xf5, 0xa7, 0x1e, 0x3e, 0x19, 0x71, 0x97, 0x3c, 0x45, 0xfe, 0x93, 0x3e,
  0x7f, 0x65, 0xad, 0xbd, 0x78, 0xaa, 0x34, 0xbd, 0xde, 0x8b, 0x3e, 0xbd,
  0xb1, 0xfb, 0x8c, 0x3c, 0x7a, 0xa9, 0x04, 0xbe, 0x7f, 0x8a, 0x98, 0xbd,
  0x1a, 0x83, 0x8e, 0xbe, 0xe9, 0x99, 0xc7, 0x3e, 0x2c, 0x2c, 0x15, 0xbe,
  0x13, 0xa7, 0x24, 0x3e, 0x80, 0xcb, 0xcf, 0xbd, 0xfb, 0x1a, 0x41, 0x3e,
  0x0d, 0xa6, 0x33, 0x3d, 0x4b, 0xa8, 0x0d, 0x3d, 0x15, 0xc8, 0xd5, 0xbe,
  0x61, 0x57, 0x4d, 0xbd, 0x05, 0xa0, 0x89, 0x3d, 0xb5, 0x38, 0xb2, 0xbd,
  0x63, 0x72, 0x27, 0xbd, 0x4f, 0x05, 0x2f, 0x3c, 0x8b, 0xb5, 0x22, 0xbe,
  0xe4, 0x2d, 0x1a, 0xbe, 0x1d, 0xa3, 0x54, 0xbc, 0x01, 0x57, 0xab, 0x3d,
  0x65, 0x4b, 0x3e, 0x3d, 0x27, 0x27, 0xd1, 0xbd, 0xbf, 0xd4, 0x2e, 0xbe,
  0xa6, 0xac, 0xe9, 0x3d, 0x59, 0x50, 0x00, 0xbe, 0xff, 0x35, 0xcb, 0x3d,
  0x31, 0xa8, 0xb3, 0xbd, 0xb8, 0x9e, 0x29, 0x3d, 0x42, 0xe4, 0xde, 0xbd,
  0x3e, 0x67, 0x1f, 0xbe, 0xd5, 0x87, 0x49, 0x3a, 0x32, 0x11, 0x9e, 0xbc,
  0x70, 0x1a, 0x17, 0xbe, 0xeb, 0x77, 0x83, 0xbd, 0x51, 0x7c, 0x48, 0xbe,
  0xd1, 0xb2, 0xda, 0x3e, 0xa6, 0xd2, 0x9b, 0xbe, 0x2e, 0x87, 0x97, 0x3d,
  0x6a, 0x76, 0x8e, 0x3e, 0x42, 0xe1, 0x34, 0x3d, 0xc6, 0xd6, 0x85, 0xbd,
  0xfc, 0xab, 0xa8, 0xbc, 0xaa, 0x42, 0x97, 0xbc, 0x48, 0xf5, 0x2d, 0x3d,
  0x13, 0x96, 0xf2, 0x3d, 0xbd, 0x68, 0x9d, 0x3f, 0x52, 0xbf, 0x22, 0xbe,
  0x66, 0x53, 0x56, 0xbd, 0x95, 0x3d, 0xb2, 0xbe, 0x3b, 0x91, 0xfe, 0xbd,
  0x6c, 0xab, 0xa9, 0xbe, 0x07, 0x28, 0x1d, 0x3e, 0xc5, 0x76, 0xec, 0xbd,
  0x6d, 0xff, 0x16, 0x3d, 0xee, 0x49, 0x15, 0xbd, 0x8c, 0xf5, 0x20, 0x3e,
  0x3a, 0xab, 0x66, 0xbe, 0xfb, 0x31, 0x42, 0x3e, 0x19, 0xb7, 0x4b, 0xbe,
  0x22, 0x93, 0xa8, 0xbe, 0x2e, 0x8c, 0xac, 0x3e, 0x12, 0x32, 0xac, 0x3f,
  0xd4, 0x53, 0xa9, 0x3e, 0xc5, 0xc4, 0xc1, 0xbd, 0x67, 0x65, 0x3f, 0xbe,
  0x00, 0xb1, 0x11, 0x3e, 0x49, 0xd2, 0x51, 0xbc, 0x55, 0x0d, 0x57, 0x3e,
  0xf0, 0xfd, 0xaf, 0xbd, 0xb1, 0x61, 0xa9, 0x3e, 0x5c, 0xfb, 0xbb, 0x3b,
  0xc8, 0xc3, 0xe1, 0xbd, 0x69, 0x23, 0x85, 0xbe, 0x37, 0x3b, 0x04, 0x3f,
  0x44, 0xda, 0xed, 0xbd, 0xb1, 0xb4, 0x2e, 0xbd, 0xb7, 0x38, 0xa7, 0x3e,
  0xdb, 0xac, 0x8c, 0x3f, 0x16, 0x1f, 0x26, 0x3e, 0x65, 0x9d, 0x6f, 0x3d,
  0x2b, 0xac, 0xa4, 0xbe, 0xd0, 0xa5, 0x74, 0x3e, 0xd5, 0x5d, 0xc2, 0xbe,
  0xdc, 0x48, 0xd4, 0x3e, 0x9b, 0xf7, 0xa2, 0xbd, 0x5c, 0x44, 0x8b, 0x3e,
  0x88, 0xce, 0x81, 0xbd, 0xd4, 0xd0, 0x50, 0x3e, 0x2c, 0x81, 0xa9, 0x3c,
  0x84, 0x4f, 0xdd, 0x3e, 0xba, 0x48, 0xa2, 0xbc, 0x91, 0xfc, 0x84, 0x3e,
  0x06, 0x89, 0x85, 0xbd, 0x1a, 0x1d, 0xae, 0x3f, 0x8f, 0xf5, 0xa0, 0xbe,
  0x18, 0x8d, 0xa7, 0x3b, 0x4b, 0xa5, 0x87, 0xbe, 0xa7, 0xa0, 0x02, 0xbd,
  0x9a, 0x34, 0xd4, 0xbe, 0x30, 0x93, 0xfb, 0x3e, 0x9e, 0x70, 0x4d, 0xbe,
  0x18, 0x3a, 0x9c, 0x3e, 0x20, 0x9f, 0x0c, 0xbe, 0x28, 0x1e, 0x05, 0x3e,
  0x02, 0x9b, 0x3c, 0xbd, 0xa9, 0x5c, 0x21, 0xbd, 0x93, 0x58, 0x85, 0x3e,
  0xca, 0x4e, 0xbb, 0x3a, 0xe7, 0x1e, 0xdd, 0xbd, 0x9c, 0xc1, 0x8d, 0x3f,
  0xa2, 0xb8, 0x5d, 0xbe, 0x70, 0xbc, 0xde, 0xbd, 0x6c, 0xaa, 0x37, 0xbe,
  0xcf, 0x9e, 0x84, 0xbd, 0xbb, 0x29, 0x17, 0xbf, 0x00, 0x57, 0x9d, 0x3d,
  0x41, 0x97, 0x05, 0xbe, 0x97, 0xc7, 0x87, 0xbe, 0x7f, 0xd8, 0x42, 0xbe,
  0x5a, 0x74, 0x26, 0xbd, 0xf4, 0xb2, 0xde, 0xbd, 0x42, 0x1c, 0x94, 0xbd,
  0x52, 0xe5, 0x73, 0x3e, 0x3f, 0x04, 0x9f, 0xbd, 0x5b, 0x0d, 0xd4, 0x39,
  0x51, 0x78, 0xbe, 0x3e, 0xbc, 0x90, 0xe7, 0x3d, 0x8c, 0x31, 0x3f, 0xbb,
  0x11, 0x8b, 0x25, 0xbe, 0xc2, 0xc4, 0xd9, 0x3d, 0x84, 0x3f, 0xcf, 0xbe,
  0x08, 0x49, 0x87, 0xbe, 0x31, 0x9e, 0x9b, 0x3e, 0x0c, 0x8c, 0x42, 0x3c,
  0x04, 0xeb, 0x38, 0xbd, 0xa3, 0xef, 0x23, 0xbe, 0xff, 0xbb, 0xf0, 0xbd,
  0x66, 0xfd, 0xff, 0xff, 0x10, 0x00, 0x00, 0x00, 0x07, 0x00, 0x00, 0x00,
  0x14, 0x00, 0x00, 0x00, 0x2c, 0x00, 0x00, 0x00, 0x02, 0x00, 0x00, 0x00,
  0x10, 0x00, 0x00, 0x00, 0x70, 0x00, 0x00, 0x00, 0x17, 0x00, 0x00, 0x00,
  0x73, 0x65, 0x71, 0x75, 0x65, 0x6e, 0x74, 0x69, 0x61, 0x6c, 0x2f, 0x64,
  0x65, 0x6e, 0x73, 0x65, 0x2f, 0x4d, 0x61, 0x74, 0x4d, 0x75, 0x6c, 0x00,
  0xd0, 0xfc, 0xff, 0xff, 0xda, 0xfd, 0xff, 0xff, 0x04, 0x00, 0x00, 0x00,
  0x08, 0x00, 0x00, 0x00, 0xff, 0xff, 0xff, 0xff, 0x70, 0x00, 0x00, 0x00,
  0x00, 0x00, 0x0e, 0x00, 0x18, 0x00, 0x08, 0x00, 0x07, 0x00, 0x0c, 0x00,
  0x10, 0x00, 0x14, 0x00, 0x0e, 0x00, 0x00, 0x00, 0x00, 0x00, 0x00, 0x02,
  0x10, 0x00, 0x00, 0x00, 0x06, 0x00, 0x00, 0x00, 0x10, 0x00, 0x00, 0x00,
  0x2c, 0x00, 0x00, 0x00, 0x01, 0x00, 0x00, 0x00, 0x02, 0x00, 0x00, 0x00,
  0x18, 0x00, 0x00, 0x00, 0x73, 0x65, 0x71, 0x75, 0x65, 0x6e, 0x74, 0x69,
  0x61, 0x6c, 0x2f, 0x66, 0x6c, 0x61, 0x74, 0x74, 0x65, 0x6e, 0x2f, 0x43,
  0x6f, 0x6e, 0x73, 0x74, 0x00, 0x00, 0x00, 0x00, 0x38, 0xfd, 0xff, 0xff,
  0x42, 0xfe, 0xff, 0xff, 0x04, 0x00, 0x00, 0x00, 0x0c, 0x00, 0x00, 0x00,
  0x6e, 0xbd, 0xc5, 0xbf, 0x30, 0xd8, 0x1c, 0xc0, 0xa1, 0xe5, 0x34, 0x40,
  0x26, 0xfe, 0xff, 0xff, 0x10, 0x00, 0x00, 0x00, 0x05, 0x00, 0x00, 0x00,
  0x10, 0x00, 0x00, 0x00, 0x44, 0x00, 0x00, 0x00, 0x01, 0x00, 0x00, 0x00,
  0x03, 0x00, 0x00, 0x00, 0x32, 0x00, 0x00, 0x00, 0x73, 0x65, 0x71, 0x75,
  0x65, 0x6e, 0x74, 0x69, 0x61, 0x6c, 0x2f, 0x64, 0x65, 0x6e, 0x73, 0x65,
  0x5f, 0x31, 0x2f, 0x42, 0x69, 0x61, 0x73, 0x41, 0x64, 0x64, 0x2f, 0x52,
  0x65, 0x61, 0x64, 0x56, 0x61, 0x72, 0x69, 0x61, 0x62, 0x6c, 0x65, 0x4f,
  0x70, 0x2f, 0x72, 0x65, 0x73, 0x6f, 0x75, 0x72, 0x63, 0x65, 0x00, 0x00,
  0xa8, 0xfd, 0xff, 0xff, 0xb2, 0xfe, 0xff, 0xff, 0x04, 0x00, 0x00, 0x00,
  0x40, 0x00, 0x00, 0x00, 0x37, 0x49, 0xa5, 0xbe, 0x27, 0x22, 0x49, 0xbf,
  0xc9, 0x8b, 0xa0, 0x3e, 0x9a, 0x08, 0x23, 0x3f, 0xcf, 0xb9, 0xcc, 0xbe,
  0xc4, 0x4d, 0x51, 0xbe, 0xfc, 0xef, 0x36, 0xbe, 0x2f, 0xa3, 0x04, 0x40,
  0x8d, 0x5e, 0x44, 0xbe, 0x64, 0x7c, 0x74, 0xbf, 0xe9, 0xd1, 0x63, 0xbe,
  0x32, 0xc9, 0x80, 0xbe, 0x16, 0xf1, 0x99, 0xbf, 0xeb, 0xa2, 0x41, 0xbe,
  0xe3, 0x42, 0xc6, 0xbe, 0xbc, 0xc4, 0x48, 0x40, 0xca, 0xfe, 0xff, 0xff,
  0x10, 0x00, 0x00, 0x00, 0x04, 0x00, 0x00, 0x00, 0x10, 0x00, 0x00, 0x00,
  0x44, 0x00, 0x00, 0x00, 0x01, 0x00, 0x00, 0x00, 0x10, 0x00, 0x00, 0x00,
  0x30, 0x00, 0x00, 0x00, 0x73, 0x65, 0x71, 0x75, 0x65, 0x6e, 0x74, 0x69,
  0x61, 0x6c, 0x2f, 0x64, 0x65, 0x6e, 0x73, 0x65, 0x2f, 0x42, 0x69, 0x61,
  0x73, 0x41, 0x64, 0x64, 0x2f, 0x52, 0x65, 0x61, 0x64, 0x56, 0x61, 0x72,
  0x69, 0x61, 0x62, 0x6c, 0x65, 0x4f, 0x70, 0x2f, 0x72, 0x65, 0x73, 0x6f,
  0x75, 0x72, 0x63, 0x65, 0x00, 0x00, 0x00, 0x00, 0x4c, 0xfe, 0xff, 0xff,
  0x56, 0xff, 0xff, 0xff, 0x04, 0x00, 0x00, 0x00, 0x40, 0x00, 0x00, 0x00,
  0xcb, 0x21, 0x0a, 0xc0, 0x84, 0xeb, 0x18, 0xbc, 0x03, 0xea, 0xdf, 0xbf,
  0x0c, 0x4e, 0x80, 0xbf, 0x65, 0xb4, 0xd1, 0x40, 0x5d, 0xe7, 0x09, 0xbf,
  0x12, 0x38, 0xb1, 0x3d, 0x19, 0x8e, 0x71, 0xbe, 0x89, 0x9f, 0x27, 0xbf,
  0x2c, 0xbb, 0x21, 0xbf, 0x0a, 0xd5, 0xa1, 0xbf, 0x0b, 0x28, 0x03, 0xbf,
  0xf5, 0x1d, 0x0f, 0xc0, 0x79, 0x5b, 0x8f, 0x3e, 0x17, 0x27, 0xc5, 0xbf,
  0x77, 0x07, 0x9d, 0x3c, 0x6e, 0xff, 0xff, 0xff, 0x10, 0x00, 0x00, 0x00,
  0x03, 0x00, 0x00, 0x00, 0x10, 0x00, 0x00, 0x00, 0x48, 0x00, 0x00, 0x00,
  0x01, 0x00, 0x00, 0x00, 0x10, 0x00, 0x00, 0x00, 0x33, 0x00, 0x00, 0x00,
  0x73, 0x65, 0x71, 0x75, 0x65, 0x6e, 0x74, 0x69, 0x61, 0x6c, 0x2f, 0x63,
  0x6f, 0x6e, 0x76, 0x32, 0x64, 0x5f, 0x31, 0x2f, 0x42, 0x69, 0x61, 0x73,
  0x41, 0x64, 0x64, 0x2f, 0x52, 0x65, 0x61, 0x64, 0x56, 0x61, 0x72, 0x69,
  0x61, 0x62, 0x6c, 0x65, 0x4f, 0x70, 0x2f, 0x72, 0x65, 0x73, 0x6f, 0x75,
  0x72, 0x63, 0x65, 0x00, 0x04, 0x00, 0x06, 0x00, 0x04, 0x00, 0x00, 0x00,
  0x00, 0x00, 0x06, 0x00, 0x08, 0x00, 0x04, 0x00, 0x06, 0x00, 0x00, 0x00,
  0x04, 0x00, 0x00, 0x00, 0x20, 0x00, 0x00, 0x00, 0xd6, 0x43, 0xb9, 0xbf,
  0x6f, 0xbf, 0xef, 0xbf, 0x7a, 0x00, 0x02, 0xc0, 0x62, 0x3a, 0xef, 0xbd,
  0x31, 0x0b, 0xaf, 0xbf, 0xc1, 0x5a, 0x88, 0xbf, 0xb8, 0xa3, 0x45, 0xc0,
  0xf8, 0x28, 0x1c, 0xc0, 0x00, 0x00, 0x0e, 0x00, 0x14, 0x00, 0x04, 0x00,
  0x00, 0x00, 0x08, 0x00, 0x0c, 0x00, 0x10, 0x00, 0x0e, 0x00, 0x00, 0x00,
  0x10, 0x00, 0x00, 0x00, 0x02, 0x00, 0x00, 0x00, 0x10, 0x00, 0x00, 0x00,
  0x44, 0x00, 0x00, 0x00, 0x01, 0x00, 0x00, 0x00, 0x08, 0x00, 0x00, 0x00,
  0x31, 0x00, 0x00, 0x00, 0x73, 0x65, 0x71, 0x75, 0x65, 0x6e, 0x74, 0x69,
  0x61, 0x6c, 0x2f, 0x63, 0x6f, 0x6e, 0x76, 0x32, 0x64, 0x2f, 0x42, 0x69,
  0x61, 0x73, 0x41, 0x64, 0x64, 0x2f, 0x52, 0x65, 0x61, 0x64, 0x56, 0x61,
  0x72, 0x69, 0x61, 0x62, 0x6c, 0x65, 0x4f, 0x70, 0x2f, 0x72, 0x65, 0x73,
  0x6f, 0x75, 0x72, 0x63, 0x65, 0x00, 0x00, 0x00, 0x90, 0xff, 0xff, 0xff,
  0x14, 0x00, 0x18, 0x00, 0x04, 0x00, 0x00, 0x00, 0x08, 0x00, 0x0c, 0x00,
  0x10, 0x00, 0x00, 0x00, 0x00, 0x00, 0x14, 0x00, 0x14, 0x00, 0x00, 0x00,
  0x14, 0x00, 0x00, 0x00, 0x01, 0x00, 0x00, 0x00, 0x20, 0x00, 0x00, 0x00,
  0x44, 0x00, 0x00, 0x00, 0x2c, 0x00, 0x00, 0x00, 0x04, 0x00, 0x00, 0x00,
  0x01, 0x00, 0x00, 0x00, 0x40, 0x00, 0x00, 0x00, 0x03, 0x00, 0x00, 0x00,
  0x01, 0x00, 0x00, 0x00, 0x0c, 0x00, 0x00, 0x00, 0x63, 0x6f, 0x6e, 0x76,
  0x32, 0x64, 0x5f, 0x69, 0x6e, 0x70, 0x75, 0x74, 0x00, 0x00, 0x00, 0x00,
  0x04, 0x00, 0x00, 0x00, 0xff, 0xff, 0xff, 0xff, 0x40, 0x00, 0x00, 0x00,
  0x03, 0x00, 0x00, 0x00, 0x01, 0x00, 0x00, 0x00, 0xfc, 0xff, 0xff, 0xff,
  0x04, 0x00, 0x04, 0x00, 0x04, 0x00, 0x00, 0x00
  // Paste the data of the char array in `src/model.cc` here
};

unsigned int model_tflite_len = 13052;// Fill the int in `src/model.cc` here