#include "magic_wand_model_data.h"

// We need to keep the data array aligned on some architectures.
#ifdef __has_attribute
#define HAVE_ATTRIBUTE(x) __has_attribute(x)
#else
#define HAVE_ATTRIBUTE(x) 0
#endif
#if HAVE_ATTRIBUTE(aligned) || (defined(__GNUC__) && !defined(__clang__))
#define DATA_ALIGN_ATTRIBUTE __attribute__((aligned(4)))
#else
#define DATA_ALIGN_ATTRIBUTE
#endif

const unsigned char g_magic_wand_model_data[] DATA_ALIGN_ATTRIBUTE = {
  0x1c, 0x00, 0x00, 0x00, 0x54, 0x46, 0x4c, 0x33, 0x14, 0x00, 0x20, 0x00,
  0x04, 0x00, 0x08, 0x00, 0x0c, 0x00, 0x10, 0x00, 0x14, 0x00, 0x00, 0x00,
  0x18, 0x00, 0x1c, 0x00, 0x14, 0x00, 0x00, 0x00, 0x03, 0x00, 0x00, 0x00,
  0x18, 0x00, 0x00, 0x00, 0x2c, 0x00, 0x00, 0x00, 0xd8, 0x00, 0x00, 0x00,
  0x2c, 0x00, 0x00, 0x00, 0x80, 0x00, 0x00, 0x00, 0x78, 0x00, 0x00, 0x00,
  0x05, 0x00, 0x00, 0x00, 0x28, 0x07, 0x00, 0x00, 0x44, 0x06, 0x00, 0x00,
  0xbc, 0x03, 0x00, 0x00, 0xf8, 0x02, 0x00, 0x00, 0xac, 0x01, 0x00, 0x00,
  0x01, 0x00, 0x00, 0x00, 0xd0, 0x00, 0x00, 0x00, 0x14, 0x00, 0x00, 0x00,
  0x98, 0x32, 0x00, 0x00, 0x94, 0x32, 0x00, 0x00, 0x8c, 0x31, 0x00, 0x00,
  0xd8, 0x30, 0x00, 0x00, 0x30, 0x30, 0x00, 0x00, 0xbc, 0x2f, 0x00, 0x00,
  0x50, 0x2f, 0x00, 0x00, 0x00, 0x13, 0x00, 0x00, 0xec, 0x11, 0x00, 0x00,
  0x10, 0x10, 0x00, 0x00, 0xb4, 0x07, 0x00, 0x00, 0x6c, 0x32, 0x00, 0x00,
  0x68, 0x32, 0x00, 0x00, 0x64, 0x32, 0x00, 0x00, 0x60, 0x32, 0x00, 0x00,
  0x5c, 0x32, 0x00, 0x00, 0x58, 0x32, 0x00, 0x00, 0x54, 0x32, 0x00, 0x00,
  0x50, 0x32, 0x00, 0x00, 0x3c, 0x00, 0x00, 0x00, 0x00, 0x00, 0x00, 0x00,
  0x01, 0x00, 0x00, 0x00, 0x0c, 0x00, 0x00, 0x00, 0x08, 0x00, 0x0c, 0x00,
  0x04, 0x00, 0x08, 0x00, 0x08, 0x00, 0x00, 0x00, 0x08, 0x00, 0x00, 0x00,
  0x13, 0x00, 0x00, 0x00, 0x13, 0x00, 0x00, 0x00, 0x6d, 0x69, 0x6e, 0x5f,
  0x72, 0x75, 0x6e, 0x74, 0x69, 0x6d, 0x65, 0x5f, 0x76, 0x65, 0x72, 0x73,
  0x69, 0x6f, 0x6e, 0x00, 0xfa, 0xce, 0xff, 0xff, 0x04, 0x00, 0x00, 0x00,
  0x10, 0x00, 0x00, 0x00, 0x31, 0x2e, 0x35, 0x2e, 0x30, 0x00, 0x00, 0x00,
  0x00, 0x00, 0x00, 0x00, 0x00, 0x00, 0x00, 0x00, 0x0f, 0x00, 0x00, 0x00,
  0x4d, 0x4c, 0x49, 0x52, 0x20, 0x43, 0x6f, 0x6e, 0x76, 0x65, 0x72, 0x74,
  0x65, 0x64, 0x2e, 0x00, 0x00, 0x00, 0x0e, 0x00, 0x18, 0x00, 0x04, 0x00,
  0x08, 0x00, 0x0c, 0x00, 0x10, 0x00, 0x14, 0x00, 0x0e, 0x00, 0x00, 0x00,
  0x14, 0x00, 0x00, 0x00, 0x5c, 0x00, 0x00, 0x00, 0x60, 0x00, 0x00, 0x00,
  0x64, 0x00, 0x00, 0x00, 0x84, 0x00, 0x00, 0x00, 0x12, 0x00, 0x00, 0x00,
  0x58, 0x31, 0x00, 0x00, 0xe8, 0x30, 0x00, 0x00, 0x44, 0x30, 0x00, 0x00,
  0x9c, 0x2f, 0x00, 0x00, 0xf4, 0x2e, 0x00, 0x00, 0x94, 0x2e, 0x00, 0x00,
  0x2c, 0x2e, 0x00, 0x00, 0xd8, 0x11, 0x00, 0x00, 0xbc, 0x10, 0x00, 0x00,
  0xe0, 0x0e, 0x00, 0x00, 0x0c, 0x06, 0x00, 0x00, 0x28, 0x05, 0x00, 0x00,
  0xe8, 0x03, 0x00, 0x00, 0x3c, 0x03, 0x00, 0x00, 0x98, 0x02, 0x00, 0x00,
  0xd4, 0x01, 0x00, 0x00, 0x10, 0x01, 0x00, 0x00, 0x84, 0x00, 0x00, 0x00,
  0x01, 0x00, 0x00, 0x00, 0x00, 0x00, 0x00, 0x00, 0x01, 0x00, 0x00, 0x00,
  0x11, 0x00, 0x00, 0x00, 0x08, 0x00, 0x00, 0x00, 0x74, 0x05, 0x00, 0x00,
  0x94, 0x04, 0x00, 0x00, 0x78, 0x03, 0x00, 0x00, 0xbc, 0x02, 0x00, 0x00,
  0x30, 0x02, 0x00, 0x00, 0x50, 0x01, 0x00, 0x00, 0xa8, 0x00, 0x00, 0x00,
  0x10, 0x00, 0x00, 0x00, 0x04, 0x00, 0x00, 0x00, 0x6d, 0x61, 0x69, 0x6e,
  0x00, 0x00, 0x00, 0x00, 0x7a, 0xff, 0xff, 0xff, 0x00, 0x00, 0x00, 0x09,
  0x04, 0x00, 0x00, 0x00, 0x1c, 0x00, 0x00, 0x00, 0x10, 0x00, 0x00, 0x00,
  0x04, 0x00, 0x00, 0x00, 0xf6, 0xcf, 0xff, 0xff, 0x00, 0x00, 0x80, 0x3f,
  0x01, 0x00, 0x00, 0x00, 0x11, 0x00, 0x00, 0x00, 0x01, 0x00, 0x00, 0x00,
  0x10, 0x00, 0x00, 0x00, 0xa0, 0xfa, 0xff, 0xff, 0x19, 0x00, 0x00, 0x00,
  0x00, 0x00, 0x00, 0x19, 0x01, 0x00, 0x00, 0x00, 0x84, 0xcf, 0xff, 0xff,
  0x14, 0x00, 0x00, 0x00, 0x12, 0x00, 0x00, 0x00, 0x18, 0x00, 0x00, 0x00,
  0x30, 0x00, 0x00, 0x00, 0x20, 0x00, 0x00, 0x00, 0x02, 0x00, 0x00, 0x00,
  0x01, 0x00, 0x00, 0x00, 0x03, 0x00, 0x00, 0x00, 0x08, 0x00, 0x00, 0x00,
  0x49, 0x64, 0x65, 0x6e, 0x74, 0x69, 0x74, 0x79, 0x00, 0x00, 0x00, 0x00,
  0x02, 0x00, 0x00, 0x00, 0xff, 0xff, 0xff, 0xff, 0x03, 0x00, 0x00, 0x00,
  0x68, 0xd0, 0xff, 0xff, 0x00, 0x00, 0x0e, 0x00, 0x18, 0x00, 0x08, 0x00,
  0x0c, 0x00, 0x10, 0x00, 0x07, 0x00, 0x14, 0x00, 0x0e, 0x00, 0x00, 0x00,
  0x00, 0x00, 0x00, 0x08, 0x03, 0x00, 0x00, 0x00, 0x18, 0x00, 0x00, 0x00,
  0x0c, 0x00, 0x00, 0x00, 0x04, 0x00, 0x00, 0x00, 0x84, 0xcf, 0xff, 0xff,
  0x01, 0x00, 0x00, 0x00, 0x10, 0x00, 0x00, 0x00, 0x03, 0x00, 0x00, 0x00,
  0x0f, 0x00, 0x00, 0x00, 0x07, 0x00, 0x00, 0x00, 0x04, 0x00, 0x00, 0x00,
  0x0c, 0xd0, 0xff, 0xff, 0x14, 0x00, 0x00, 0x00, 0x11, 0x00, 0x00, 0x00,
  0x18, 0x00, 0x00, 0x00, 0x5c, 0x00, 0x00, 0x00, 0x4c, 0x00, 0x00, 0x00,
  0x02, 0x00, 0x00, 0x00, 0x01, 0x00, 0x00, 0x00, 0x03, 0x00, 0x00, 0x00,
  0x34, 0x00, 0x00, 0x00, 0x73, 0x65, 0x71, 0x75, 0x65, 0x6e, 0x74, 0x69,
  0x61, 0x6c, 0x2f, 0x64, 0x65, 0x6e, 0x73, 0x65, 0x5f, 0x31, 0x2f, 0x4d,
  0x61, 0x74, 0x4d, 0x75, 0x6c, 0x3b, 0x73, 0x65, 0x71, 0x75, 0x65, 0x6e,
  0x74, 0x69, 0x61, 0x6c, 0x2f, 0x64, 0x65, 0x6e, 0x73, 0x65, 0x5f, 0x31,
  0x2f, 0x42, 0x69, 0x61, 0x73, 0x41, 0x64, 0x64, 0x00, 0x00, 0x00, 0x00,
  0x02, 0x00, 0x00, 0x00, 0xff, 0xff, 0xff, 0xff, 0x03, 0x00, 0x00, 0x00,
  0x0c, 0xd0, 0xff, 0xff, 0xda, 0xfc, 0xff, 0xff, 0x00, 0x00, 0x00, 0x08,
  0x03, 0x00, 0x00, 0x00, 0x24, 0x00, 0x00, 0x00, 0x18, 0x00, 0x00, 0x00,
  0x0c, 0x00, 0x00, 0x00, 0x00, 0x00, 0x06, 0x00, 0x08, 0x00, 0x07, 0x00,
  0x06, 0x00, 0x00, 0x00, 0x00, 0x00, 0x00, 0x01, 0x01, 0x00, 0x00, 0x00,
  0x0f, 0x00, 0x00, 0x00, 0x03, 0x00, 0x00, 0x00, 0x0e, 0x00, 0x00, 0x00,
  0x06, 0x00, 0x00, 0x00, 0x03, 0x00, 0x00, 0x00, 0xe8, 0xfb, 0xff, 0xff,
  0x09, 0x00, 0x00, 0x00, 0x00, 0x00, 0x00, 0x09, 0x01, 0x00, 0x00, 0x00,
  0xcc, 0xd0, 0xff, 0xff, 0x14, 0x00, 0x00, 0x00, 0x10, 0x00, 0x00, 0x00,
  0x18, 0x00, 0x00, 0x00, 0x6c, 0x00, 0x00, 0x00, 0x5c, 0x00, 0x00, 0x00,
  0x02, 0x00, 0x00, 0x00, 0x01, 0x00, 0x00, 0x00, 0x10, 0x00, 0x00, 0x00,
  0x46, 0x00, 0x00, 0x00, 0x73, 0x65, 0x71, 0x75, 0x65, 0x6e, 0x74, 0x69,
  0x61, 0x6c, 0x2f, 0x64, 0x65, 0x6e, 0x73, 0x65, 0x2f, 0x4d, 0x61, 0x74,
  0x4d, 0x75, 0x6c, 0x3b, 0x73, 0x65, 0x71, 0x75, 0x65, 0x6e, 0x74, 0x69,
  0x61, 0x6c, 0x2f, 0x64, 0x65, 0x6e, 0x73, 0x65, 0x2f, 0x52, 0x65, 0x6c,
  0x75, 0x3b, 0x73, 0x65, 0x71, 0x75, 0x65, 0x6e, 0x74, 0x69, 0x61, 0x6c,
  0x2f, 0x64, 0x65, 0x6e, 0x73, 0x65, 0x2f, 0x42, 0x69, 0x61, 0x73, 0x41,
  0x64, 0x64, 0x00, 0x00, 0x02, 0x00, 0x00, 0x00, 0xff, 0xff, 0xff, 0xff,
  0x10, 0x00, 0x00, 0x00, 0xec, 0xd1, 0xff, 0xff, 0x00, 0x00, 0x0a, 0x00,
  0x10, 0x00, 0x04, 0x00, 0x08, 0x00, 0x0c, 0x00, 0x0a, 0x00, 0x00, 0x00,
  0x02, 0x00, 0x00, 0x00, 0x10, 0x00, 0x00, 0x00, 0x04, 0x00, 0x00, 0x00,
  0x01, 0x00, 0x00, 0x00, 0x0e, 0x00, 0x00, 0x00, 0x02, 0x00, 0x00, 0x00,
  0x0d, 0x00, 0x00, 0x00, 0x05, 0x00, 0x00, 0x00, 0xa8, 0xfc, 0xff, 0xff,
  0x16, 0x00, 0x00, 0x00, 0x00, 0x00, 0x00, 0x16, 0x01, 0x00, 0x00, 0x00,
  0x8c, 0xd1, 0xff, 0xff, 0x14, 0x00, 0x00, 0x00, 0x0f, 0x00, 0x00, 0x00,
  0x18, 0x00, 0x00, 0x00, 0x40, 0x00, 0x00, 0x00, 0x30, 0x00, 0x00, 0x00,
  0x02, 0x00, 0x00, 0x00, 0x01, 0x00, 0x00, 0x00, 0x70, 0x00, 0x00, 0x00,
  0x1a, 0x00, 0x00, 0x00, 0x73, 0x65, 0x71, 0x75, 0x65, 0x6e, 0x74, 0x69,
  0x61, 0x6c, 0x2f, 0x66, 0x6c, 0x61, 0x74, 0x74, 0x65, 0x6e, 0x2f, 0x52,
  0x65, 0x73, 0x68, 0x61, 0x70, 0x65, 0x00, 0x00, 0x02, 0x00, 0x00, 0x00,
  0xff, 0xff, 0xff, 0xff, 0x70, 0x00, 0x00, 0x00, 0x70, 0xd1, 0xff, 0xff,
  0x3e, 0xfe, 0xff, 0xff, 0x00, 0x00, 0x00, 0x05, 0x01, 0x00, 0x00, 0x00,
  0x38, 0x00, 0x00, 0x00, 0x2c, 0x00, 0x00, 0x00, 0x14, 0x00, 0x00, 0x00,
  0x00, 0x00, 0x0e, 0x00, 0x14, 0x00, 0x00, 0x00, 0x10, 0x00, 0x0c, 0x00,
  0x08, 0x00, 0x04, 0x00, 0x0e, 0x00, 0x00, 0x00, 0x03, 0x00, 0x00, 0x00,
  0x01, 0x00, 0x00, 0x00, 0x03, 0x00, 0x00, 0x00, 0x01, 0x00, 0x00, 0x00,
  0x01, 0x00, 0x00, 0x00, 0x0d, 0x00, 0x00, 0x00, 0x01, 0x00, 0x00, 0x00,
  0x0c, 0x00, 0x00, 0x00, 0x2c, 0xd2, 0xff, 0xff, 0x14, 0x00, 0x00, 0x00,
  0x0e, 0x00, 0x00, 0x00, 0x20, 0x00, 0x00, 0x00, 0x58, 0x00, 0x00, 0x00,
  0x40, 0x00, 0x00, 0x00, 0x04, 0x00, 0x00, 0x00, 0x01, 0x00, 0x00, 0x00,
  0x07, 0x00, 0x00, 0x00, 0x01, 0x00, 0x00, 0x00, 0x10, 0x00, 0x00, 0x00,
  0x22, 0x00, 0x00, 0x00, 0x73, 0x65, 0x71, 0x75, 0x65, 0x6e, 0x74, 0x69,
  0x61, 0x6c, 0x2f, 0x6d, 0x61, 0x78, 0x5f, 0x70, 0x6f, 0x6f, 0x6c, 0x69,
  0x6e, 0x67, 0x32, 0x64, 0x5f, 0x31, 0x2f, 0x4d, 0x61, 0x78, 0x50, 0x6f,
  0x6f, 0x6c, 0x00, 0x00, 0x04, 0x00, 0x00, 0x00, 0xff, 0xff, 0xff, 0xff,
  0x07, 0x00, 0x00, 0x00, 0x01, 0x00, 0x00, 0x00, 0x10, 0x00, 0x00, 0x00,
  0x28, 0xd2, 0xff, 0xff, 0x1a, 0xfe, 0xff, 0xff, 0x00, 0x00, 0x00, 0x01,
  0x24, 0x00, 0x00, 0x00, 0x18, 0x00, 0x00, 0x00, 0x04, 0x00, 0x00, 0x00,
  0x0c, 0xfe, 0xff, 0xff, 0x01, 0x00, 0x00, 0x00, 0x01, 0x00, 0x00, 0x00,
  0x00, 0x00, 0x00, 0x01, 0x01, 0x00, 0x00, 0x00, 0x0c, 0x00, 0x00, 0x00,
  0x03, 0x00, 0x00, 0x00, 0x0b, 0x00, 0x00, 0x00, 0x09, 0x00, 0x00, 0x00,
  0x02, 0x00, 0x00, 0x00, 0xd4, 0xd2, 0xff, 0xff, 0x14, 0x00, 0x00, 0x00,
  0x0d, 0x00, 0x00, 0x00, 0x20, 0x00, 0x00, 0x00, 0xb8, 0x00, 0x00, 0x00,
  0xa0, 0x00, 0x00, 0x00, 0x04, 0x00, 0x00, 0x00, 0x01, 0x00, 0x00, 0x00,
  0x15, 0x00, 0x00, 0x00, 0x01, 0x00, 0x00, 0x00, 0x10, 0x00, 0x00, 0x00,
  0x83, 0x00, 0x00, 0x00, 0x73, 0x65, 0x71, 0x75, 0x65, 0x6e, 0x74, 0x69,
  0x61, 0x6c, 0x2f, 0x63, 0x6f, 0x6e, 0x76, 0x32, 0x64, 0x5f, 0x31, 0x2f,
  0x52, 0x65, 0x6c, 0x75, 0x3b, 0x73, 0x65, 0x71, 0x75, 0x65, 0x6e, 0x74,
  0x69, 0x61, 0x6c, 0x2f, 0x63, 0x6f, 0x6e, 0x76, 0x32, 0x64, 0x5f, 0x31,
  0x2f, 0x42, 0x69, 0x61, 0x73, 0x41, 0x64, 0x64, 0x3b, 0x73, 0x65, 0x71,
  0x75, 0x65, 0x6e, 0x74, 0x69, 0x61, 0x6c, 0x2f, 0x63, 0x6f, 0x6e, 0x76,
  0x32, 0x64, 0x5f, 0x31, 0x2f, 0x43, 0x6f, 0x6e, 0x76, 0x32, 0x44, 0x3b,
  0x73, 0x65, 0x71, 0x75, 0x65, 0x6e, 0x74, 0x69, 0x61, 0x6c, 0x2f, 0x63,
  0x6f, 0x6e, 0x76, 0x32, 0x64, 0x5f, 0x31, 0x2f, 0x42, 0x69, 0x61, 0x73,
  0x41, 0x64, 0x64, 0x2f, 0x52, 0x65, 0x61, 0x64, 0x56, 0x61, 0x72, 0x69,
  0x61, 0x62, 0x6c, 0x65, 0x4f, 0x70, 0x2f, 0x72, 0x65, 0x73, 0x6f, 0x75,
  0x72, 0x63, 0x65, 0x00, 0x04, 0x00, 0x00, 0x00, 0xff, 0xff, 0xff, 0xff,
  0x15, 0x00, 0x00, 0x00, 0x01, 0x00, 0x00, 0x00, 0x10, 0x00, 0x00, 0x00,
  0x40, 0xd4, 0xff, 0xff, 0x00, 0x00, 0x0e, 0x00, 0x1a, 0x00, 0x08, 0x00,
  0x0c, 0x00, 0x10, 0x00, 0x07, 0x00, 0x14, 0x00, 0x0e, 0x00, 0x00, 0x00,
  0x00, 0x00, 0x00, 0x05, 0x01, 0x00, 0x00, 0x00, 0x3c, 0x00, 0x00, 0x00,
  0x30, 0x00, 0x00, 0x00, 0x14, 0x00, 0x00, 0x00, 0x00, 0x00, 0x0e, 0x00,
  0x18, 0x00, 0x17, 0x00, 0x10, 0x00, 0x0c, 0x00, 0x08, 0x00, 0x04, 0x00,
  0x0e, 0x00, 0x00, 0x00, 0x03, 0x00, 0x00, 0x00, 0x03, 0x00, 0x00, 0x00,
  0x03, 0x00, 0x00, 0x00, 0x03, 0x00, 0x00, 0x00, 0x00, 0x00, 0x00, 0x01,
  0x01, 0x00, 0x00, 0x00, 0x0b, 0x00, 0x00, 0x00, 0x01, 0x00, 0x00, 0x00,
  0x0a, 0x00, 0x00, 0x00, 0x2c, 0xff, 0xff, 0xff, 0x11, 0x00, 0x00, 0x00,
  0x00, 0x00, 0x00, 0x11, 0x01, 0x00, 0x00, 0x00, 0x10, 0xd4, 0xff, 0xff,
  0x14, 0x00, 0x00, 0x00, 0x0c, 0x00, 0x00, 0x00, 0x20, 0x00, 0x00, 0x00,
  0x58, 0x00, 0x00, 0x00, 0x40, 0x00, 0x00, 0x00, 0x04, 0x00, 0x00, 0x00,
  0x01, 0x00, 0x00, 0x00, 0x15, 0x00, 0x00, 0x00, 0x01, 0x00, 0x00, 0x00,
  0x08, 0x00, 0x00, 0x00, 0x20, 0x00, 0x00, 0x00, 0x73, 0x65, 0x71, 0x75,
  0x65, 0x6e, 0x74, 0x69, 0x61, 0x6c, 0x2f, 0x6d, 0x61, 0x78, 0x5f, 0x70,
  0x6f, 0x6f, 0x6c, 0x69, 0x6e, 0x67, 0x32, 0x64, 0x2f, 0x4d, 0x61, 0x78,
  0x50, 0x6f, 0x6f, 0x6c, 0x00, 0x00, 0x00, 0x00, 0x04, 0x00, 0x00, 0x00,
  0xff, 0xff, 0xff, 0xff, 0x15, 0x00, 0x00, 0x00, 0x01, 0x00, 0x00, 0x00,
  0x08, 0x00, 0x00, 0x00, 0x1c, 0xd5, 0xff, 0xff, 0x00, 0x00, 0x0e, 0x00,
  0x14, 0x00, 0x00, 0x00, 0x08, 0x00, 0x0c, 0x00, 0x07, 0x00, 0x10, 0x00,
  0x0e, 0x00, 0x00, 0x00, 0x00, 0x00, 0x00, 0x01, 0x30, 0x00, 0x00, 0x00,
  0x24, 0x00, 0x00, 0x00, 0x10, 0x00, 0x00, 0x00, 0x0c, 0x00, 0x10, 0x00,
  0x00, 0x00, 0x04, 0x00, 0x08, 0x00, 0x0f, 0x00, 0x0c, 0x00, 0x00, 0x00,
  0x01, 0x00, 0x00, 0x00, 0x01, 0x00, 0x00, 0x00, 0x00, 0x00, 0x00, 0x01,
  0x01, 0x00, 0x00, 0x00, 0x0a, 0x00, 0x00, 0x00, 0x03, 0x00, 0x00, 0x00,
  0x00, 0x00, 0x00, 0x00, 0x08, 0x00, 0x00, 0x00, 0x01, 0x00, 0x00, 0x00,
  0x0c, 0x00, 0x10, 0x00, 0x0b, 0x00, 0x00, 0x00, 0x0c, 0x00, 0x04, 0x00,
  0x0c, 0x00, 0x00, 0x00, 0x03, 0x00, 0x00, 0x00, 0x00, 0x00, 0x00, 0x03,
  0x01, 0x00, 0x00, 0x00, 0xf0, 0xd4, 0xff, 0xff, 0x14, 0x00, 0x00, 0x00,
  0x0b, 0x00, 0x00, 0x00, 0x20, 0x00, 0x00, 0x00, 0xb0, 0x00, 0x00, 0x00,
  0x98, 0x00, 0x00, 0x00, 0x04, 0x00, 0x00, 0x00, 0x01, 0x00, 0x00, 0x00,
  0x40, 0x00, 0x00, 0x00, 0x03, 0x00, 0x00, 0x00, 0x08, 0x00, 0x00, 0x00,
  0x7b, 0x00, 0x00, 0x00, 0x73, 0x65, 0x71, 0x75, 0x65, 0x6e, 0x74, 0x69,
  0x61, 0x6c, 0x2f, 0x63, 0x6f, 0x6e, 0x76, 0x32, 0x64, 0x2f, 0x52, 0x65,
  0x6c, 0x75, 0x3b, 0x73, 0x65, 0x71, 0x75, 0x65, 0x6e, 0x74, 0x69, 0x61,
  0x6c, 0x2f, 0x63, 0x6f, 0x6e, 0x76, 0x32, 0x64, 0x2f, 0x42, 0x69, 0x61,
  0x73, 0x41, 0x64, 0x64, 0x3b, 0x73, 0x65, 0x71, 0x75, 0x65, 0x6e, 0x74,
  0x69, 0x61, 0x6c, 0x2f, 0x63, 0x6f, 0x6e, 0x76, 0x32, 0x64, 0x2f, 0x43,
  0x6f, 0x6e, 0x76, 0x32, 0x44, 0x3b, 0x73, 0x65, 0x71, 0x75, 0x65, 0x6e,
  0x74, 0x69, 0x61, 0x6c, 0x2f, 0x63, 0x6f, 0x6e, 0x76, 0x32, 0x64, 0x2f,
  0x42, 0x69, 0x61, 0x73, 0x41, 0x64, 0x64, 0x2f, 0x52, 0x65, 0x61, 0x64,
  0x56, 0x61, 0x72, 0x69, 0x61, 0x62, 0x6c, 0x65, 0x4f, 0x70, 0x2f, 0x72,
  0x65, 0x73, 0x6f, 0x75, 0x72, 0x63, 0x65, 0x00, 0x04, 0x00, 0x00, 0x00,
  0xff, 0xff, 0xff, 0xff, 0x40, 0x00, 0x00, 0x00, 0x03, 0x00, 0x00, 0x00,
  0x08, 0x00, 0x00, 0x00, 0x44, 0xd5, 0xff, 0xff, 0x4e, 0xd6, 0xff, 0xff,
  0x04, 0x00, 0x00, 0x00, 0x00, 0x08, 0x00, 0x00, 0x11, 0x43, 0x56, 0xbc,
  0x11, 0x22, 0x19, 0x3e, 0x53, 0x6c, 0x02, 0xbe, 0x6e, 0xfc, 0x9c, 0x3c,
  0xa1, 0xc1, 0xa1, 0xbd, 0x74, 0x75, 0xc3, 0x3d, 0xc9, 0x16, 0xbc, 0xbd,
  0x24, 0x68, 0x92, 0x3d, 0xab, 0x46, 0x2b, 0xbe, 0x6f, 0x1f, 0x80, 0xbe,
  0xa1, 0xa3, 0xd5, 0xbd, 0x2c, 0xed, 0x18, 0x3c, 0x45, 0xf4, 0x62, 0x3c,
  0x37, 0x74, 0xf3, 0x3d, 0x6c, 0x35, 0x4f, 0xbd, 0x33, 0xbb, 0x2e, 0xbe,
  0x86, 0xc8, 0xcb, 0x3d, 0x5b, 0xd7, 0x10, 0x3e, 0x74, 0x5b, 0xba, 0xbc,
  0x75, 0xd0, 0x13, 0x3e, 0x53, 0x9b, 0x24, 0xbd, 0x8c, 0xab, 0xf0, 0x3d,
  0x42, 0x68, 0x63, 0xbd, 0x3f, 0xff, 0xa2, 0x3c, 0xfb, 0xa9, 0xef, 0x3d,
  0x4c, 0xc0, 0xf3, 0xbd, 0xbf, 0x83, 0x5f, 0x3d, 0x75, 0x51, 0x77, 0x3e,
  0xab, 0x2b, 0xca, 0xbc, 0x1c, 0xc3, 0x9d, 0x3c, 0xc9, 0x45, 0x60, 0x3d,
  0x9d, 0x69, 0xe0, 0xbd, 0x3a, 0x17, 0x38, 0xbc, 0x71, 0x0e, 0xf1, 0x3b,
  0xf5, 0x81, 0x47, 0xbe, 0x92, 0xbe, 0x90, 0xbe, 0x5d, 0xe8, 0x14, 0xbe,
  0x6e, 0x66, 0x0c, 0x3c, 0x82, 0xe5, 0x20, 0xbd, 0x43, 0x34, 0xa2, 0xbd,
  0x69, 0x1b, 0x41, 0xbe, 0xc3, 0x8b, 0xfe, 0xbc, 0x4d, 0x0d, 0x42, 0x3e,
  0xb1, 0x4e, 0xbd, 0xbd, 0xd6, 0xe4, 0x45, 0xbe, 0x89, 0xa8, 0xe3, 0xbc,
  0x0b, 0xba, 0x71, 0xbc, 0xc2, 0x95, 0x8c, 0xbd, 0x34, 0xd7, 0xb4, 0xbe,
  0x9a, 0x43, 0xc4, 0xbd, 0x4c, 0x4f, 0x3c, 0x3d, 0xa7, 0xfe, 0x37, 0x3f,
  0xab, 0x30, 0xa7, 0x3b, 0x89, 0xf6, 0x71, 0xbc, 0xa8, 0x4a, 0xb5, 0x39,
  0x6e, 0x5b, 0x26, 0xbe, 0x6b, 0x2f, 0x7f, 0x3e, 0x64, 0x6d, 0x99, 0xbe,
  0xad, 0xb1, 0x61, 0x3e, 0xa8, 0xd1, 0xb7, 0x3c, 0x3f, 0x8d, 0x46, 0xbc,
  0xc7, 0xf6, 0x86, 0xbe, 0x00, 0x69, 0x88, 0xbc, 0xe8, 0x19, 0x3c, 0xbd,
  0x2e, 0x92, 0x71, 0x3e, 0x46, 0x0d, 0xb8, 0xbc, 0x89, 0x0d, 0x37, 0xbe,
  0x87, 0xa3, 0x11, 0xbe, 0x17, 0xc2, 0x86, 0x3e, 0xf8, 0x8f, 0xb2, 0xbe,
  0xc8, 0x73, 0xaa, 0xbd, 0xc2, 0x1c, 0x0e, 0x3e, 0xae, 0xd1, 0x3e, 0xbe,
  0x01, 0xd8, 0x2e, 0xbd, 0xe6, 0x87, 0xd6, 0xbd, 0x80, 0x70, 0x8f, 0xbe,
  0x8a, 0x14, 0x41, 0x3c, 0x4b, 0x3e, 0x80, 0xbe, 0x75, 0x57, 0x51, 0xbd,
  0xf3, 0xd0, 0x4f, 0xbe, 0xc8, 0x5b, 0xc1, 0xbc, 0x43, 0x67, 0x2f, 0xbd,
  0x95, 0x8b, 0x90, 0xbe, 0x0c, 0xb0, 0xbe, 0xbe, 0x12, 0xc2, 0xea, 0xbc,
  0xff, 0x2a, 0x2a, 0xbe, 0x2a, 0x11, 0xd6, 0xbd, 0xdc, 0xf4, 0x27, 0x3e,
  0xaf, 0xd6, 0x1b, 0xbe, 0x19, 0x16, 0x76, 0x3e, 0x3b, 0x4f, 0x46, 0x3d,
  0x2c, 0x23, 0x2b, 0xbe, 0x59, 0x30, 0xb8, 0xbd, 0x7a, 0x8d, 0x80, 0x3e,
  0x4b, 0xec, 0xa1, 0xbd, 0x70, 0x05, 0x12, 0x3e, 0x8f, 0x10, 0x23, 0xbb,
  0xd1, 0x7c, 0xd0, 0xbe, 0xd7, 0x72, 0x54, 0xbe, 0x4d, 0x1a, 0x07, 0xbe,
  0x53, 0x09, 0xb2, 0xbc, 0xf4, 0x50, 0xff, 0xbd, 0xb8, 0x26, 0x21, 0xbd,
  0xc6, 0xde, 0xdf, 0xbe, 0xd7, 0xa8, 0xb0, 0xbd, 0x05, 0xdb, 0x35, 0xbe,
  0xed, 0x25, 0xfa, 0x3e, 0x91, 0x21, 0x07, 0xbd, 0x5f, 0x25, 0x85, 0x3d,
  0xcf, 0x8f, 0x3b, 0xbe, 0x4d, 0x38, 0x24, 0x3c, 0x7e, 0x13, 0x0f, 0xbe,
  0x74, 0xfa, 0x52, 0x3e, 0x7d, 0x30, 0xcf, 0x3e, 0x05, 0x41, 0x20, 0xbc,
  0xde, 0xb8, 0xd8, 0xbe, 0xfa, 0xce, 0x99, 0xbd, 0xe8, 0xa2, 0xd8, 0x3d,
  0x0a, 0xac, 0xa3, 0xbc, 0x8e, 0x16, 0x93, 0x3e, 0x3e, 0x07, 0x00, 0x3e,
  0xf6, 0x11, 0x96, 0xbe, 0x56, 0x44, 0x85, 0xbd, 0x81, 0x46, 0x0d, 0xbe,
  0xd9, 0x4e, 0x0f, 0xbe, 0xd7, 0xef, 0xbd, 0xbd, 0xcb, 0xc1, 0xdb, 0x3c,
  0x53, 0xd4, 0xd4, 0xbd, 0x7f, 0x2a, 0xad, 0xbd, 0xdb, 0x3b, 0x94, 0xbd,
  0x1a, 0xd1, 0x71, 0xbe, 0xbd, 0x6e, 0xa1, 0xbc, 0x82, 0xa3, 0x8d, 0xbd,
  0xad, 0x7d, 0xa7, 0xbe, 0x12, 0xc2, 0x4e, 0xbe, 0xe4, 0xd2, 0x11, 0xbd,
  0x91, 0x32, 0x22, 0xbe, 0xf9, 0x41, 0xa8, 0x3d, 0x4f, 0xbd, 0xa9, 0xbd,
  0xdb, 0x44, 0x05, 0xbd, 0x7a, 0x75, 0x33, 0xbe, 0x03, 0xc4, 0xf9, 0xbb,
  0xf2, 0x19, 0xcf, 0xbe, 0xaa, 0xaa, 0x4d, 0xbe, 0x63, 0x04, 0xac, 0xbd,
  0x3a, 0x70, 0x7c, 0xbe, 0xb4, 0x73, 0xa3, 0xbc, 0x4e, 0xb8, 0x9f, 0xbe,
  0x13, 0x4d, 0x08, 0x3c, 0xb2, 0xd7, 0xc7, 0x3c, 0x60, 0xc4, 0xea, 0xbe,
  0x99, 0xfc, 0x08, 0xbe, 0x52, 0x14, 0x43, 0xbe, 0x14, 0xc6, 0x62, 0xbe,
  0x63, 0xf0, 0x52, 0xbe, 0x21, 0x9d, 0xfd, 0xbc, 0x74, 0xfc, 0xb5, 0xbd,
  0x3e, 0x81, 0x06, 0xbe, 0x65, 0x00, 0xd0, 0xbd, 0xc9, 0x68, 0x69, 0xbe,
  0x62, 0xb6, 0x2b, 0xbe, 0x48, 0xa8, 0x4e, 0xbd, 0x9a, 0x34, 0x38, 0x3f,
  0x75, 0x84, 0xc8, 0xbb, 0xf2, 0x21, 0xe9, 0xbd, 0xbc, 0x9e, 0xa1, 0x3d,
  0xf2, 0x41, 0x8e, 0xbc, 0xe7, 0x02, 0x4c, 0xbd, 0x3c, 0x94, 0x56, 0xbe,
  0x02, 0xa0, 0x85, 0xbe, 0xc6, 0xd6, 0xaa, 0x3d, 0xd7, 0x95, 0x27, 0x3e,
  0x55, 0x5c, 0x36, 0x3d, 0xf1, 0xab, 0xf8, 0xbc, 0xf4, 0x48, 0x97, 0xbd,
  0xd7, 0x41, 0xdb, 0xbe, 0xe9, 0x4c, 0xdd, 0xbd, 0xd1, 0xea, 0x4f, 0xbd,
  0xa8, 0x0a, 0x26, 0xbe, 0xa0, 0x9d, 0x3a, 0xbe, 0x9e, 0x2d, 0x49, 0xbe,
  0x60, 0xf3, 0xed, 0xbc, 0x32, 0x78, 0x54, 0xba, 0x16, 0x18, 0x77, 0x3d,
  0xe0, 0xd7, 0xb4, 0xbd, 0x3e, 0xb9, 0x5b, 0xbe, 0x50, 0x8d, 0x0c, 0xbf,
  0x70, 0x1e, 0x8d, 0xbd, 0x57, 0x0f, 0x05, 0xbe, 0x4b, 0x67, 0x53, 0x3e,
  0xd6, 0x9b, 0x1f, 0x3d, 0x9a, 0xac, 0x63, 0xbe, 0xcf, 0x06, 0x0b, 0xbd,
  0xc2, 0x9d, 0xfa, 0x3c, 0xc4, 0x02, 0x88, 0x3e, 0x15, 0x61, 0x88, 0xbe,
  0xeb, 0x84, 0x3d, 0x3e, 0x8a, 0x42, 0x11, 0xbd, 0x97, 0x15, 0xbb, 0xbd,
  0x63, 0x8c, 0x32, 0xbe, 0xde, 0x4a, 0x1b, 0x3e, 0x6e, 0x67, 0x85, 0x3d,
  0x41, 0x6f, 0xa0, 0xb9, 0x84, 0x8c, 0x45, 0xbd, 0xa5, 0xef, 0x59, 0x3e,
  0xa4, 0xc2, 0x1d, 0x3d, 0x1b, 0x38, 0xed, 0xbd, 0xe3, 0x5d, 0x06, 0xbc,
  0x1f, 0x09, 0x86, 0x3e, 0x22, 0xb3, 0xa5, 0x3d, 0x95, 0xcc, 0x6e, 0xbe,
  0xfc, 0x25, 0x95, 0xbe, 0x57, 0x0f, 0xbf, 0xbc, 0x20, 0xbc, 0xd2, 0x3d,
  0x22, 0xf4, 0x77, 0xbd, 0xa2, 0x2d, 0x1f, 0x3f, 0x42, 0x14, 0x4b, 0x3c,
  0xbd, 0x0e, 0xb2, 0xbd, 0xd9, 0xb0, 0xaa, 0xbd, 0xf4, 0x0b, 0x0e, 0x3d,
  0x8e, 0xc5, 0x8d, 0xbd, 0x4b, 0xb4, 0x25, 0x3d, 0x09, 0x82, 0xf3, 0xbd,
  0x8f, 0x42, 0x81, 0xbe, 0x9a, 0xb5, 0xbd, 0x3c, 0x55, 0x91, 0xe7, 0xbd,
  0x87, 0x86, 0x1e, 0xbe, 0x33, 0xa2, 0x38, 0xbe, 0xee, 0x94, 0x64, 0x3e,
  0x2b, 0xeb, 0xc0, 0xbe, 0x87, 0x97, 0xcf, 0xbe, 0x22, 0x26, 0xf6, 0x3b,
  0xbd, 0x1a, 0x84, 0x3e, 0xd8, 0xe8, 0xca, 0xbe, 0x27, 0xe6, 0x26, 0xbe,
  0xb3, 0xe0, 0xcf, 0x3e, 0x33, 0x4c, 0x00, 0x3e, 0xf9, 0xa6, 0x91, 0xbe,
  0x67, 0xe6, 0xf3, 0xbe, 0x95, 0x6e, 0x62, 0xbe, 0x63, 0xcd, 0xdf, 0x3d,
  0x86, 0x37, 0x16, 0xbf, 0xa1, 0xf0, 0x69, 0xbe, 0xcd, 0xe9, 0xdb, 0xbe,
  0x9c, 0xf0, 0xcf, 0x3e, 0xa2, 0x6d, 0x90, 0xbe, 0xc3, 0x7a, 0x67, 0xbf,
  0xb7, 0xc9, 0x95, 0xbe, 0x85, 0xbf, 0x24, 0x3d, 0x2d, 0x32, 0x4a, 0xbe,
  0x0a, 0xc4, 0xf4, 0xbd, 0xc9, 0x71, 0xc9, 0xbe, 0x42, 0x5b, 0xc2, 0x3e,
  0x98, 0x74, 0xc6, 0xbe, 0xd1, 0x77, 0x52, 0xbf, 0xbb, 0x17, 0x62, 0xbd,
  0xb6, 0x1d, 0x1a, 0x3d, 0x0f, 0x3a, 0x66, 0x3e, 0xca, 0xe4, 0xa9, 0x3e,
  0x09, 0x88, 0x0d, 0x3e, 0x0d, 0x63, 0xdd, 0xbd, 0xb5, 0x82, 0x73, 0xbe,
  0x82, 0x83, 0xa4, 0xbd, 0xe5, 0x8c, 0xd4, 0x3e, 0x69, 0xf5, 0x23, 0x3e,
  0x6f, 0x22, 0x54, 0x3e, 0x88, 0xa7, 0x55, 0xbe, 0xdf, 0xdb, 0x9d, 0x3e,
  0x72, 0x5c, 0xc6, 0xbc, 0x4b, 0xf2, 0x97, 0xbe, 0x8a, 0x38, 0xbe, 0xbc,
  0xb0, 0xd0, 0x92, 0x3c, 0xc4, 0x1c, 0x9f, 0xbd, 0x90, 0xbf, 0x32, 0x3e,
  0xb8, 0xa3, 0x4d, 0x3e, 0x82, 0x1d, 0x80, 0xbd, 0x95, 0xb3, 0xec, 0xbc,
  0x4c, 0xe2, 0xeb, 0xbe, 0x2c, 0x4e, 0x2e, 0xbd, 0xfe, 0x04, 0x31, 0xbe,
  0x6b, 0xda, 0xf4, 0xbd, 0x6c, 0x97, 0xbb, 0x3d, 0x20, 0xe0, 0x0b, 0x3d,
  0x57, 0xd0, 0x61, 0x3d, 0x00, 0xad, 0x31, 0xbd, 0x32, 0xe8, 0xad, 0xbe,
  0xb1, 0x88, 0xf4, 0xbc, 0xf5, 0x57, 0x90, 0xbc, 0xb3, 0x97, 0x31, 0xbe,
  0xdf, 0x30, 0xec, 0xbd, 0x96, 0x0f, 0x12, 0xbe, 0x73, 0xc8, 0xb7, 0xbe,
  0xf5, 0xac, 0x3a, 0xbe, 0xa3, 0x7b, 0x4d, 0x3d, 0x0a, 0xe0, 0xd5, 0xbe,
  0xa4, 0xf6, 0x89, 0xbe, 0xda, 0x93, 0x88, 0xbd, 0xf8, 0xf1, 0xab, 0x3e,
  0xe9, 0x2e, 0x10, 0x3d, 0xc1, 0x66, 0x1c, 0xbd, 0xee, 0x97, 0xec, 0xbd,
  0x14, 0x8a, 0x83, 0x3d, 0x19, 0x42, 0x36, 0xbe, 0x5f, 0xa1, 0x90, 0x3e,
  0x4d, 0xf2, 0xb5, 0xbd, 0xcc, 0xe1, 0x71, 0x3e, 0x4f, 0x1b, 0x60, 0x3e,
  0xef, 0x36, 0xa7, 0xbd, 0xf4, 0x0c, 0x2c, 0xbd, 0x78, 0x83, 0x16, 0xbe,
  0xf2, 0x66, 0x32, 0xbd, 0xe3, 0xa5, 0x67, 0x3d, 0x7f, 0xdc, 0x6e, 0x3e,
  0x86, 0xd9, 0xdb, 0x3c, 0x0c, 0xbe, 0x13, 0x3e, 0xd2, 0xa3, 0x5b, 0x3d,
  0x58, 0x81, 0x38, 0xbd, 0x8f, 0x17, 0xc6, 0xbd, 0xa1, 0x09, 0xe1, 0x3c,
  0xed, 0xbc, 0xdf, 0x3d, 0x66, 0x8e, 0x5e, 0x3d, 0x13, 0xca, 0x26, 0xbe,
  0x9b, 0x35, 0xe9, 0x3e, 0x62, 0x9e, 0x7b, 0xbd, 0x30, 0xa6, 0xa9, 0x3e,
  0x72, 0x42, 0xa0, 0xbe, 0xb3, 0xde, 0x52, 0xbd, 0xfb, 0xce, 0x40, 0xbd,
  0x36, 0x0a, 0x3e, 0x3c, 0x5d, 0x1d, 0xa3, 0xbd, 0xcd, 0x1a, 0x05, 0xbf,
  0xf1, 0xc6, 0xb4, 0xbe, 0x34, 0x66, 0x46, 0x3d, 0x34, 0x55, 0xb0, 0xbe,
  0x18, 0x2a, 0x5e, 0xbd, 0xad, 0x00, 0x90, 0x3d, 0xa3, 0x75, 0x10, 0x3d,
  0x8f, 0x6d, 0x80, 0x3e, 0x02, 0x4a, 0x5f, 0xbd, 0x25, 0xed, 0x5d, 0xbe,
  0x52, 0xa3, 0xe8, 0x3d, 0xd8, 0x49, 0x31, 0xbe, 0x87, 0x32, 0x36, 0xbe,
  0x5e, 0x5e, 0x0f, 0x3e, 0x18, 0x82, 0x4e, 0x3e, 0xea, 0x9b, 0xd1, 0x3e,
  0x4f, 0x22, 0x3b, 0x3e, 0x78, 0x5b, 0xed, 0x3d, 0x9e, 0x80, 0xa6, 0x3d,
  0x46, 0x3b, 0x0b, 0x3d, 0x4e, 0x99, 0xec, 0xbd, 0x53, 0xd3, 0x8c, 0x3e,
  0xf2, 0x6f, 0x30, 0xbe, 0x04, 0x5f, 0x15, 0xbd, 0xd3, 0x80, 0x58, 0xbe,
  0x0b, 0x56, 0x8f, 0xbe, 0x48, 0xa6, 0xe3, 0xbd, 0x7d, 0xfc, 0xb4, 0xba,
  0x0a, 0x50, 0xcf, 0xbd, 0x79, 0x05, 0xf2, 0xbe, 0x0b, 0x5f, 0xa6, 0xbe,
  0x8d, 0x1b, 0xf7, 0xbd, 0xc1, 0xa2, 0x9f, 0x3e, 0xe3, 0x3c, 0x7e, 0xbd,
  0xff, 0xd0, 0x41, 0xbe, 0x1d, 0x9f, 0x43, 0xbd, 0x6c, 0x5a, 0x90, 0xbd,
  0xb5, 0x8d, 0xa7, 0xbe, 0xa5, 0xc2, 0xaf, 0x3e, 0x65, 0xef, 0x89, 0xbe,
  0xd1, 0xf8, 0x8c, 0x3e, 0x89, 0x36, 0x1e, 0x3f, 0xd3, 0x00, 0xb8, 0x3e,
  0x9d, 0xe3, 0xff, 0xbd, 0xae, 0x35, 0x1a, 0xbd, 0xe6, 0x3a, 0x2e, 0xbd,
  0x7b, 0x42, 0xc7, 0x3e, 0x1d, 0x4e, 0x87, 0x3d, 0x83, 0x65, 0x06, 0xbf,
  0x78, 0x79, 0xb8, 0xbe, 0x8e, 0x5a, 0x87, 0x3e, 0x1c, 0xe5, 0xa4, 0x3e,
  0x27, 0x7f, 0x12, 0xbd, 0xd4, 0x13, 0x9b, 0x3e, 0x2d, 0xc0, 0x02, 0x3e,
  0x46, 0xfe, 0x86, 0x3a, 0xc8, 0x81, 0xed, 0x3e, 0xac, 0x71, 0x07, 0x3e,
  0xc6, 0xfa, 0xaa, 0x3e, 0x64, 0xb7, 0x13, 0xbd, 0xef, 0xcb, 0x27, 0x3d,
  0x0f, 0x23, 0xef, 0x3d, 0x6b, 0x71, 0x6a, 0x3e, 0x77, 0x97, 0x15, 0x3d,
  0x35, 0xed, 0x14, 0x3e, 0x23, 0x04, 0xdf, 0x3d, 0xd5, 0xc6, 0xf6, 0x3d,
  0x62, 0x6b, 0x42, 0x3c, 0xca, 0xd4, 0xd8, 0x3c, 0x28, 0x95, 0x2c, 0x3e,
  0xff, 0xb2, 0x17, 0xbe, 0x2b, 0x79, 0xb3, 0x3d, 0x2c, 0x4a, 0xd7, 0xbc,
  0x66, 0xd3, 0xe4, 0xbd, 0xab, 0xa0, 0xa4, 0xbd, 0xc8, 0x45, 0xf0, 0x3d,
  0x26, 0xa1, 0xa8, 0x3b, 0xc8, 0xca, 0x92, 0xbc, 0xfc, 0x44, 0x2c, 0xbe,
  0x36, 0x60, 0x2d, 0xbe, 0x87, 0x5b, 0x3c, 0xbd, 0x0c, 0x9a, 0x92, 0xbe,
  0xf7, 0x06, 0x1b, 0xbe, 0x0e, 0x0e, 0xf0, 0xbd, 0x95, 0xed, 0x09, 0x3d,
  0x49, 0x87, 0x68, 0xbe, 0x34, 0xbf, 0x6a, 0xbe, 0x9c, 0x1c, 0x55, 0xbe,
  0x77, 0x70, 0xfc, 0x3e, 0x2b, 0xab, 0xa9, 0xbb, 0xe3, 0x8a, 0xbe, 0xbd,
  0x53, 0x30, 0xbe, 0xbd, 0x3d, 0xd6, 0xda, 0xbc, 0xcd, 0x8f, 0xaf, 0xbe,
  0x4b, 0xd2, 0x4f, 0xbe, 0x0a, 0x65, 0x75, 0xbe, 0x22, 0x4c, 0x3c, 0x3b,
  0x18, 0xcd, 0x8b, 0x3d, 0x73, 0x88, 0xa6, 0xbd, 0xa8, 0x23, 0xc5, 0xbe,
  0x14, 0xd0, 0xa3, 0xba, 0x60, 0xff, 0xca, 0xbe, 0xf0, 0xc1, 0x20, 0x3e,
  0x04, 0xd8, 0x5a, 0x3e, 0xf7, 0xe1, 0x13, 0xbf, 0xd6, 0x4f, 0x6f, 0xbe,
  0x60, 0xfd, 0x8d, 0x3b, 0x5c, 0x2c, 0x24, 0xbd, 0xc2, 0x37, 0x88, 0xbc,
  0x4f, 0x8f, 0x93, 0x3e, 0xd3, 0x09, 0x1b, 0x3c, 0x0e, 0xff, 0x84, 0xbd,
  0x77, 0xb9, 0x44, 0x3e, 0x77, 0x41, 0xfb, 0x3d, 0x56, 0x90, 0x42, 0x3d,
  0xa8, 0xb1, 0xf3, 0x3d, 0xdd, 0x9f, 0xcc, 0xbc, 0x3a, 0x10, 0x41, 0x3b,
  0xb7, 0x96, 0x0e, 0xbe, 0x6c, 0xd2, 0xcd, 0xbe, 0x5d, 0x70, 0x31, 0x3e,
  0xac, 0xc8, 0x39, 0xbd, 0xed, 0x0f, 0xd9, 0xbc, 0x13, 0xc1, 0xbb, 0xbe,
  0xfe, 0x05, 0x8b, 0xbd, 0x53, 0x96, 0x1a, 0xbf, 0xb7, 0xe0, 0x49, 0xbd,
  0x3c, 0x4d, 0x24, 0xbe, 0xf0, 0x26, 0x93, 0xbe, 0xd7, 0xcf, 0x2b, 0x3e,
  0x80, 0x4a, 0x8e, 0xbd, 0xc8, 0xb2, 0x2b, 0xbf, 0x19, 0x34, 0x68, 0x3c,
  0x37, 0xe3, 0xcc, 0xbe, 0x60, 0xa2, 0x9e, 0x3e, 0xb4, 0xe2, 0xb8, 0x3e,
  0xe3, 0x42, 0x29, 0xbf, 0xb9, 0x63, 0x8b, 0xbe, 0x36, 0x81, 0x1e, 0x3e,
  0xde, 0xab, 0xc8, 0x3c, 0x40, 0x48, 0x94, 0xbd, 0x0d, 0xd7, 0xc8, 0x3e,
  0xd2, 0x28, 0xf4, 0xbd, 0x13, 0x38, 0x8f, 0x3e, 0xff, 0xfd, 0x2d, 0x3e,
  0x95, 0xbb, 0xd7, 0xbe, 0xec, 0x15, 0x0d, 0xbe, 0x6f, 0x81, 0x1e, 0x3d,
  0x20, 0x42, 0x3c, 0xbd, 0x3b, 0x75, 0x92, 0x3e, 0x09, 0x9b, 0xe2, 0xbe,
  0x59, 0x96, 0x06, 0xbf, 0x82, 0xc5, 0x14, 0xbe, 0xca, 0xcf, 0xbe, 0xbe,
  0x89, 0x6c, 0x44, 0xbe, 0xed, 0x62, 0xbe, 0xbe, 0x05, 0x44, 0x4c, 0xbe,
  0xed, 0x68, 0xc5, 0xbe, 0x2a, 0x98, 0xa0, 0xbd, 0x5d, 0xbb, 0x4a, 0x3d,
  0x96, 0x91, 0xd5, 0xbd, 0x34, 0x07, 0x79, 0xbb, 0x11, 0x76, 0x17, 0xbd,
  0x5b, 0x70, 0x0f, 0x3e, 0xfa, 0xf0, 0x35, 0xbe, 0xbb, 0xaa, 0x11, 0x3e,
  0xd3, 0x56, 0x8c, 0xbe, 0x67, 0x3c, 0xde, 0xbd, 0x28, 0xd0, 0x25, 0x3e,
  0xea, 0x1c, 0x83, 0x3d, 0x86, 0xd5, 0x34, 0xbe, 0xd9, 0xd1, 0xcf, 0x3d,
  0xdd, 0x22, 0x7f, 0xbd, 0xfe, 0xdb, 0x40, 0xbd, 0x78, 0x64, 0xaa, 0xbd,
  0x48, 0xd5, 0x42, 0x3d, 0xf3, 0x05, 0xb9, 0x3c, 0xdc, 0xcd, 0x02, 0xbd,
  0x56, 0xbb, 0x9d, 0x3c, 0xee, 0x79, 0xc3, 0x3d, 0x83, 0xee, 0xc0, 0xbd,
  0x24, 0x4d, 0x2e, 0x3d, 0x26, 0xde, 0xff, 0xff, 0x10, 0x00, 0x00, 0x00,
  0x0a, 0x00, 0x00, 0x00, 0x1c, 0x00, 0x00, 0x00, 0x38, 0x00, 0x00, 0x00,
  0x04, 0x00, 0x00, 0x00, 0x10, 0x00, 0x00, 0x00, 0x04, 0x00, 0x00, 0x00,
  0x01, 0x00, 0x00, 0x00, 0x08, 0x00, 0x00, 0x00, 0x1a, 0x00, 0x00, 0x00,
  0x73, 0x65, 0x71, 0x75, 0x65, 0x6e, 0x74, 0x69, 0x61, 0x6c, 0x2f, 0x63,
  0x6f, 0x6e, 0x76, 0x32, 0x64, 0x5f, 0x31, 0x2f, 0x43, 0x6f, 0x6e, 0x76,
  0x32, 0x44, 0x00, 0x00, 0x9c, 0xdd, 0xff, 0xff, 0xa6, 0xde, 0xff, 0xff,
  0x04, 0x00, 0x00, 0x00, 0x80, 0x01, 0x00, 0x00, 0x94, 0xf7, 0x0c, 0xbc,
  0x14, 0xc1, 0x11, 0x3e, 0xd4, 0x6d, 0x48, 0x3e, 0x52, 0x43, 0x01, 0x3d,
  0x72, 0xca, 0xea, 0x3d, 0xcb, 0xeb, 0xa1, 0x3e, 0x1e, 0xf4, 0xc5, 0x3c,
  0xe8, 0x5b, 0x80, 0xbe, 0x0e, 0x30, 0xb8, 0xbe, 0xc1, 0x70, 0x24, 0x3a,
  0x06, 0x69, 0x9f, 0xbd, 0x69, 0x76, 0x32, 0xbd, 0x15, 0xaa, 0x41, 0x3e,
  0x03, 0xbe, 0xf4, 0x3e, 0x26, 0xbc, 0x95, 0xbd, 0xa4, 0x6f, 0x9b, 0xbe,
  0xd0, 0xba, 0xba, 0xbe, 0xe3, 0x1b, 0x1e, 0xbe, 0xf5, 0x19, 0x37, 0x3e,
  0x0f, 0x66, 0x88, 0xbd, 0xa9, 0xc6, 0x94, 0x3d, 0xe5, 0x7e, 0xff, 0xbd,
  0x80, 0x64, 0x1a, 0xbe, 0x1c, 0xfe, 0x35, 0x3c, 0xb2, 0x42, 0xe1, 0x3b,
  0xe7, 0x54, 0xfd, 0x3b, 0xa2, 0x8e, 0x2d, 0x3c, 0xd9, 0xe5, 0x76, 0xbe,
  0x03, 0x81, 0xf9, 0xbe, 0x68, 0x01, 0x8d, 0xbe, 0xbd, 0x56, 0x9b, 0x3c,
  0xa5, 0x1b, 0x8f, 0x3d, 0x87, 0x75, 0xc8, 0xbd, 0xf4, 0xd1, 0x93, 0x3e,
  0xc1, 0x72, 0xb1, 0x3e, 0xe4, 0xa7, 0xa5, 0x3e, 0xaf, 0xb8, 0x53, 0xbd,
  0x25, 0x4c, 0x91, 0xbe, 0xe9, 0x23, 0x0b, 0xbe, 0x97, 0x03, 0x0f, 0xbe,
  0xa8, 0x02, 0x59, 0xbe, 0x48, 0x1a, 0xd5, 0x3d, 0xdd, 0x53, 0x55, 0x3e,
  0xd8, 0x36, 0xc4, 0x3e, 0x68, 0xf5, 0x86, 0x3d, 0xe9, 0x08, 0xd1, 0x3d,
  0xd9, 0x31, 0x2f, 0x3e, 0xff, 0x1b, 0x98, 0xbd, 0xbb, 0x33, 0xf8, 0x3d,
  0x8f, 0x4e, 0x47, 0x3d, 0xc0, 0x2e, 0x89, 0xbe, 0x0e, 0xab, 0x0d, 0x3f,
  0xc5, 0x72, 0x37, 0x3e, 0xae, 0x99, 0x59, 0xbd, 0xda, 0x46, 0x28, 0xbe,
  0x42, 0xf1, 0x78, 0xbc, 0x57, 0xb3, 0x74, 0x3e, 0x95, 0x38, 0x99, 0xbe,
  0xae, 0xef, 0x30, 0xbe, 0xff, 0x65, 0xbc, 0x3c, 0x2c, 0x17, 0xaf, 0xbd,
  0xb9, 0x4f, 0xa8, 0xbd, 0x6f, 0xc4, 0xa8, 0x3c, 0x68, 0x06, 0x42, 0xbd,
  0x7c, 0xab, 0xb8, 0xbd, 0x5e, 0xf7, 0x35, 0x3c, 0x4e, 0x64, 0x14, 0xbd,
  0x5c, 0x20, 0x49, 0xbd, 0xcc, 0x4c, 0x2a, 0x3d, 0xf8, 0xe2, 0xf0, 0xbd,
  0x0c, 0xcd, 0xb5, 0xbc, 0x73, 0x37, 0x25, 0x3d, 0x4f, 0xd6, 0x8f, 0x3e,
  0x0d, 0xf1, 0x89, 0xbd, 0x2c, 0xed, 0x11, 0xbd, 0x64, 0x21, 0x10, 0x3e,
  0xde, 0xde, 0x1a, 0xbe, 0x06, 0x8d, 0x3b, 0xbd, 0x24, 0x44, 0xc8, 0x3e,
  0x68, 0x03, 0x1c, 0x3e, 0x4a, 0xc2, 0xf4, 0xbc, 0x54, 0x5f, 0x6a, 0x3e,
  0xae, 0xbe, 0xbd, 0xbc, 0x1f, 0xd5, 0xaf, 0x3d, 0x6c, 0xc5, 0xbf, 0x3d,
  0xc7, 0x44, 0xbc, 0x3e, 0x97, 0x9f, 0x8c, 0x3e, 0x59, 0x4e, 0xac, 0xbd,
  0x37, 0x70, 0xbc, 0xbd, 0xd3, 0x13, 0xaf, 0xbe, 0x1f, 0x09, 0x9f, 0xbd,
  0x29, 0x39, 0xc9, 0xbe, 0xb5, 0xbe, 0x07, 0x3e, 0xcd, 0xf9, 0x34, 0xbe,
  0x35, 0xe4, 0xa7, 0x3d, 0xda, 0xec, 0xda, 0xbd, 0xfe, 0xdf, 0xff, 0xff,
  0x10, 0x00, 0x00, 0x00, 0x09, 0x00, 0x00, 0x00, 0x1c, 0x00, 0x00, 0x00,
  0x38, 0x00, 0x00, 0x00, 0x04, 0x00, 0x00, 0x00, 0x08, 0x00, 0x00, 0x00,
  0x04, 0x00, 0x00, 0x00, 0x03, 0x00, 0x00, 0x00, 0x01, 0x00, 0x00, 0x00,
  0x18, 0x00, 0x00, 0x00, 0x73, 0x65, 0x71, 0x75, 0x65, 0x6e, 0x74, 0x69,
  0x61, 0x6c, 0x2f, 0x63, 0x6f, 0x6e, 0x76, 0x32, 0x64, 0x2f, 0x43, 0x6f,
  0x6e, 0x76, 0x32, 0x44, 0x00, 0x00, 0x00, 0x00, 0x74, 0xdf, 0xff, 0xff,
  0x7e, 0xe0, 0xff, 0xff, 0x04, 0x00, 0x00, 0x00, 0xc0, 0x00, 0x00, 0x00,
  0x9a, 0x99, 0xf2, 0x3a, 0xc6, 0x5f, 0xb7, 0x3e, 0x74, 0x27, 0x7b, 0xbe,
  0xbe, 0xeb, 0xc3, 0xbe, 0x0a, 0x1b, 0xa0, 0x3e, 0xc1, 0x66, 0xa3, 0xbd,
  0x46, 0x67, 0xa4, 0x3e, 0x7e, 0x00, 0xdf, 0x3d, 0xb1, 0x7a, 0x75, 0xbf,
  0x22, 0x65, 0x8e, 0x3e, 0xe4, 0xa2, 0xa4, 0xbe, 0xa5, 0x90, 0x19, 0xbe,
  0xe8, 0xc8, 0x9a, 0x3d, 0xa7, 0x2e, 0x8b, 0x3d, 0x18, 0xdb, 0x96, 0x3d,
  0x39, 0x90, 0xbb, 0xbe, 0x58, 0x87, 0x86, 0xbe, 0x56, 0xce, 0x98, 0xbe,
  0xb7, 0xf3, 0x6b, 0xbe, 0x61, 0x24, 0xa3, 0x3e, 0xc2, 0xa7, 0x78, 0x3e,
  0x4c, 0x9c, 0x8d, 0x3e, 0x0f, 0xe5, 0xc5, 0xbe, 0x14, 0x45, 0xb2, 0x3e,
  0x7e, 0xc8, 0x15, 0x3e, 0xa2, 0x48, 0x74, 0x3e, 0x93, 0x02, 0x19, 0x3e,
  0xd4, 0xd1, 0xaf, 0xbd, 0x30, 0x58, 0x8b, 0x3e, 0xe9, 0x6a, 0x9b, 0xbd,
  0xf4, 0x95, 0x37, 0x3e, 0x70, 0xc4, 0x64, 0xbe, 0x7b, 0xb7, 0xa6, 0x3c,
  0xb6, 0xfd, 0xab, 0xbe, 0xc6, 0xa4, 0x5b, 0xbe, 0xfb, 0xc1, 0x6e, 0x3e,
  0xa6, 0x4c, 0xcd, 0x3e, 0x20, 0xda, 0x45, 0x3e, 0xfa, 0xc6, 0x7e, 0xbe,
  0xf6, 0x3f, 0x72, 0x3e, 0x33, 0x2e, 0x96, 0x3d, 0xbb, 0xe7, 0xe1, 0xbd,
  0xac, 0x83, 0x19, 0x3e, 0x0b, 0xdf, 0x9a, 0xbd, 0x2e, 0x17, 0x5d, 0x3e,
  0xd7, 0x18, 0xae, 0xbe, 0x10, 0x94, 0x43, 0x3e, 0xa6, 0x68, 0x8b, 0xbe,
  0x16, 0xe1, 0xff, 0xff, 0x10, 0x00, 0x00, 0x00, 0x08, 0x00, 0x00, 0x00,
  0x14, 0x00, 0x00, 0x00, 0x30, 0x00, 0x00, 0x00, 0x02, 0x00, 0x00, 0x00,
  0x03, 0x00, 0x00, 0x00, 0x10, 0x00, 0x00, 0x00, 0x19, 0x00, 0x00, 0x00,
  0x73, 0x65, 0x71, 0x75, 0x65, 0x6e, 0x74, 0x69, 0x61, 0x6c, 0x2f, 0x64,
  0x65, 0x6e, 0x73, 0x65, 0x5f, 0x31, 0x2f, 0x4d, 0x61, 0x74, 0x4d, 0x75,
  0x6c, 0x00, 0x00, 0x00, 0x84, 0xe0, 0xff, 0xff, 0x8e, 0xe1, 0xff, 0xff,
  0x04, 0x00, 0x00, 0x00, 0x00, 0x1c, 0x00, 0x00, 0x10, 0xd2, 0x3d, 0xbe,
  0x19, 0xef, 0x78, 0x3c, 0x97, 0xc0, 0x84, 0xbe, 0xa3, 0x43, 0xf1, 0x3d,
  0x80, 0x57, 0xb4, 0x3d, 0xc6, 0x0a, 0x67, 0xbd, 0x8e, 0xd4, 0x37, 0x3c,
  0x6c, 0x95, 0x41, 0xbe, 0xda, 0x8c, 0xee, 0x3c, 0xd5, 0x54, 0x0d, 0x3c,
  0xb8, 0x48, 0x86, 0xbe, 0xc8, 0x36, 0x10, 0xbd, 0xfc, 0xe2, 0x4b, 0xbe,
  0xb9, 0x9c, 0xb5, 0xbe, 0x8e, 0xbf, 0xf2, 0xbc, 0x51, 0x38, 0x35, 0x3f,
  0x38, 0x24, 0x99, 0x3d, 0xc9, 0x33, 0x94, 0x3d, 0xc9, 0xb5, 0xeb, 0xbd,
  0xc5, 0x87, 0x11, 0xbe, 0x6e, 0xc7, 0x0d, 0x3e, 0xcc, 0xac, 0x83, 0xbe,
  0xbb, 0xd8, 0x84, 0xbd, 0xb1, 0xf8, 0xaa, 0x3d, 0xae, 0xff, 0x9a, 0xbd,
  0xf7, 0xd6, 0xa8, 0x3e, 0x58, 0x74, 0x71, 0x3e, 0x23, 0xe4, 0x97, 0x3e,
  0xc2, 0xc3, 0x31, 0xbe, 0x27, 0x37, 0x51, 0x3e, 0x3a, 0xc2, 0x57, 0xbd,
  0x76, 0x30, 0xa8, 0x3c, 0x0e, 0xe9, 0x77, 0xbe, 0x27, 0x33, 0xa8, 0x3d,
  0x3d, 0x53, 0x27, 0xbe, 0xcc, 0x7e, 0x9d, 0x3e, 0x4f, 0x90, 0xa9, 0x3b,
  0x76, 0xed, 0x8a, 0x3d, 0xa6, 0xde, 0x8e, 0x3d, 0x26, 0x91, 0xf1, 0x3a,
  0x53, 0x7f, 0x21, 0x3e, 0x75, 0xe7, 0x37, 0x3e, 0x9c, 0x4b, 0xce, 0x3d,
  0xea, 0xa6, 0x66, 0x3e, 0xda, 0x95, 0x30, 0xbe, 0x1f, 0x89, 0xa0, 0x3e,
  0x6e, 0x80, 0xa8, 0x3e, 0xe3, 0x92, 0xb5, 0x3e, 0x21, 0x9d, 0xa3, 0xbc,
  0xd1, 0x35, 0xc2, 0xbd, 0x80, 0xf0, 0xb1, 0x3d, 0x63, 0x3f, 0x8a, 0x3d,
  0xa9, 0x8f, 0x16, 0xbe, 0x09, 0x8d, 0x21, 0x3e, 0x01, 0x3e, 0x9f, 0x3d,
  0x14, 0xa3, 0xa6, 0xbd, 0x97, 0x6e, 0x97, 0x3e, 0xf8, 0xf8, 0x9f, 0x3e,
  0xb1, 0x48, 0x02, 0x3e, 0x5e, 0x3c, 0x7b, 0xbe, 0x53, 0x7e, 0xca, 0x3d,
  0xbc, 0x16, 0x77, 0xbe, 0x7b, 0xf4, 0x12, 0x3d, 0x00, 0x8c, 0x6d, 0x3e,
  0x16, 0x3e, 0xbe, 0xbd, 0x7b, 0xaf, 0x96, 0x3d, 0x48, 0x54, 0x71, 0x3d,
  0x45, 0xe8, 0xca, 0x3c, 0xbf, 0x49, 0x2b, 0xbe, 0xa0, 0xf7, 0xc5, 0x3e,
  0x0a, 0xb1, 0xed, 0xbd, 0x65, 0xcb, 0x48, 0xbe, 0xb3, 0x61, 0xc4, 0x3e,
  0x86, 0x58, 0xba, 0x3e, 0xf6, 0xf7, 0x8d, 0xbc, 0x33, 0x02, 0xa5, 0xbd,
  0x31, 0xa3, 0x67, 0x3c, 0x85, 0xe6, 0x33, 0x3d, 0xb4, 0x25, 0xe9, 0x3c,
  0x32, 0x7b, 0xab, 0x3e, 0xb3, 0x4a, 0xdc, 0x3c, 0x15, 0x43, 0xe4, 0x3d,
  0xba, 0xa0, 0x89, 0xbc, 0x9b, 0x24, 0x98, 0x3e, 0x2d, 0xb0, 0x31, 0xbc,
  0xea, 0x54, 0x97, 0xbd, 0xec, 0xb3, 0xce, 0xbd, 0x08, 0xe4, 0x5e, 0xbe,
  0x12, 0x54, 0xa2, 0x3d, 0xaa, 0x74, 0x36, 0x3e, 0x12, 0x12, 0xf6, 0xbc,
  0xac, 0xbb, 0x61, 0xbe, 0x0e, 0x37, 0xbb, 0x3c, 0xf2, 0x6f, 0x25, 0xbd,
  0x4a, 0x38, 0xb5, 0x3d, 0xbe, 0xa4, 0xd0, 0x3d, 0x7b, 0xf4, 0x31, 0xbc,
  0xdf, 0x5a, 0x89, 0xbe, 0x64, 0x16, 0xa1, 0x3e, 0xe8, 0x1f, 0x08, 0x3e,
  0x74, 0x08, 0xaf, 0x3c, 0xdf, 0x7c, 0xdb, 0xbc, 0xba, 0x6f, 0x2f, 0xbe,
  0xf8, 0x1c, 0x83, 0x3e, 0x3b, 0x41, 0x35, 0xbe, 0xfb, 0xbd, 0x97, 0xbd,
  0x9e, 0xef, 0xff, 0xbd, 0x4e, 0xd2, 0xf3, 0xbd, 0xe7, 0x9c, 0x81, 0xbe,
  0x2a, 0x17, 0x35, 0xbe, 0x35, 0x8e, 0xad, 0x3d, 0x7e, 0x95, 0xbe, 0x3d,
  0x53, 0x4d, 0x05, 0xbe, 0x03, 0xc5, 0x9b, 0x3d, 0x8e, 0x58, 0x7c, 0xbe,
  0x13, 0x80, 0x5b, 0xbe, 0x3e, 0xe9, 0x15, 0x3e, 0xb0, 0x55, 0x0d, 0x3d,
  0x34, 0xf8, 0xbc, 0xbd, 0x55, 0x1e, 0x26, 0xbe, 0x64, 0xb5, 0xea, 0xbd,
  0x18, 0x0c, 0xcb, 0xbb, 0x1c, 0x45, 0x7d, 0xbe, 0xf7, 0xe9, 0x51, 0x3d,
  0xf7, 0x18, 0x81, 0xbe, 0xfc, 0x59, 0x96, 0xbd, 0x13, 0x14, 0xea, 0x3c,
  0x90, 0x78, 0x59, 0x3c, 0x4f, 0x4b, 0x35, 0xbe, 0xa0, 0xd1, 0x87, 0xbd,
  0x87, 0x0d, 0x8b, 0xbd, 0x8a, 0xa0, 0xc6, 0x3c, 0x10, 0x11, 0x2d, 0x3e,
  0xec, 0x92, 0xe9, 0xbd, 0x35, 0x4d, 0x9a, 0x3d, 0xf6, 0x74, 0x3c, 0xbe,
  0xde, 0x7c, 0x70, 0xbd, 0x0b, 0x73, 0x85, 0x3c, 0x47, 0xde, 0x18, 0xbd,
  0xfe, 0xaa, 0x5c, 0xbd, 0x18, 0xd7, 0x81, 0xbe, 0xfe, 0x9c, 0xc3, 0xbd,
  0x8d, 0x13, 0x8a, 0xbe, 0x4c, 0x2e, 0x08, 0x3d, 0xc1, 0x15, 0xac, 0xbe,
  0xce, 0xb5, 0xbe, 0xbd, 0x2a, 0xb9, 0x54, 0xbe, 0x85, 0x90, 0xf7, 0xbd,
  0x9d, 0xf9, 0x91, 0xbd, 0xbe, 0xe8, 0x91, 0x3d, 0xf4, 0x6e, 0xaa, 0xbc,
  0x97, 0x22, 0xee, 0x3d, 0xf2, 0xbb, 0x80, 0x3d, 0x1e, 0x14, 0x05, 0xbe,
  0xd1, 0x90, 0x82, 0xbe, 0x78, 0x50, 0x1a, 0xbb, 0x3c, 0x0f, 0xf2, 0xbd,
  0x21, 0x50, 0xbd, 0x3c, 0xff, 0x0c, 0x23, 0xbe, 0xfa, 0xe0, 0x23, 0x3c,
  0x7d, 0x8f, 0xb7, 0xbe, 0xa6, 0xa6, 0x5a, 0xbe, 0x5e, 0xc2, 0xd6, 0x3d,
  0x8f, 0x7a, 0x9d, 0x3d, 0x34, 0x78, 0xe3, 0x3d, 0xd8, 0xce, 0x4c, 0xbe,
  0xa4, 0xbd, 0xa7, 0xbd, 0x4b, 0x17, 0x73, 0x3d, 0xf7, 0xef, 0x62, 0x3d,
  0xf0, 0x92, 0xf4, 0x3d, 0xbf, 0x55, 0x8e, 0xbe, 0x24, 0xd5, 0x40, 0xbd,
  0x49, 0xd4, 0x31, 0xbe, 0x8d, 0x8d, 0xee, 0x3d, 0xfd, 0x4b, 0x96, 0x3d,
  0xef, 0x3f, 0x3b, 0xbe, 0xfe, 0x0f, 0xda, 0xbd, 0xad, 0xa6, 0x01, 0x3e,
  0x46, 0x5c, 0xf7, 0xbd, 0x21, 0xaf, 0xb1, 0x3d, 0x4b, 0x1e, 0xb9, 0xbd,
  0x11, 0x18, 0xbf, 0x3d, 0x66, 0x37, 0x2b, 0xbe, 0x02, 0x75, 0x35, 0xbd,
  0x8f, 0x00, 0x58, 0xbd, 0x58, 0x62, 0x2a, 0x3d, 0x5d, 0x67, 0x87, 0xbe,
  0x3f, 0x34, 0x05, 0x3c, 0x85, 0x08, 0xc9, 0x3d, 0x93, 0xc4, 0xec, 0xbd,
  0xaa, 0x52, 0x03, 0xbe, 0xb8, 0x8c, 0xa0, 0xbd, 0x31, 0x22, 0x9c, 0xbe,
  0x7c, 0x2f, 0x04, 0x3d, 0xaa, 0xee, 0xe1, 0xbd, 0x93, 0xad, 0xf8, 0xbc,
  0x1f, 0xf7, 0xd0, 0x3d, 0x85, 0x1d, 0x86, 0xbc, 0xd1, 0xa9, 0x65, 0xbe,
  0x2a, 0xa1, 0x40, 0xbe, 0x31, 0x77, 0x2c, 0xbd, 0x48, 0x0b, 0x01, 0xbd,
  0x50, 0x3e, 0x8c, 0xbe, 0x2a, 0xf6, 0x48, 0xbe, 0x0d, 0x0a, 0x68, 0xbe,
  0xd8, 0x60, 0x44, 0xbe, 0x8f, 0x97, 0x6b, 0xbe, 0x98, 0xc8, 0x63, 0xbe,
  0xdf, 0x17, 0xb4, 0xbe, 0x38, 0x9a, 0xb4, 0x3d, 0x3e, 0x60, 0xdc, 0xbd,
  0xa2, 0xcd, 0x09, 0xbe, 0xf0, 0x58, 0x27, 0x3e, 0xb8, 0x24, 0x66, 0xbd,
  0xc0, 0xf2, 0xf0, 0xbc, 0xe4, 0xd1, 0x63, 0x3c, 0x81, 0xfb, 0x48, 0xbd,
  0xcd, 0x05, 0xd7, 0xbd, 0xe0, 0x04, 0x40, 0xbe, 0x7c, 0x74, 0x5d, 0x3d,
  0xf4, 0x67, 0x0b, 0xbe, 0xc0, 0xf2, 0x0b, 0xbd, 0x05, 0xff, 0x85, 0xbb,
  0x0b, 0x57, 0xfb, 0x3c, 0x50, 0x52, 0xae, 0xba, 0xee, 0x9b, 0x66, 0xbc,
  0x41, 0x58, 0x11, 0xbf, 0x69, 0x4d, 0x9e, 0xbe, 0x49, 0xaa, 0x62, 0xbd,
  0x1a, 0x5d, 0xed, 0xbe, 0x67, 0x52, 0x65, 0xbd, 0x56, 0x91, 0xcf, 0xbe,
  0xdf, 0xc1, 0xe8, 0xbd, 0xba, 0x3e, 0x23, 0x3f, 0x40, 0xbc, 0x2e, 0xbe,
  0x7f, 0x52, 0x2e, 0xbe, 0xd9, 0xf9, 0x91, 0xbe, 0x29, 0x22, 0x45, 0xbe,
  0xf6, 0x68, 0x8a, 0xbe, 0x0c, 0x4e, 0xaa, 0x3e, 0xb7, 0x91, 0x67, 0xbd,
  0x1c, 0xa4, 0xb9, 0x3c, 0x9e, 0xe9, 0x3e, 0xbe, 0xd9, 0x51, 0x2a, 0x3e,
  0x03, 0xa7, 0x07, 0x3e, 0x8a, 0x8d, 0x14, 0xbd, 0x0a, 0x0f, 0x5f, 0xbd,
  0x45, 0x60, 0xaf, 0xbd, 0x61, 0x07, 0xb2, 0x3d, 0x44, 0x25, 0x06, 0x3e,
  0xd0, 0xe3, 0x27, 0x3d, 0x53, 0xa6, 0xc1, 0x3d, 0x7e, 0x5c, 0xf7, 0xbb,
  0x5a, 0x7e, 0x96, 0x3d, 0x59, 0x02, 0xe8, 0xbd, 0xd1, 0xf8, 0x82, 0xbe,
  0x98, 0x9d, 0xb7, 0xbd, 0x71, 0x3f, 0x23, 0x3e, 0x7f, 0x71, 0xa0, 0x3e,
  0x28, 0x59, 0xf4, 0x3d, 0xb6, 0x1d, 0x59, 0xba, 0x44, 0xfc, 0x40, 0x3e,
  0xf9, 0x6e, 0x95, 0xbb, 0x87, 0x2d, 0xf1, 0xbe, 0xcd, 0xbe, 0xc2, 0x3d,
  0x68, 0x42, 0x9f, 0x3e, 0xde, 0x2b, 0x98, 0x3d, 0x99, 0xb9, 0x22, 0x3d,
  0x6f, 0x1a, 0x8e, 0x3e, 0xe9, 0x1c, 0xd4, 0x3d, 0x9b, 0x40, 0x5b, 0x3d,
  0xd9, 0x05, 0x6e, 0xbc, 0x56, 0xb1, 0x07, 0x3e, 0x47, 0xc8, 0x78, 0x3d,
  0xf1, 0x75, 0xa3, 0xbd, 0xbf, 0x93, 0xa1, 0xbe, 0x37, 0x59, 0x1d, 0xbe,
  0xda, 0xec, 0xf6, 0x3e, 0xeb, 0xef, 0xa2, 0x3e, 0x96, 0xd0, 0x83, 0xbe,
  0x76, 0x7f, 0x93, 0x3e, 0xe9, 0x48, 0xf1, 0x3d, 0xb9, 0x76, 0x01, 0x3e,
  0x59, 0x12, 0xf3, 0xbd, 0xae, 0x5b, 0x0e, 0x3e, 0x6d, 0x5e, 0xca, 0x3d,
  0xc8, 0x17, 0x8b, 0x3c, 0x75, 0xea, 0x1a, 0x3e, 0xe4, 0x09, 0xf6, 0x3c,
  0xeb, 0x6d, 0xbd, 0xbd, 0x5e, 0x44, 0xbe, 0x3d, 0xd2, 0xec, 0x91, 0x3d,
  0x9a, 0x0c, 0xb0, 0x3a, 0x7b, 0x25, 0xe8, 0x3e, 0x5e, 0x0d, 0xce, 0x3a,
  0xc0, 0x3d, 0x48, 0xbe, 0xab, 0xab, 0x03, 0x3e, 0x05, 0x08, 0xe8, 0x3b,
  0xdd, 0x6a, 0x74, 0xbd, 0x9c, 0x9c, 0x28, 0xbe, 0x98, 0xfd, 0x85, 0x3e,
  0xb9, 0xf2, 0x16, 0x3e, 0xf0, 0x5d, 0x30, 0xbd, 0x79, 0x2c, 0x31, 0xbe,
  0x54, 0xb3, 0xf6, 0xbd, 0x34, 0xae, 0x34, 0xbe, 0xe5, 0xbc, 0x1b, 0x3d,
  0xaf, 0x16, 0xc3, 0x3d, 0x9f, 0xc5, 0xfa, 0xbd, 0x1b, 0x93, 0x9b, 0x3e,
  0xf9, 0xa0, 0xa2, 0xbd, 0x5f, 0xe4, 0x95, 0x3d, 0x46, 0x67, 0x12, 0x3e,
  0x00, 0x35, 0xc1, 0x3d, 0x42, 0x93, 0x01, 0xbd, 0x9c, 0x40, 0xfb, 0xbd,
  0x32, 0x8a, 0x9c, 0x3e, 0xd0, 0x47, 0x44, 0xbe, 0x08, 0x35, 0xf9, 0xbd,
  0x72, 0xed, 0x6a, 0xbd, 0xd8, 0xb3, 0x49, 0xbe, 0x2a, 0xce, 0xc6, 0xbe,
  0xa4, 0x1c, 0x5c, 0x3e, 0x98, 0x79, 0x9b, 0xbe, 0xc1, 0xe8, 0xc4, 0x3d,
  0x97, 0x42, 0x8f, 0xbe, 0x41, 0xb0, 0xaf, 0xbd, 0xcd, 0x42, 0x71, 0x3e,
  0x8c, 0x12, 0xaa, 0xbd, 0x80, 0x9a, 0x2c, 0x3e, 0x29, 0x1b, 0x45, 0xbd,
  0x56, 0x84, 0x48, 0xbe, 0xe6, 0xa6, 0x8a, 0x3c, 0x8f, 0xe5, 0xec, 0xbd,
  0xaf, 0x5e, 0x08, 0xb9, 0xc8, 0x26, 0x72, 0xba, 0x9b, 0xf6, 0xbf, 0xbd,
  0x66, 0x29, 0x0f, 0xbe, 0x62, 0x18, 0x90, 0xbe, 0x41, 0x48, 0xbe, 0xbd,
  0xd6, 0x07, 0x0e, 0xbd, 0x4f, 0xea, 0xb0, 0xbe, 0x99, 0x91, 0xb1, 0xbe,
  0xa3, 0x42, 0x55, 0x3e, 0x22, 0xa4, 0x7e, 0xbe, 0x77, 0xe5, 0x3b, 0x3c,
  0x9e, 0x42, 0x46, 0xbe, 0x1c, 0xba, 0xc5, 0xbe, 0xf2, 0x79, 0x35, 0xbe,
  0xf5, 0x16, 0xd0, 0xbe, 0x1c, 0xcf, 0x46, 0xbe, 0x40, 0x73, 0x63, 0x3d,
  0x8e, 0x30, 0xb5, 0xbd, 0xaf, 0x12, 0x52, 0xbe, 0x31, 0x3d, 0x68, 0xbd,
  0x5f, 0xa5, 0x50, 0x3e, 0x7c, 0x50, 0x02, 0x3e, 0x44, 0x24, 0x80, 0xbd,
  0xfa, 0x9a, 0x3f, 0xbe, 0x69, 0x2f, 0x7a, 0xbe, 0xfe, 0x8a, 0x30, 0x3e,
  0x18, 0x5d, 0xd8, 0xbd, 0xe7, 0x88, 0xda, 0xbd, 0xb4, 0x41, 0x35, 0xbd,
  0xe0, 0xa3, 0x00, 0x3b, 0x3b, 0xd5, 0x27, 0xbe, 0xf2, 0x91, 0x10, 0xbe,
  0x46, 0x53, 0xb4, 0xbd, 0x66, 0x2a, 0x23, 0xbe, 0xc4, 0x84, 0x88, 0xbe,
  0xcc, 0x8d, 0xcf, 0x3d, 0xb5, 0x04, 0x73, 0xbd, 0xfc, 0xe5, 0x6a, 0x3d,
  0x0b, 0xf6, 0x30, 0xbe, 0x70, 0xf8, 0x1e, 0xbe, 0xdb, 0x2b, 0x08, 0x3d,
  0x27, 0xdc, 0x12, 0x3e, 0xff, 0xc7, 0x75, 0xbe, 0x71, 0x85, 0xfe, 0xbc,
  0x73, 0x15, 0xb4, 0xbc, 0x0a, 0x71, 0xab, 0xbc, 0x9b, 0x90, 0xb5, 0xbd,
  0x5d, 0xfa, 0x83, 0x3d, 0x1f, 0xd7, 0xc4, 0xbe, 0x80, 0x71, 0x82, 0xbd,
  0x20, 0x29, 0xf7, 0xbe, 0xb8, 0x98, 0x74, 0xbe, 0xa4, 0xaa, 0x0f, 0xbe,
  0xce, 0xe2, 0x6d, 0x3b, 0xde, 0x74, 0x40, 0x3d, 0x12, 0xab, 0x5d, 0xbe,
  0x72, 0xbe, 0xf9, 0xbd, 0xc6, 0x60, 0xbc, 0x3b, 0xd7, 0xf5, 0x8d, 0xbe,
  0xe1, 0xee, 0xaa, 0xbe, 0xba, 0x8c, 0xea, 0xbe, 0xb6, 0x04, 0x15, 0xbd,
  0xac, 0x30, 0x77, 0xbd, 0xc8, 0xe6, 0x8e, 0xbe, 0xe9, 0xe4, 0x57, 0xbd,
  0xc7, 0x56, 0xe6, 0xbd, 0x5a, 0x07, 0x80, 0x3c, 0x0e, 0x3f, 0x42, 0x3e,
  0x44, 0xf5, 0xa6, 0xbd, 0x56, 0x6b, 0x85, 0x3d, 0x38, 0x68, 0xd7, 0xbc,
  0x83, 0x29, 0x42, 0xbe, 0xb7, 0x3d, 0x98, 0x3c, 0xb2, 0x9e, 0x9d, 0xbe,
  0xef, 0xef, 0xbd, 0xbe, 0x23, 0xe4, 0x0c, 0xbe, 0x86, 0xfb, 0x74, 0x3d,
  0xc1, 0x9f, 0xf2, 0xbd, 0x2d, 0xf8, 0x5a, 0xbd, 0x6a, 0x65, 0xcc, 0x3d,
  0x2f, 0xa3, 0x75, 0xbe, 0x06, 0xbf, 0xc8, 0xbc, 0x27, 0xaf, 0xfb, 0x3b,
  0xc0, 0x27, 0x53, 0x3d, 0xdf, 0xd8, 0xa1, 0x3d, 0x75, 0x26, 0xba, 0xbd,
  0x55, 0x9a, 0x90, 0xbd, 0x2c, 0x28, 0x7c, 0x3d, 0xe9, 0xa1, 0x91, 0xbe,
  0x73, 0xa4, 0x0b, 0xbd, 0x28, 0xe7, 0x26, 0xbd, 0x10, 0x93, 0x87, 0x3b,
  0x2e, 0x19, 0x84, 0x3c, 0xe2, 0x43, 0xb5, 0xbd, 0x12, 0x96, 0x41, 0x3e,
  0x1f, 0x64, 0x89, 0x3e, 0xac, 0x79, 0x8c, 0xbe, 0x20, 0xe7, 0xe8, 0x3d,
  0x98, 0xb8, 0xcc, 0x3e, 0x92, 0x0b, 0x83, 0xbe, 0x20, 0x9e, 0x9a, 0x3e,
  0x7a, 0x8d, 0x44, 0x3c, 0x5b, 0x9f, 0x90, 0x3e, 0xa1, 0xb1, 0x88, 0xbd,
  0xd5, 0x99, 0x04, 0xbe, 0x1d, 0x26, 0x13, 0x3e, 0xff, 0x94, 0x12, 0xbe,
  0x2e, 0x80, 0x12, 0xbd, 0x3c, 0x81, 0x17, 0x3e, 0xb3, 0x38, 0xac, 0x3d,
  0x26, 0xc6, 0x58, 0x3e, 0xcb, 0xb5, 0x09, 0x3d, 0x12, 0x15, 0xad, 0xbe,
  0x29, 0xcb, 0x38, 0xbd, 0xa1, 0x61, 0xfa, 0x3c, 0x6d, 0xb5, 0x21, 0xbd,
  0x65, 0x37, 0xa2, 0x3d, 0x76, 0x05, 0x7c, 0xbd, 0xec, 0xb9, 0x35, 0xbe,
  0xa3, 0x8a, 0x29, 0x3d, 0x1a, 0xae, 0x88, 0xbd, 0x3c, 0x21, 0x4b, 0xbd,
  0x72, 0x55, 0x71, 0xbd, 0xc7, 0x5a, 0x44, 0xbe, 0xe5, 0x79, 0x12, 0x3e,
  0x83, 0x17, 0x03, 0xbe, 0xfe, 0x83, 0x43, 0xbd, 0x7f, 0x01, 0x40, 0xbe,
  0x1d, 0x98, 0x0c, 0xbd, 0xfc, 0x66, 0x05, 0xbd, 0xad, 0x93, 0x95, 0x3d,
  0x98, 0xba, 0xf0, 0xbd, 0x94, 0xdd, 0xfe, 0x3d, 0xe7, 0xef, 0x47, 0x3e,
  0x1b, 0xab, 0x5a, 0x3d, 0x83, 0x9d, 0x23, 0xbd, 0x2b, 0xfb, 0x04, 0xbe,
  0x87, 0x74, 0xf8, 0xbd, 0xf6, 0x8c, 0x31, 0xbd, 0x84, 0x22, 0x99, 0xbe,
  0x3b, 0x55, 0xd2, 0x3d, 0xb3, 0xe5, 0x1a, 0xbe, 0x49, 0x63, 0x3d, 0xbd,
  0x55, 0x1e, 0x9c, 0x3d, 0xde, 0x94, 0x0e, 0xbd, 0xfe, 0x89, 0x27, 0xbd,
  0x1b, 0x00, 0xf2, 0xbc, 0x2d, 0x07, 0x2e, 0xbe, 0x46, 0x55, 0x06, 0xbe,
  0x39, 0xd8, 0x22, 0xbd, 0x74, 0xf1, 0x7c, 0xbd, 0x2f, 0xfa, 0x32, 0xbc,
  0xec, 0xa4, 0x29, 0xbe, 0x98, 0xae, 0xce, 0x3c, 0xed, 0x52, 0x2f, 0xbe,
  0xdf, 0xd3, 0x5e, 0xbd, 0x76, 0xd9, 0x40, 0x3e, 0xd0, 0x8e, 0x26, 0xbe,
  0x95, 0x64, 0x12, 0xbd, 0x60, 0xad, 0x52, 0x3d, 0x50, 0x04, 0xf0, 0xbd,
  0x01, 0xad, 0xbe, 0xbe, 0x65, 0x5c, 0x89, 0xbd, 0x70, 0x4f, 0x91, 0xbd,
  0xbd, 0x98, 0x43, 0xbb, 0x95, 0x36, 0x2c, 0x3d, 0x91, 0x15, 0x80, 0xbd,
  0x6d, 0xa7, 0xbd, 0xbd, 0x2b, 0x95, 0x1f, 0xbe, 0xa6, 0x25, 0x9c, 0xbd,
  0xae, 0x69, 0x2c, 0xbe, 0xb0, 0x0f, 0x0a, 0xbe, 0x3c, 0xf9, 0x3f, 0x3e,
  0x71, 0x82, 0xc9, 0xbd, 0xc2, 0x28, 0x71, 0xbd, 0x6f, 0x77, 0x73, 0xbe,
  0xac, 0xd9, 0x96, 0x3d, 0x4c, 0x6b, 0x8d, 0xbe, 0xf1, 0xf2, 0x3a, 0xbe,
  0x87, 0x91, 0xc1, 0xbd, 0x95, 0xbb, 0x18, 0x3d, 0xec, 0xb3, 0x01, 0xbd,
  0x4c, 0x5d, 0x64, 0xbe, 0xc8, 0x38, 0xa6, 0x3b, 0x5b, 0x43, 0x2d, 0x3d,
  0xc3, 0xe2, 0x33, 0x3e, 0xcf, 0x36, 0xf7, 0x3d, 0x97, 0x94, 0x46, 0x3c,
  0xb5, 0x3f, 0x51, 0xbe, 0x8c, 0xcb, 0x26, 0xbe, 0x24, 0x6d, 0x6f, 0x3d,
  0x3a, 0x37, 0xed, 0x3d, 0x33, 0xc6, 0x01, 0x3e, 0x43, 0x46, 0x88, 0xbe,
  0xc8, 0x39, 0xd9, 0xbd, 0x60, 0xf2, 0x15, 0x3c, 0x46, 0xba, 0x02, 0xbe,
  0x31, 0x15, 0x43, 0x3e, 0x18, 0x4a, 0x82, 0x3d, 0xd1, 0xa7, 0xbc, 0xbd,
  0x4e, 0x20, 0x12, 0xbe, 0xbb, 0x5b, 0x4b, 0xbe, 0xde, 0xd6, 0x44, 0xbd,
  0xa9, 0x7d, 0x9d, 0xbd, 0x53, 0x08, 0x7b, 0xbe, 0xef, 0xf2, 0x5b, 0xbc,
  0x49, 0x5f, 0xf3, 0xbd, 0x39, 0xb8, 0x31, 0x3d, 0x6c, 0x68, 0x82, 0x3e,
  0x83, 0x3f, 0x7c, 0xbe, 0x77, 0x0a, 0xec, 0xbd, 0x85, 0xec, 0x92, 0x3d,
  0x20, 0x52, 0x72, 0x3d, 0xe1, 0xaa, 0x47, 0xbe, 0xc6, 0xca, 0x53, 0x3c,
  0x85, 0x4b, 0x93, 0x3c, 0x64, 0xa2, 0x8f, 0xbd, 0x44, 0xef, 0xb5, 0x3c,
  0x2d, 0xf2, 0x0d, 0x3e, 0x84, 0x11, 0x3d, 0xbe, 0x06, 0x65, 0x93, 0x3d,
  0x6c, 0xd5, 0x3b, 0xbd, 0x87, 0xc4, 0x31, 0xbd, 0x3a, 0xd3, 0x08, 0xbe,
  0x8b, 0xf4, 0x64, 0x3d, 0x85, 0xef, 0x80, 0x3c, 0x96, 0xab, 0x72, 0x3e,
  0xe5, 0x6a, 0x97, 0x3e, 0x1c, 0x0d, 0x65, 0x3e, 0x28, 0x04, 0xba, 0xbd,
  0x12, 0x5d, 0x8e, 0x3e, 0x83, 0xc8, 0x34, 0x3e, 0x58, 0x7c, 0x13, 0xbe,
  0x48, 0xb8, 0x2f, 0xbd, 0x64, 0x22, 0x34, 0xbe, 0x09, 0xec, 0x3e, 0x3e,
  0x55, 0x22, 0x31, 0x3d, 0xff, 0x20, 0x60, 0x3e, 0x24, 0xc3, 0xda, 0x3d,
  0xec, 0x42, 0x16, 0x3e, 0x65, 0x23, 0xd3, 0xbe, 0x05, 0xaf, 0x2a, 0x3d,
  0x5c, 0x05, 0x3e, 0x3e, 0xcd, 0x22, 0xcd, 0x3d, 0x1d, 0x53, 0x3a, 0x3e,
  0xee, 0xe8, 0xac, 0x3d, 0x3a, 0x37, 0xcb, 0x3e, 0x7b, 0x26, 0xe4, 0xbc,
  0xc9, 0x34, 0xc6, 0xbd, 0x2c, 0x56, 0x8b, 0xbe, 0x51, 0x85, 0x83, 0x3d,
  0x16, 0x7d, 0xe3, 0xbd, 0xb7, 0xb9, 0x65, 0xbe, 0x5c, 0xd7, 0xc3, 0xbd,
  0x6d, 0x32, 0xd0, 0x3c, 0xaf, 0x1d, 0x3a, 0xbd, 0x89, 0xfc, 0x09, 0xbe,
  0x46, 0x62, 0x11, 0xbe, 0x7e, 0x12, 0xec, 0xbb, 0x19, 0xd0, 0x10, 0x3e,
  0x19, 0x81, 0xb7, 0xbc, 0x2f, 0x18, 0x05, 0xbc, 0x03, 0xec, 0x83, 0x3e,
  0xa3, 0xf3, 0x9a, 0xbe, 0x40, 0x49, 0xe5, 0xbd, 0x76, 0x48, 0x77, 0xbd,
  0xef, 0xc7, 0x06, 0xbc, 0x5f, 0xb5, 0x30, 0xbe, 0x26, 0xfa, 0x9d, 0xbe,
  0xd4, 0xc9, 0x06, 0xbe, 0xce, 0x0d, 0x0d, 0xbd, 0xa6, 0x2b, 0xcc, 0xbd,
  0xbd, 0x7c, 0x1c, 0xbe, 0x6a, 0x28, 0x24, 0xbd, 0x19, 0x41, 0xd7, 0xbd,
  0x8f, 0xe3, 0x03, 0xbe, 0x20, 0x64, 0xfa, 0x3d, 0xad, 0xc2, 0x06, 0x3e,
  0x9b, 0xc9, 0x20, 0xbf, 0xee, 0xc6, 0x99, 0xbe, 0xaa, 0x7d, 0x29, 0xbd,
  0x40, 0x3d, 0x49, 0xbe, 0x25, 0x7f, 0x0b, 0xbd, 0xc7, 0x18, 0xe7, 0xbd,
  0x0e, 0x27, 0xda, 0xbc, 0x00, 0x9f, 0x6c, 0xbe, 0x4b, 0x0f, 0x08, 0xbe,
  0x8b, 0x44, 0x05, 0xbe, 0x18, 0x58, 0x2a, 0x3d, 0xe2, 0xa0, 0x14, 0xbc,
  0x93, 0x46, 0x2c, 0xbd, 0xc5, 0xc7, 0x0f, 0xbe, 0xb8, 0x05, 0x9c, 0x3c,
  0xbe, 0xaf, 0x3c, 0xbe, 0xdb, 0xe6, 0xb0, 0xbe, 0xff, 0x72, 0x3f, 0xbe,
  0xb8, 0x5c, 0x1a, 0x3e, 0xc8, 0x8b, 0x9b, 0xbc, 0x3d, 0xf4, 0xe6, 0x3d,
  0xaa, 0xbb, 0x81, 0xbe, 0xa8, 0x35, 0x54, 0xbe, 0x1c, 0x14, 0x1b, 0xbe,
  0xf6, 0x1f, 0x21, 0xbd, 0x53, 0x11, 0x20, 0x3c, 0x21, 0x7c, 0x22, 0x3d,
  0x78, 0x2a, 0xe3, 0xbd, 0x72, 0xc4, 0xfe, 0xbd, 0xb3, 0x77, 0xdd, 0xbd,
  0x38, 0xe8, 0xeb, 0x3c, 0xa7, 0x9a, 0xa1, 0x3d, 0x5b, 0x6c, 0x6d, 0xbe,
  0x03, 0x10, 0x0a, 0xbe, 0xb3, 0xf5, 0x89, 0x3d, 0x86, 0x34, 0x31, 0xbe,
  0xea, 0x01, 0xa3, 0x3d, 0xc5, 0x5c, 0x5f, 0xbe, 0x2b, 0x8a, 0xd2, 0xbd,
  0xb3, 0xa8, 0x93, 0xbe, 0x37, 0x3f, 0x9c, 0x3d, 0xa3, 0x5f, 0x4e, 0xbd,
  0x68, 0x2f, 0x15, 0xbe, 0x34, 0x40, 0x21, 0xbe, 0x40, 0x80, 0x80, 0xbd,
  0x32, 0x15, 0x3d, 0x3d, 0x08, 0xdf, 0xc9, 0xbe, 0xa8, 0xd3, 0xcc, 0x3d,
  0x7d, 0x01, 0x98, 0xbd, 0x83, 0x01, 0x8c, 0xbe, 0xd7, 0x27, 0xb3, 0x3c,
  0x9a, 0x39, 0x0d, 0xbe, 0xa3, 0xd2, 0xa8, 0x3c, 0x71, 0xaf, 0x6e, 0xbe,
  0x31, 0xf1, 0x6e, 0xbe, 0x02, 0xb1, 0x5c, 0xbe, 0x0b, 0xfd, 0xa1, 0xbd,
  0xb7, 0x4d, 0xe6, 0xbd, 0xe7, 0x69, 0x0d, 0xbe, 0x75, 0x5d, 0x27, 0xbe,
  0x99, 0xfd, 0x9a, 0x3d, 0xf1, 0x5d, 0x3d, 0xbe, 0xb1, 0x54, 0x10, 0xbe,
  0x6b, 0x3e, 0x78, 0x3c, 0x0f, 0xcf, 0x7e, 0xbe, 0xa8, 0xed, 0x73, 0xbd,
  0xcf, 0x1b, 0x20, 0xbc, 0x37, 0x43, 0xa5, 0xbd, 0xcb, 0x72, 0x71, 0xbb,
  0x62, 0x37, 0x29, 0x3d, 0x70, 0x1e, 0xf1, 0x3b, 0x86, 0xc0, 0x14, 0xbe,
  0xb7, 0x16, 0x76, 0xbe, 0x9b, 0x24, 0xd3, 0xbd, 0x1d, 0x0c, 0x90, 0xbc,
  0x43, 0xed, 0x5c, 0x3d, 0x0a, 0x1f, 0x1a, 0xbe, 0xea, 0x89, 0xbf, 0xbd,
  0x4a, 0x5e, 0x0a, 0x3e, 0xee, 0x69, 0xd9, 0xbd, 0x10, 0x2a, 0x47, 0xbe,
  0x2e, 0x97, 0x53, 0xbe, 0xfb, 0xe1, 0x1e, 0xbe, 0xa0, 0x8a, 0xb4, 0x3c,
  0x57, 0xae, 0x18, 0x3e, 0x9b, 0x07, 0x88, 0xbe, 0x6e, 0xb1, 0x9b, 0xbd,
  0x8c, 0x8e, 0x7d, 0xbe, 0xd4, 0xd1, 0xcc, 0xbc, 0xcc, 0x37, 0x05, 0x3d,
  0x29, 0xd7, 0xd1, 0x3d, 0x29, 0x00, 0xb8, 0x3c, 0xea, 0x36, 0x4e, 0x3d,
  0x1e, 0xfa, 0x1a, 0xbd, 0x55, 0x73, 0x31, 0x3e, 0x40, 0x60, 0x0b, 0xbe,
  0x75, 0x6c, 0x86, 0x3d, 0xdb, 0xe2, 0x8f, 0xbe, 0xdc, 0x68, 0x1e, 0x3e,
  0x8c, 0x19, 0xdd, 0xbd, 0xbe, 0x75, 0x9d, 0xbd, 0x1e, 0x87, 0xae, 0xbb,
  0xec, 0x04, 0x17, 0xbe, 0xda, 0x57, 0x88, 0xbe, 0x78, 0xb1, 0xd9, 0xbd,
  0x4f, 0xd7, 0x22, 0xbd, 0x29, 0xda, 0xa4, 0x3c, 0x79, 0xdb, 0x42, 0xbe,
  0xfe, 0xdc, 0x39, 0xbe, 0x46, 0xc7, 0x1f, 0x3e, 0xc1, 0x60, 0x28, 0x3e,
  0x52, 0x46, 0xa3, 0xbd, 0xf5, 0x72, 0x8a, 0xbc, 0xd9, 0x4a, 0x47, 0xbe,
  0x2b, 0x54, 0xcc, 0xbd, 0x16, 0xe0, 0x29, 0xbe, 0x38, 0x51, 0xad, 0x3d,
  0x8c, 0x60, 0x82, 0x3d, 0x53, 0x42, 0x4c, 0x3c, 0x12, 0x66, 0x8e, 0x3d,
  0x1f, 0xb0, 0x44, 0xbe, 0xae, 0x00, 0x92, 0x3d, 0x7f, 0xb2, 0x48, 0xbe,
  0xd0, 0x49, 0x3a, 0xbd, 0x55, 0xfa, 0xce, 0x3c, 0x91, 0xfc, 0x8d, 0xbc,
  0xdb, 0xdf, 0x63, 0xbd, 0xd7, 0x83, 0x28, 0xbe, 0x3c, 0xe6, 0xee, 0xbd,
  0x71, 0x21, 0xf4, 0x3d, 0x24, 0xdb, 0xdc, 0x3d, 0x94, 0x44, 0xaa, 0x3a,
  0x64, 0x25, 0xea, 0xbd, 0xbb, 0xcf, 0x79, 0xbe, 0x84, 0x1b, 0x85, 0xbe,
  0xa4, 0x87, 0x64, 0x3c, 0x93, 0x15, 0x91, 0xbe, 0x0f, 0xe5, 0x42, 0x3d,
  0x65, 0x79, 0x94, 0xbd, 0xf1, 0xbc, 0x98, 0xbe, 0xa2, 0xa0, 0x01, 0xbd,
  0xb0, 0x18, 0x84, 0xbc, 0x0a, 0x22, 0x8e, 0xbd, 0x1f, 0x3c, 0xea, 0x3d,
  0xe5, 0xa9, 0x86, 0x3d, 0xe1, 0x50, 0x41, 0xbe, 0x76, 0x92, 0x0b, 0xbe,
  0xca, 0x27, 0x1b, 0xbe, 0xdf, 0x0d, 0x0b, 0xbe, 0x6d, 0xc4, 0xe0, 0xbd,
  0x54, 0x27, 0x8c, 0x3c, 0xe6, 0xa0, 0xa6, 0xbd, 0xa3, 0x19, 0x97, 0xbd,
  0x3d, 0xfc, 0x96, 0xbd, 0xd2, 0xda, 0x6c, 0xbe, 0xfd, 0xb5, 0x8d, 0xbe,
  0x63, 0x65, 0x2d, 0xbd, 0x42, 0xc9, 0xfb, 0x3d, 0xc9, 0x36, 0xe9, 0x3d,
  0x0b, 0x2f, 0x69, 0xbe, 0xfb, 0x06, 0xe7, 0x3d, 0x8d, 0x84, 0x81, 0xbe,
  0x53, 0x36, 0x98, 0xbd, 0x99, 0x1b, 0x28, 0xbe, 0x2f, 0xd1, 0xd3, 0xbd,
  0x5c, 0xd5, 0x5e, 0xbe, 0xb1, 0x7a, 0x72, 0xbc, 0x34, 0x32, 0xb1, 0xbd,
  0x30, 0xa4, 0xb2, 0x3d, 0x0d, 0xe7, 0xae, 0xbd, 0xb2, 0xaa, 0x09, 0xbe,
  0x81, 0xfb, 0x7d, 0xbd, 0x63, 0x7b, 0x46, 0x3e, 0xa0, 0xc4, 0x97, 0x3e,
  0xd0, 0xe9, 0xc8, 0x3e, 0x31, 0x03, 0x11, 0x3e, 0xe6, 0x36, 0xcc, 0x3e,
  0xb0, 0x88, 0x13, 0x3d, 0xe6, 0x73, 0x71, 0xbe, 0x66, 0x66, 0x5e, 0x3d,
  0x00, 0x18, 0x99, 0xbe, 0xa6, 0x4f, 0xb1, 0x3c, 0x75, 0x34, 0x67, 0x3e,
  0x03, 0x53, 0x86, 0xbd, 0x82, 0x45, 0xde, 0x3d, 0xf8, 0x86, 0x89, 0x3e,
  0xdd, 0x99, 0x02, 0xbf, 0x0e, 0x77, 0x9f, 0xbd, 0xd9, 0x98, 0x1a, 0x3d,
  0x54, 0x43, 0x34, 0x3e, 0x30, 0x77, 0x00, 0xbe, 0x16, 0x98, 0x2d, 0xbe,
  0x12, 0x7a, 0xb6, 0xbc, 0x9f, 0xbe, 0x61, 0x3d, 0x91, 0x72, 0x4d, 0xbe,
  0x62, 0xc6, 0x72, 0xbd, 0xc1, 0x8c, 0xc8, 0x3d, 0x03, 0x9d, 0xc1, 0xbd,
  0xa9, 0x7e, 0xad, 0xbd, 0xb5, 0x65, 0xc7, 0x3d, 0x2f, 0xbd, 0xea, 0xbc,
  0x41, 0xb7, 0x06, 0x3d, 0xaf, 0x17, 0x7a, 0xbe, 0x46, 0xe7, 0xc2, 0xbd,
  0x46, 0x9a, 0xbf, 0xbe, 0x9f, 0xf3, 0xa6, 0x3d, 0xad, 0xe5, 0x3d, 0xbe,
  0xdf, 0x21, 0x6c, 0x3c, 0x4b, 0x37, 0x04, 0x3e, 0x74, 0x2f, 0x9e, 0xbe,
  0xdf, 0xed, 0xb5, 0xbd, 0x9b, 0xeb, 0xe3, 0xbd, 0xf3, 0x74, 0xc8, 0xbd,
  0x33, 0x93, 0xca, 0xbe, 0xbb, 0xd7, 0xc7, 0xbd, 0x59, 0x02, 0x10, 0xbe,
  0x85, 0x27, 0x38, 0xbe, 0x30, 0x06, 0x50, 0xbe, 0x9c, 0x6a, 0xae, 0xbd,
  0x84, 0xeb, 0x03, 0xbe, 0x6a, 0x53, 0x9f, 0xbe, 0x1d, 0xd7, 0x70, 0xbd,
  0x91, 0x9e, 0x17, 0x3d, 0xb0, 0xbe, 0xe0, 0xbd, 0xa3, 0x9c, 0xfe, 0xbe,
  0xb8, 0x9e, 0x54, 0xbe, 0x4d, 0x42, 0x93, 0xbd, 0x79, 0x9a, 0xa8, 0xbe,
  0x2e, 0x4d, 0x81, 0xbd, 0x2c, 0xf7, 0xae, 0xbe, 0xa3, 0x38, 0xbb, 0xbe,
  0x8b, 0x4b, 0x0b, 0xbe, 0xc5, 0xfd, 0x57, 0xbe, 0x30, 0xd7, 0x21, 0xbd,
  0x6e, 0x93, 0x0d, 0x3d, 0xf3, 0x39, 0xb5, 0xbd, 0x3c, 0x14, 0x54, 0xbc,
  0xd7, 0xfa, 0xe2, 0xbd, 0xce, 0xfd, 0x40, 0x3b, 0x49, 0x39, 0x51, 0x3d,
  0x37, 0x00, 0xc7, 0xbe, 0x69, 0x66, 0x25, 0xbe, 0x6a, 0x0c, 0x95, 0xbe,
  0xcb, 0xf1, 0xa8, 0xbe, 0xe8, 0xf7, 0x9f, 0xbd, 0xec, 0x26, 0x20, 0xbe,
  0x12, 0x88, 0x45, 0x3e, 0x8f, 0x4d, 0xdc, 0xbd, 0xaf, 0x5c, 0x57, 0xbe,
  0x2d, 0xb8, 0x9a, 0x3c, 0xfc, 0x9e, 0x29, 0x3d, 0xb4, 0xbd, 0x15, 0xbe,
  0x50, 0x09, 0x87, 0xba, 0x83, 0x6d, 0xaa, 0x3d, 0xb8, 0x19, 0x1a, 0xbd,
  0x5c, 0xfe, 0x14, 0x3e, 0xa4, 0x9b, 0xc1, 0xbd, 0xb1, 0xd2, 0xa9, 0x3d,
  0xf5, 0x8b, 0x3b, 0xbe, 0x45, 0x17, 0x86, 0xbe, 0xa6, 0xbe, 0x71, 0xbd,
  0x86, 0xcc, 0x72, 0x3c, 0x9f, 0xcb, 0x30, 0x3e, 0xac, 0x1c, 0xf9, 0xbd,
  0xb6, 0x51, 0x0e, 0x3d, 0x11, 0x3c, 0xa5, 0x3e, 0x15, 0x3e, 0x03, 0xbe,
  0x55, 0x09, 0x85, 0x3c, 0xeb, 0x8c, 0xa1, 0x3e, 0x03, 0xe1, 0xc2, 0xbd,
  0x14, 0x93, 0xd1, 0x3d, 0xf1, 0x1d, 0x60, 0xbc, 0x87, 0xdc, 0x3f, 0x3e,
  0x8b, 0xd9, 0xa8, 0x3b, 0xa0, 0xb9, 0x94, 0x3c, 0x32, 0xfc, 0x2c, 0x3d,
  0x86, 0x35, 0x1c, 0x3d, 0xc2, 0x89, 0x37, 0xbc, 0x40, 0x28, 0x1c, 0xbd,
  0x68, 0x54, 0x99, 0xbd, 0xab, 0x18, 0xb7, 0x3d, 0x11, 0x24, 0xd2, 0xbd,
  0xfa, 0xa3, 0x77, 0xbe, 0x52, 0x05, 0x05, 0xbe, 0xc5, 0x8e, 0xb8, 0xba,
  0x28, 0x37, 0x85, 0xbe, 0xb7, 0x48, 0x13, 0xbd, 0xa0, 0xab, 0x02, 0x3d,
  0x15, 0x21, 0x94, 0xbe, 0x58, 0x46, 0xe9, 0xbe, 0x15, 0xc5, 0xa3, 0xbe,
  0x3c, 0xa5, 0x3d, 0xbe, 0x31, 0xfc, 0x9f, 0xbd, 0xda, 0x43, 0x7b, 0xbe,
  0x1f, 0x2d, 0xbf, 0xbe, 0x64, 0x11, 0xe3, 0xbe, 0x76, 0x8c, 0x66, 0xbe,
  0xb7, 0x69, 0xc1, 0xbd, 0xbf, 0xbe, 0x40, 0xbe, 0xc6, 0xd8, 0xa6, 0xbd,
  0xea, 0x18, 0x8c, 0xbe, 0xdc, 0xf0, 0x9b, 0xbe, 0x27, 0x94, 0x0c, 0xbc,
  0x76, 0x82, 0xdc, 0xbd, 0x56, 0xdf, 0x2a, 0xbd, 0xac, 0xa2, 0xd4, 0xbe,
  0xad, 0x35, 0x1b, 0xbb, 0x64, 0x64, 0xc7, 0x3d, 0xc4, 0x91, 0x1e, 0xbe,
  0x3a, 0x8c, 0x7c, 0xbe, 0xbe, 0xf8, 0x1f, 0xbe, 0xd1, 0xd5, 0x5c, 0xbe,
  0x40, 0x58, 0x14, 0xbe, 0x1c, 0x99, 0x8b, 0xbd, 0x09, 0xeb, 0xb0, 0xbc,
  0xcf, 0x08, 0xbb, 0xbd, 0x34, 0xf2, 0x93, 0xbe, 0xcc, 0xeb, 0x09, 0xbe,
  0xec, 0xf2, 0x30, 0xbe, 0x4d, 0x3e, 0x44, 0xbe, 0xc9, 0xcd, 0x86, 0xbe,
  0x88, 0xd4, 0xa7, 0xbe, 0x58, 0xf3, 0x28, 0x3d, 0x26, 0xc8, 0x42, 0x3e,
  0x30, 0xb3, 0x73, 0xbe, 0xbd, 0xc1, 0xc3, 0xbd, 0x33, 0x00, 0xb7, 0xbe,
  0xb6, 0x56, 0xab, 0xbc, 0xf7, 0xa5, 0x4c, 0xbe, 0xb8, 0xc3, 0x65, 0xbe,
  0xed, 0x9d, 0x16, 0xbe, 0x75, 0xeb, 0x94, 0xbd, 0xbd, 0xce, 0xa5, 0xbd,
  0x90, 0x2b, 0x97, 0xbd, 0xf1, 0x6c, 0xa4, 0xba, 0x52, 0xb4, 0x65, 0x3d,
  0x97, 0x27, 0x28, 0x3d, 0xa3, 0x32, 0xb0, 0xbe, 0xd7, 0xdd, 0x8b, 0xbe,
  0x89, 0x98, 0xb3, 0xba, 0xff, 0x7f, 0x8f, 0xbe, 0x44, 0xdd, 0xd4, 0xbe,
  0xe9, 0x3c, 0x60, 0xbe, 0x45, 0x92, 0x04, 0xbd, 0x06, 0xc6, 0x55, 0x3b,
  0x81, 0x2b, 0xca, 0xbe, 0x3a, 0xce, 0x7e, 0xbe, 0x11, 0x25, 0x0c, 0x3d,
  0x30, 0x4f, 0x01, 0x3e, 0xec, 0x85, 0xe0, 0x3e, 0x4b, 0xcf, 0xb8, 0x3c,
  0xcd, 0x93, 0x27, 0xbe, 0xc5, 0x21, 0xa0, 0xbd, 0x3a, 0x46, 0x6f, 0x3d,
  0x4a, 0xd4, 0x92, 0xbe, 0x09, 0x9d, 0x93, 0xbe, 0xcd, 0x63, 0x56, 0xbd,
  0xf2, 0x51, 0x42, 0x3c, 0x26, 0x63, 0x2b, 0x3e, 0x77, 0x03, 0x26, 0xbe,
  0x63, 0x86, 0x09, 0x3d, 0x52, 0x83, 0xdc, 0x3e, 0x1d, 0x21, 0x74, 0x3d,
  0x43, 0x4b, 0x7f, 0xbc, 0xc6, 0xe2, 0x04, 0x3e, 0x05, 0x09, 0xb4, 0x3d,
  0x1f, 0x31, 0xb7, 0x3c, 0xcf, 0xc5, 0x5a, 0xbd, 0xd3, 0x7f, 0x1e, 0xbd,
  0xa5, 0x97, 0x0c, 0x3e, 0x48, 0xd0, 0x6d, 0xbe, 0x5e, 0x0a, 0x29, 0xbe,
  0xdb, 0x2a, 0x0a, 0xbd, 0x6d, 0x2e, 0xbd, 0x3d, 0x4f, 0x50, 0xea, 0x3d,
  0x4b, 0x03, 0x88, 0x3d, 0x5d, 0x3f, 0x42, 0x3e, 0x75, 0x38, 0x35, 0x3e,
  0x01, 0x52, 0x4c, 0xbe, 0x90, 0xda, 0x6f, 0x3e, 0x90, 0x39, 0x08, 0x3e,
  0x28, 0x44, 0x45, 0xbe, 0x3b, 0xa5, 0x5c, 0x3e, 0x50, 0x8c, 0x4f, 0xbd,
  0xad, 0x26, 0xe7, 0x3d, 0xc5, 0xe6, 0x86, 0x3d, 0x19, 0xd7, 0x4a, 0xbe,
  0x3c, 0x7a, 0xe6, 0x3d, 0xd4, 0xd7, 0xe0, 0xbd, 0x76, 0x29, 0xe8, 0x3c,
  0x4b, 0xec, 0x42, 0x3e, 0xf5, 0x75, 0xc8, 0xbd, 0x22, 0xbc, 0xa7, 0x3e,
  0xe0, 0xf4, 0x60, 0x3a, 0xe9, 0x46, 0x5c, 0xbe, 0xbe, 0x02, 0x86, 0xbd,
  0x31, 0x2c, 0x09, 0x3e, 0x40, 0x56, 0x22, 0xbe, 0xc2, 0xc6, 0x51, 0xbd,
  0x2b, 0xdf, 0xb9, 0xbd, 0x46, 0xd8, 0xc5, 0xbd, 0x0e, 0xd7, 0x09, 0xbe,
  0xda, 0xd0, 0xa9, 0xbd, 0xb9, 0xe6, 0xb4, 0xbd, 0x6b, 0x26, 0xe4, 0xbd,
  0x7d, 0x83, 0x8a, 0xbd, 0xe1, 0x60, 0x0e, 0xbd, 0xfc, 0xf5, 0x00, 0xbe,
  0x66, 0x00, 0x4f, 0xbe, 0x24, 0x74, 0xaa, 0x3d, 0x0d, 0x69, 0xe9, 0xbc,
  0xc8, 0x3c, 0x71, 0xbe, 0x94, 0xd5, 0x92, 0x3c, 0x32, 0xcb, 0xea, 0x3d,
  0x88, 0x83, 0xb3, 0xbd, 0xa1, 0x33, 0x3e, 0x3e, 0x11, 0x3b, 0x3e, 0xbe,
  0x60, 0xef, 0x3e, 0x3d, 0xd8, 0x95, 0x3d, 0x3c, 0xcf, 0x8b, 0x18, 0x3d,
  0xe1, 0xea, 0x5c, 0xbe, 0xc6, 0xdb, 0x88, 0xbe, 0xcf, 0x0b, 0x24, 0xbe,
  0x33, 0xea, 0x1b, 0xbe, 0x12, 0xc8, 0x1b, 0x3d, 0xda, 0x1d, 0x65, 0xbe,
  0x70, 0xfb, 0xc6, 0xbd, 0xb2, 0x42, 0x8c, 0xbe, 0xf4, 0x3b, 0x9e, 0xbd,
  0xff, 0x92, 0x8b, 0x3d, 0x8f, 0xea, 0xd8, 0x3c, 0x2d, 0x1b, 0x6d, 0xbc,
  0xab, 0x28, 0x9e, 0xbc, 0xe1, 0x82, 0xf6, 0xbd, 0x7c, 0x67, 0x70, 0xbd,
  0x1a, 0xf0, 0x12, 0xbe, 0x94, 0x77, 0xa2, 0x3c, 0x8d, 0x9d, 0x5b, 0xbe,
  0xf6, 0xfe, 0xa9, 0x3d, 0x64, 0xcf, 0x99, 0x3d, 0x0e, 0xbd, 0x2c, 0xbe,
  0x44, 0x33, 0xce, 0xbd, 0x1f, 0xc8, 0x6d, 0xbc, 0x70, 0x21, 0x95, 0xbe,
  0x6a, 0x67, 0x40, 0xbe, 0xda, 0x2d, 0x73, 0xbe, 0x47, 0x07, 0x3e, 0x3d,
  0xc7, 0x85, 0x02, 0xbe, 0x65, 0x77, 0xf7, 0x3d, 0x1d, 0x60, 0xa8, 0xbd,
  0xae, 0x0f, 0x04, 0xbe, 0x12, 0xaf, 0x6e, 0xbe, 0x8e, 0x6d, 0x2a, 0x3e,
  0xf4, 0x71, 0xe2, 0xbd, 0x05, 0xbc, 0x0d, 0x3e, 0xdf, 0x40, 0x05, 0x3c,
  0xa9, 0x32, 0x86, 0xbd, 0x82, 0xf4, 0xe1, 0xbd, 0xb9, 0x12, 0x8a, 0xbe,
  0xdd, 0xe1, 0x92, 0xbe, 0x9e, 0xa4, 0x9f, 0x3d, 0x60, 0x51, 0x1e, 0xbe,
  0xfe, 0xbd, 0xb4, 0x3d, 0x56, 0x1d, 0x24, 0x3e, 0x5b, 0xbc, 0x37, 0xbe,
  0x19, 0x8b, 0x76, 0xbe, 0x28, 0xc7, 0xb6, 0x3d, 0x8f, 0x17, 0xe3, 0x3d,
  0x03, 0xf0, 0xe5, 0xbd, 0x24, 0x25, 0xcb, 0xbc, 0xdc, 0x11, 0x70, 0xbe,
  0x33, 0xe3, 0x83, 0xbe, 0xbf, 0x38, 0x04, 0x3c, 0x2b, 0xdb, 0x12, 0xbe,
  0x83, 0x88, 0xcc, 0x3d, 0x0a, 0x72, 0xba, 0xbd, 0x10, 0x98, 0x6d, 0x3d,
  0x72, 0xbf, 0xeb, 0xbd, 0x9a, 0x28, 0xaf, 0x3c, 0x2a, 0x63, 0x16, 0x3e,
  0xd3, 0x4a, 0xa3, 0xbd, 0xcf, 0x4e, 0x6c, 0xbe, 0xe2, 0x6b, 0x81, 0x3d,
  0x3f, 0x30, 0x39, 0xbe, 0x88, 0x1d, 0x1c, 0xbe, 0xd5, 0x29, 0x2f, 0xbe,
  0x67, 0x92, 0xf2, 0x3c, 0xe3, 0x94, 0xff, 0xbd, 0xcd, 0x55, 0x4d, 0xbe,
  0x35, 0x50, 0x87, 0xbd, 0xb8, 0xf2, 0x74, 0xbe, 0xea, 0x64, 0x33, 0xbd,
  0xd4, 0x00, 0x27, 0xbe, 0x86, 0xec, 0x08, 0xbe, 0x1a, 0x37, 0x67, 0xbc,
  0xa8, 0xa7, 0xe0, 0xbd, 0x66, 0x96, 0x26, 0xbd, 0xef, 0x1c, 0x84, 0xbc,
  0x76, 0x94, 0x49, 0xbd, 0x95, 0x26, 0x3b, 0xbd, 0xc6, 0x1b, 0xc9, 0xbd,
  0xbd, 0xe1, 0x9f, 0xbd, 0x27, 0x04, 0xf3, 0x3c, 0xb9, 0xe2, 0x0c, 0xbe,
  0xb1, 0xb4, 0xb6, 0xbd, 0x85, 0x10, 0x98, 0xbd, 0x49, 0x9e, 0xf2, 0x3d,
  0x4e, 0x30, 0xe0, 0x3b, 0x25, 0x45, 0xfd, 0xbd, 0x22, 0x46, 0xa5, 0xbe,
  0x92, 0x08, 0xe3, 0x3c, 0x3c, 0x14, 0x76, 0xbe, 0x09, 0x9a, 0xd3, 0xbe,
  0xfb, 0x49, 0x08, 0xbe, 0x42, 0x99, 0x47, 0xbc, 0xd2, 0x00, 0x5f, 0xbe,
  0x17, 0x4e, 0xad, 0x3d, 0x41, 0xe8, 0x73, 0xbe, 0xc0, 0x24, 0x6a, 0xbe,
  0xc0, 0xbc, 0x3f, 0xbe, 0x8a, 0x31, 0xfa, 0xbc, 0xad, 0xaf, 0x29, 0xbe,
  0x7d, 0x0f, 0xab, 0xbd, 0xd7, 0x97, 0xaa, 0x3a, 0x2c, 0xb8, 0xd9, 0x3d,
  0xf2, 0x7c, 0x23, 0xbd, 0x6b, 0x23, 0xe3, 0x3a, 0x82, 0xca, 0xa4, 0xbd,
  0xa1, 0xf5, 0x13, 0xbe, 0x43, 0x65, 0xb2, 0xbe, 0x4d, 0x5b, 0xfa, 0xbd,
  0xb6, 0x4b, 0x0e, 0xbe, 0x8b, 0xce, 0xe9, 0x3c, 0x26, 0x03, 0x93, 0xbd,
  0xcf, 0xdb, 0x45, 0xbe, 0x7c, 0x29, 0xbd, 0xbd, 0x05, 0xe9, 0x30, 0x3e,
  0xf9, 0x56, 0x19, 0x3e, 0xb8, 0x61, 0x82, 0xbe, 0x26, 0x7e, 0x40, 0xbc,
  0xec, 0xdd, 0xba, 0x3d, 0xdb, 0xd1, 0xcc, 0xbd, 0x9f, 0x35, 0x2f, 0x3c,
  0x39, 0xe3, 0xee, 0xbd, 0x6a, 0x47, 0x45, 0x3e, 0x47, 0xbc, 0x6a, 0x3e,
  0xc9, 0xa8, 0x3b, 0x3c, 0x26, 0xb4, 0x05, 0x3e, 0x3f, 0xa1, 0x6c, 0x3e,
  0xfe, 0x47, 0x35, 0xbd, 0x7a, 0x22, 0x39, 0xbd, 0x65, 0xa5, 0x88, 0x3d,
  0x8e, 0x03, 0x1f, 0x3e, 0xd5, 0x29, 0xef, 0xbd, 0xf9, 0x03, 0x50, 0x3e,
  0x22, 0x39, 0x45, 0x3d, 0xcb, 0xe8, 0x0f, 0xbe, 0x91, 0xf9, 0xd9, 0xbd,
  0x08, 0xd3, 0x85, 0x3e, 0x79, 0xfa, 0x79, 0xbe, 0x0b, 0xc7, 0x18, 0xbd,
  0x60, 0xa8, 0x79, 0xbc, 0xeb, 0xc0, 0xb4, 0x3d, 0x21, 0xec, 0x71, 0x3e,
  0x29, 0xb4, 0x39, 0x3e, 0xf4, 0x4f, 0x10, 0x3c, 0xbc, 0x6f, 0x02, 0x3d,
  0x0e, 0x72, 0x8f, 0x3d, 0x41, 0xce, 0x3a, 0x3b, 0x17, 0xc7, 0xa5, 0x3b,
  0xe5, 0x5c, 0x69, 0x3e, 0x43, 0x87, 0x75, 0x3d, 0xa3, 0x05, 0x83, 0x3d,
  0x25, 0x6b, 0xab, 0xbd, 0xfd, 0xed, 0x7d, 0x3e, 0xab, 0x69, 0xae, 0x3d,
  0x2c, 0x18, 0x82, 0x3e, 0x03, 0x74, 0x14, 0xbe, 0x6d, 0xd7, 0x1d, 0x3b,
  0x78, 0x51, 0x76, 0x3e, 0x2e, 0x08, 0xb6, 0xbd, 0x3c, 0xfa, 0x3b, 0xbe,
  0x9a, 0x8a, 0xf3, 0xbd, 0x83, 0xac, 0x5e, 0xbe, 0x7c, 0x36, 0x35, 0xbd,
  0xea, 0x30, 0x6e, 0x3d, 0x73, 0x39, 0x55, 0x3e, 0xd2, 0x2e, 0x14, 0xbd,
  0x19, 0x39, 0xaa, 0x3d, 0xce, 0x19, 0x8b, 0xbe, 0x54, 0x12, 0x32, 0x3e,
  0xe9, 0x26, 0xcb, 0xbd, 0x9d, 0xfa, 0x6b, 0x3e, 0xf0, 0xa7, 0x93, 0xbe,
  0xb5, 0x8a, 0x1d, 0xbe, 0x02, 0xe0, 0x22, 0x3d, 0xd3, 0x25, 0xa6, 0xbd,
  0x8f, 0xbf, 0x96, 0xbe, 0x0c, 0x2c, 0x9a, 0xbe, 0xdd, 0x58, 0x55, 0x3c,
  0xcd, 0x6c, 0x4d, 0x3d, 0x3d, 0x20, 0x85, 0xbd, 0xb4, 0x71, 0x58, 0x3e,
  0xcd, 0x12, 0x17, 0xbe, 0xed, 0x8e, 0x87, 0xbe, 0x5a, 0xc0, 0x7e, 0x3d,
  0x23, 0x3c, 0xff, 0xbd, 0x78, 0x70, 0x0c, 0xbe, 0x8c, 0xd9, 0xaf, 0xbd,
  0x0c, 0x1f, 0x97, 0x3d, 0xa2, 0xc3, 0x6d, 0xbd, 0xf7, 0x99, 0x24, 0xbe,
  0xc3, 0xda, 0x14, 0x3e, 0x64, 0x39, 0xdd, 0xbd, 0xec, 0xf1, 0x04, 0xbe,
  0x70, 0xb2, 0x15, 0xbd, 0xea, 0xb0, 0x59, 0xbe, 0x1b, 0x08, 0xa2, 0x3b,
  0x27, 0x9f, 0x66, 0x3e, 0xb9, 0x96, 0x82, 0x3d, 0x81, 0x66, 0x06, 0xbe,
  0x23, 0x6d, 0xcf, 0xbe, 0x11, 0x9a, 0xa1, 0xbd, 0x1e, 0x69, 0xb6, 0x3c,
  0x2c, 0xdb, 0xe9, 0xbe, 0xba, 0x3b, 0xda, 0xbc, 0x29, 0x23, 0x99, 0xbe,
  0xb7, 0x26, 0xd1, 0xbd, 0x22, 0xde, 0xf9, 0x3e, 0x7e, 0xeb, 0x2f, 0xbe,
  0xf4, 0xf3, 0x2b, 0x3d, 0x10, 0x6a, 0x42, 0xbe, 0x8d, 0xa8, 0x15, 0xbe,
  0x39, 0x2b, 0x65, 0xbe, 0x1b, 0xba, 0x9e, 0x3e, 0xd1, 0x98, 0xfa, 0xbc,
  0xbe, 0xfe, 0xcc, 0x3d, 0x31, 0x32, 0xc5, 0xbd, 0x6c, 0xa2, 0x97, 0x3d,
  0x92, 0x92, 0x20, 0x3e, 0xf7, 0x49, 0x50, 0xbd, 0x66, 0x79, 0x28, 0xbd,
  0x70, 0x51, 0x4c, 0xbe, 0x2a, 0xdc, 0x82, 0xbd, 0x88, 0x12, 0xe3, 0x3d,
  0x2c, 0xdb, 0xa5, 0x3c, 0x57, 0x27, 0xcd, 0x3d, 0xab, 0x7e, 0x08, 0x3e,
  0xe6, 0x90, 0x90, 0x3a, 0x9c, 0x99, 0xc5, 0xbd, 0xef, 0xf2, 0x3b, 0x3e,
  0x3f, 0x2c, 0x9f, 0x3d, 0xef, 0x4f, 0x62, 0x3d, 0x65, 0x4f, 0xe2, 0xbc,
  0xe1, 0x38, 0x55, 0x3c, 0x70, 0x06, 0x4a, 0x3e, 0x10, 0x20, 0x21, 0xbe,
  0x7e, 0xda, 0xd1, 0x3d, 0xa2, 0x18, 0x6a, 0x3d, 0x23, 0x2a, 0xd3, 0x3d,
  0xe7, 0xa1, 0x88, 0xbc, 0x1f, 0x40, 0x01, 0x3e, 0x2b, 0x5e, 0x4a, 0x3d,
  0xb6, 0xa5, 0xb2, 0x3d, 0x3e, 0xec, 0x75, 0x3d, 0xef, 0x71, 0x96, 0xbc,
  0x94, 0x29, 0xa1, 0x3d, 0x1f, 0xef, 0x00, 0xbe, 0x79, 0xf7, 0x0e, 0xbe,
  0x7a, 0xdc, 0xc3, 0xb8, 0x5a, 0xd6, 0x2f, 0x3e, 0xd5, 0x91, 0x35, 0x3e,
  0x28, 0xfe, 0x92, 0x3e, 0xc9, 0xe2, 0x15, 0x3e, 0xa0, 0x9e, 0x81, 0xbd,
  0x73, 0x90, 0x51, 0x3e, 0x21, 0xa9, 0x36, 0xbc, 0xee, 0x33, 0xb1, 0x3d,
  0x76, 0x42, 0x11, 0x3d, 0xc7, 0xae, 0x9a, 0x3e, 0x92, 0xfd, 0x0d, 0x3e,
  0x80, 0x60, 0xe8, 0x3e, 0xcd, 0x38, 0x04, 0xbe, 0x9d, 0xcb, 0x7e, 0xbb,
  0x1f, 0x2b, 0x30, 0x3e, 0x01, 0x61, 0x68, 0xbe, 0xda, 0x6e, 0x24, 0x3e,
  0xc2, 0x13, 0x50, 0x3e, 0xa3, 0x59, 0x7c, 0x3e, 0x35, 0x97, 0x53, 0x3c,
  0x5c, 0x2b, 0x07, 0xbe, 0x94, 0x68, 0x84, 0x3e, 0x12, 0x23, 0x34, 0x3d,
  0xb6, 0xc1, 0x30, 0xbd, 0xf3, 0x45, 0x81, 0xbd, 0xd8, 0x1c, 0xa7, 0x3e,
  0xf0, 0x52, 0x50, 0xbe, 0x99, 0x29, 0x0f, 0xbe, 0x8c, 0x8e, 0x21, 0x3e,
  0x59, 0xe5, 0xa3, 0xbd, 0xf9, 0x39, 0x56, 0xbe, 0x6a, 0x10, 0x3d, 0xbe,
  0x71, 0xf0, 0x34, 0x3d, 0x64, 0xd0, 0xd4, 0x3d, 0xe6, 0xa9, 0x06, 0x3e,
  0x47, 0xd9, 0x3c, 0xbd, 0x4c, 0x1f, 0x60, 0xbd, 0xcc, 0xab, 0x9c, 0x3d,
  0x25, 0x9e, 0x8f, 0x3e, 0x44, 0xb5, 0xa4, 0xbd, 0x48, 0x87, 0x86, 0xbc,
  0xee, 0x8d, 0x71, 0x3d, 0xff, 0xa3, 0x82, 0xbd, 0xc2, 0x5d, 0x8f, 0xbd,
  0xb6, 0x47, 0xc0, 0x3d, 0xdd, 0x84, 0x25, 0xbd, 0x91, 0x6a, 0x6f, 0xbe,
  0x17, 0x51, 0x23, 0x3e, 0x22, 0x22, 0xab, 0xbd, 0x77, 0x67, 0x00, 0x3e,
  0x58, 0x1a, 0x08, 0xbe, 0xe4, 0x25, 0x39, 0xbe, 0x89, 0x2f, 0x8f, 0xbe,
  0x81, 0xb5, 0xdf, 0xbd, 0xe1, 0x06, 0x3e, 0x3e, 0x0c, 0x28, 0x28, 0xbd,
  0xaf, 0x16, 0x07, 0xbe, 0x4c, 0xfb, 0x14, 0xbd, 0x42, 0xd4, 0x71, 0xbd,
  0x38, 0x20, 0x27, 0x3d, 0xb5, 0x94, 0xe4, 0xbd, 0x14, 0x76, 0x95, 0xbd,
  0x0d, 0x55, 0x3c, 0xbe, 0x20, 0x7b, 0xb3, 0x3d, 0xea, 0x50, 0x9e, 0x3e,
  0x6c, 0xdb, 0xf9, 0x3d, 0x74, 0xf5, 0x1c, 0xbd, 0x6a, 0x77, 0x4c, 0x3d,
  0x26, 0x33, 0x7b, 0xbc, 0x27, 0x1d, 0x59, 0xbd, 0xf6, 0xe3, 0x69, 0xbe,
  0x25, 0xc1, 0xca, 0x3d, 0x7f, 0xe1, 0x02, 0x3e, 0xfb, 0x40, 0x7e, 0x3e,
  0x3f, 0x02, 0xc9, 0x3d, 0xd1, 0xed, 0x61, 0x3e, 0xc8, 0x48, 0xb6, 0xbe,
  0xa9, 0x38, 0xaf, 0x3d, 0x4d, 0xbf, 0x0d, 0xbe, 0x06, 0xb8, 0xfa, 0xbd,
  0xb1, 0xdf, 0x15, 0xbd, 0xbb, 0x58, 0xbe, 0xb9, 0xd0, 0xe3, 0x87, 0x3e,
  0x0a, 0x63, 0xeb, 0x3b, 0xaf, 0x6d, 0xea, 0x3c, 0x36, 0x3a, 0x90, 0x3c,
  0xe4, 0x9f, 0xd9, 0x3d, 0x5e, 0x95, 0xa9, 0xbe, 0xcc, 0xc0, 0x4c, 0xbe,
  0x24, 0x22, 0x06, 0xbc, 0x3f, 0x63, 0x5c, 0xbd, 0xbf, 0xb3, 0x1d, 0xbd,
  0xdd, 0x8d, 0x23, 0x3d, 0xa6, 0x28, 0xc2, 0xbc, 0x66, 0x1b, 0xf6, 0x3d,
  0x52, 0x5a, 0xf1, 0x3c, 0x73, 0xa6, 0x1c, 0x3e, 0x0b, 0xfe, 0xb1, 0x3d,
  0x6b, 0xbc, 0xc1, 0xbd, 0x71, 0x1e, 0x41, 0xbe, 0x08, 0x94, 0xc5, 0x3d,
  0xd5, 0x74, 0x33, 0xbe, 0x0b, 0xc5, 0x9f, 0xbd, 0xb0, 0x2c, 0xbb, 0xbe,
  0xc7, 0x56, 0x04, 0x3c, 0x58, 0xdc, 0x1e, 0xbe, 0x28, 0x93, 0xe3, 0xbc,
  0x0c, 0x04, 0x48, 0xbe, 0xd6, 0xbc, 0x4a, 0x3c, 0xd0, 0x5f, 0xf5, 0xbd,
  0xb3, 0x8e, 0xa8, 0xbc, 0xbc, 0x35, 0x2a, 0xbe, 0xaf, 0x33, 0x7c, 0xbe,
  0xdc, 0x91, 0x1d, 0xbe, 0x0a, 0x0c, 0x53, 0xbd, 0xf1, 0xe0, 0xfc, 0x3b,
  0x59, 0x10, 0xb0, 0x3d, 0xd4, 0xab, 0x75, 0xbb, 0x24, 0xe6, 0xd5, 0x3d,
  0xa4, 0x70, 0x93, 0xbe, 0x60, 0xb7, 0x13, 0x3e, 0xd4, 0x89, 0x7a, 0xbe,
  0x82, 0x67, 0x04, 0xbe, 0xec, 0x06, 0x2a, 0xbd, 0xb9, 0x48, 0x99, 0x3d,
  0xff, 0xdf, 0xd9, 0xbd, 0xe0, 0xe3, 0x63, 0x3d, 0x96, 0x2b, 0xb4, 0x3d,
  0x00, 0xeb, 0xf6, 0xbd, 0x64, 0x83, 0xd7, 0xbd, 0xdb, 0xb9, 0x34, 0xbd,
  0xf8, 0xd1, 0xa7, 0xbb, 0xc4, 0xd8, 0x67, 0xbe, 0x50, 0x95, 0x7f, 0xbe,
  0xaf, 0x9b, 0x48, 0x3e, 0x85, 0x58, 0x4d, 0xbc, 0xca, 0xe8, 0x9c, 0xbd,
  0x00, 0xe9, 0x6a, 0xbe, 0x99, 0xec, 0x07, 0xbe, 0x5c, 0x12, 0xd3, 0x3d,
  0x35, 0x7d, 0x15, 0xbd, 0x9b, 0x30, 0x24, 0xbe, 0x55, 0x0e, 0x24, 0xbc,
  0x10, 0xcb, 0x65, 0x3d, 0x5d, 0x9f, 0x94, 0x3d, 0xf3, 0xb3, 0x47, 0x3e,
  0xb2, 0xe7, 0x89, 0xbc, 0xb0, 0x4a, 0x09, 0xbe, 0x1d, 0xdd, 0xae, 0x3d,
  0xaa, 0x7b, 0x95, 0xbd, 0x1e, 0xe7, 0x72, 0x3d, 0x1a, 0x21, 0x93, 0xbd,
  0xcb, 0xa0, 0x0f, 0xbe, 0x3e, 0x35, 0xa4, 0xbc, 0x15, 0xb7, 0x9c, 0xbc,
  0xf7, 0x03, 0x02, 0x3d, 0xff, 0xb3, 0x77, 0x3c, 0x53, 0x8f, 0xfc, 0xbc,
  0xdb, 0x5f, 0x28, 0xbe, 0x69, 0x79, 0x8e, 0xbd, 0x42, 0x5c, 0x92, 0xbe,
  0x47, 0x90, 0xa4, 0xbc, 0xe4, 0xb9, 0xb9, 0xbd, 0x6b, 0xa4, 0x2b, 0xbe,
  0x82, 0xfd, 0x85, 0x3d, 0x82, 0x4f, 0xbb, 0xbd, 0x76, 0x07, 0x6a, 0xbb,
  0xbc, 0x80, 0x10, 0xbe, 0xb5, 0xb7, 0x8f, 0xbd, 0x51, 0x57, 0x10, 0xbe,
  0xd7, 0x56, 0xb3, 0xbd, 0xb6, 0x91, 0x89, 0xbd, 0xbb, 0x6b, 0x84, 0x3c,
  0x26, 0x89, 0x3c, 0xbe, 0x1c, 0x9c, 0x0b, 0x3d, 0x68, 0x62, 0xc7, 0x3d,
  0x28, 0x06, 0x37, 0xbd, 0xff, 0x74, 0xfe, 0x3d, 0x9a, 0x7c, 0x3f, 0x3d,
  0xaf, 0x06, 0x4e, 0x3c, 0xc1, 0xe5, 0x74, 0x3c, 0x2f, 0x13, 0x21, 0xbc,
  0xad, 0x03, 0x1c, 0xbe, 0x0c, 0x42, 0x74, 0xbe, 0x6f, 0xad, 0x3e, 0x3d,
  0x07, 0x69, 0xd3, 0xbd, 0x85, 0x59, 0xd5, 0xbd, 0x07, 0x8c, 0x0c, 0x3c,
  0xd2, 0x50, 0x76, 0xbe, 0x1f, 0x9a, 0xcc, 0xbe, 0x0c, 0x95, 0x16, 0x3d,
  0x18, 0xf8, 0xfe, 0x3d, 0x20, 0xa7, 0x17, 0x3d, 0xd7, 0x32, 0x38, 0xbe,
  0xf5, 0xb6, 0x55, 0xbd, 0xb9, 0x5a, 0xdb, 0x3c, 0x97, 0x58, 0x53, 0xbe,
  0xfe, 0xba, 0x78, 0xbe, 0x55, 0xd0, 0xb0, 0x3c, 0xdf, 0x45, 0x9d, 0xbd,
  0x01, 0x2c, 0xb8, 0xbd, 0xdb, 0xe1, 0xee, 0xbc, 0xa9, 0x64, 0x31, 0xbd,
  0x86, 0x40, 0xdc, 0x3b, 0xbf, 0x0d, 0x31, 0xbc, 0x89, 0x1b, 0xc9, 0xbc,
  0xb9, 0x83, 0x02, 0xbe, 0x0c, 0x71, 0xb5, 0xbd, 0x5e, 0x33, 0x2a, 0xbe,
  0x5c, 0x65, 0xbd, 0x3d, 0x3f, 0xe3, 0x5f, 0xbd, 0x20, 0x3d, 0x15, 0xbe,
  0x67, 0xb0, 0x29, 0xbe, 0x1a, 0x4f, 0x29, 0xbe, 0xd1, 0x21, 0x82, 0xbe,
  0x3c, 0xe3, 0x8b, 0xbe, 0xda, 0x45, 0xc9, 0x3d, 0x72, 0xde, 0x53, 0xbe,
  0xe8, 0x0c, 0x24, 0xbe, 0x09, 0xd5, 0xc6, 0x3d, 0x23, 0x87, 0x34, 0xbc,
  0x31, 0xac, 0xc2, 0xbc, 0xbd, 0x94, 0x54, 0xbc, 0x00, 0x42, 0x8b, 0x3d,
  0x35, 0x1f, 0xdd, 0x3d, 0x4f, 0x0a, 0xde, 0x3c, 0xb4, 0x16, 0xb7, 0x3d,
  0x7d, 0xc5, 0x41, 0xbe, 0x85, 0x79, 0xa3, 0x3d, 0x47, 0x5c, 0xd6, 0x3c,
  0x27, 0xf0, 0x11, 0x3e, 0xf7, 0x9d, 0x99, 0xbe, 0xb2, 0xb2, 0x47, 0x3d,
  0x5a, 0x10, 0x2f, 0xbe, 0x0e, 0x72, 0x25, 0x3d, 0xb2, 0x9f, 0x1f, 0xbe,
  0x85, 0xaa, 0xb3, 0xbb, 0xf9, 0xb6, 0xde, 0xbd, 0x68, 0x01, 0xeb, 0xbd,
  0x46, 0xe3, 0x9d, 0x3d, 0x73, 0xfd, 0x17, 0xbe, 0x0f, 0xa7, 0xed, 0xbb,
  0x0e, 0xe2, 0xb3, 0xbd, 0xa4, 0xbf, 0x89, 0xbe, 0xed, 0x83, 0x62, 0xbe,
  0x10, 0xfe, 0x29, 0xbe, 0x69, 0x29, 0x0a, 0xbe, 0x9b, 0x42, 0xb7, 0xbd,
  0x07, 0xf7, 0x69, 0xbe, 0xea, 0x78, 0xa8, 0xbb, 0xc1, 0xa0, 0x3e, 0xbc,
  0x2c, 0x15, 0x01, 0xbe, 0x41, 0xd1, 0x59, 0xbe, 0x5b, 0xef, 0x7e, 0xbd,
  0x44, 0x37, 0xa6, 0x3c, 0xd6, 0x5d, 0x4d, 0xbe, 0x7a, 0x1d, 0xc3, 0x3d,
  0x1f, 0xa7, 0x55, 0xbe, 0xbc, 0x4e, 0x8e, 0xbe, 0xfd, 0x3e, 0x4e, 0xbe,
  0x1e, 0xbd, 0x8f, 0x3d, 0x50, 0xd4, 0x4e, 0xbe, 0xa5, 0x75, 0xad, 0x3c,
  0x12, 0x9e, 0xe1, 0xbc, 0x71, 0x1c, 0x5b, 0x3d, 0xc9, 0xe7, 0x85, 0xbe,
  0x7f, 0x91, 0x05, 0xbe, 0x35, 0x03, 0x77, 0xbe, 0x92, 0x63, 0x9e, 0xbb,
  0x23, 0x37, 0x28, 0xbe, 0xfa, 0x32, 0x07, 0x3e, 0x15, 0x46, 0xab, 0xbd,
  0xad, 0xac, 0xb8, 0x3d, 0x10, 0xee, 0x59, 0xbd, 0x2e, 0xec, 0x3b, 0xbe,
  0x49, 0x05, 0x60, 0x3c, 0xe9, 0x5f, 0x3e, 0xbe, 0x2b, 0xfc, 0x4b, 0xbe,
  0xbd, 0x3f, 0x7b, 0xbe, 0x4a, 0xdb, 0x9a, 0xbe, 0xd0, 0x32, 0xe0, 0xbb,
  0xa6, 0xea, 0x65, 0xbe, 0x2f, 0x72, 0x79, 0xbe, 0x02, 0x80, 0xd9, 0xbd,
  0xc7, 0xb0, 0x97, 0xbd, 0xbb, 0xca, 0xcd, 0x3d, 0x49, 0x1e, 0x8e, 0x3d,
  0xd9, 0xe1, 0x4c, 0xbe, 0x5e, 0xe3, 0x17, 0x3d, 0x8d, 0x1a, 0xa4, 0xbc,
  0x07, 0x1b, 0x80, 0x3d, 0x56, 0x52, 0x62, 0xbd, 0xc2, 0x3a, 0xb0, 0xbe,
  0x8a, 0x97, 0xd6, 0x3d, 0x2b, 0xe1, 0xc6, 0x3e, 0x1c, 0xfc, 0x67, 0xbe,
  0xb3, 0x1a, 0x73, 0xbe, 0xa6, 0x62, 0x85, 0xbe, 0x06, 0xa1, 0x81, 0xbe,
  0x0b, 0xb4, 0x6c, 0xbe, 0x26, 0xed, 0xd7, 0x3e, 0x2f, 0x9d, 0x2f, 0xbd,
  0xb2, 0x22, 0x9d, 0xbd, 0x44, 0xcb, 0xa4, 0xbe, 0xc0, 0x8e, 0x3c, 0xbe,
  0x27, 0x07, 0xb5, 0x3b, 0xed, 0x77, 0xcf, 0x3d, 0xbe, 0xa5, 0x63, 0x3d,
  0x47, 0x98, 0x18, 0xbe, 0x88, 0x72, 0xb0, 0x3d, 0xe7, 0x37, 0x37, 0x3e,
  0x08, 0x96, 0x28, 0x3d, 0x76, 0x95, 0xb5, 0xbd, 0x44, 0xd6, 0xb6, 0x3d,
  0xc7, 0xfb, 0x82, 0xbe, 0x40, 0xd9, 0x65, 0x3d, 0xd1, 0x03, 0x28, 0x3e,
  0xa1, 0xe9, 0xad, 0x3d, 0xcc, 0x18, 0x18, 0x3e, 0xae, 0xb3, 0x67, 0xbe,
  0x91, 0xe8, 0x54, 0x3e, 0x2a, 0xb3, 0x4e, 0x3d, 0x37, 0x53, 0x11, 0x3e,
  0x0e, 0xfc, 0x0b, 0x3e, 0x55, 0xfb, 0xe2, 0xbe, 0xd9, 0x4f, 0x60, 0x3e,
  0xe7, 0xcc, 0xe4, 0x3d, 0x13, 0xa2, 0xcb, 0xbc, 0x06, 0x07, 0xa8, 0x3c,
  0x17, 0x5c, 0xc4, 0x3d, 0x0e, 0x95, 0x3e, 0xbe, 0xb7, 0x95, 0x7d, 0xbc,
  0xaa, 0xf4, 0x64, 0xbd, 0x25, 0xee, 0x9c, 0xbd, 0xb7, 0x11, 0x2f, 0x3e,
  0x1d, 0x6a, 0x4d, 0x3e, 0x47, 0xef, 0x6e, 0x3e, 0x15, 0x7e, 0x14, 0xbe,
  0xf3, 0xc2, 0x8c, 0xbd, 0x41, 0xd6, 0x16, 0x3c, 0x3f, 0x3d, 0xbd, 0xbe,
  0xaf, 0x96, 0xbd, 0x3d, 0xda, 0x22, 0x21, 0x3e, 0x6b, 0xc0, 0xa9, 0x3d,
  0x54, 0x45, 0x73, 0x3c, 0x60, 0x3d, 0x20, 0x3e, 0x08, 0xf3, 0x74, 0xbd,
  0xed, 0xc2, 0x09, 0x3d, 0xdd, 0x4f, 0x47, 0x3d, 0x82, 0xd4, 0xd7, 0xbc,
  0xb6, 0x58, 0x98, 0x3d, 0x03, 0x7d, 0x86, 0xbd, 0xf7, 0x56, 0x93, 0x3d,
  0x78, 0xb6, 0x18, 0x3e, 0xa6, 0xbd, 0x38, 0x3e, 0x50, 0x40, 0xed, 0xbd,
  0xbf, 0xed, 0xb3, 0x3e, 0xbf, 0xe7, 0xfd, 0xbc, 0x2b, 0x5f, 0xed, 0x3e,
  0x0c, 0x84, 0x52, 0x3d, 0xd3, 0x0a, 0x88, 0xbe, 0x00, 0x08, 0x3a, 0x3e,
  0x15, 0xcd, 0xa9, 0xbe, 0x27, 0x81, 0x0e, 0xbd, 0xb6, 0x31, 0x6d, 0x3d,
  0x1a, 0xb4, 0x20, 0xbd, 0xb3, 0xc3, 0xc9, 0xbb, 0x6f, 0x51, 0xe5, 0xbd,
  0x19, 0xae, 0xdb, 0xbd, 0x30, 0x3f, 0xd4, 0xbd, 0xc1, 0x06, 0x65, 0x3e,
  0xd2, 0x6d, 0x38, 0x3d, 0xd3, 0x8c, 0xca, 0x3d, 0x4a, 0x7f, 0xad, 0x3e,
  0x33, 0xa5, 0x80, 0x3e, 0xf5, 0xb6, 0xf5, 0xbd, 0x4e, 0x34, 0x41, 0xbe,
  0xa4, 0xf5, 0x5c, 0xbe, 0xf8, 0x58, 0xf3, 0xbd, 0x73, 0xad, 0x31, 0xbe,
  0x9b, 0x38, 0x7b, 0x3d, 0xcc, 0x43, 0x36, 0xbd, 0xcc, 0x4b, 0xa6, 0xbe,
  0x2b, 0x32, 0xb6, 0x3d, 0xe5, 0x47, 0xd6, 0x3b, 0xb2, 0x4a, 0xd3, 0xbd,
  0xce, 0x71, 0x93, 0xbd, 0xc9, 0x17, 0x1f, 0xbe, 0x4d, 0xd0, 0xe6, 0xbd,
  0xda, 0x20, 0xf3, 0x3d, 0x64, 0x71, 0x5a, 0x3e, 0x74, 0xca, 0x74, 0xbd,
  0x70, 0x24, 0xc7, 0xbe, 0x68, 0x3f, 0x57, 0xbe, 0x5c, 0x77, 0x2b, 0xbe,
  0x6c, 0x70, 0xbc, 0xbe, 0x2c, 0xf3, 0xb9, 0x3d, 0x53, 0x04, 0x3a, 0xbd,
  0x34, 0x04, 0x8d, 0x3e, 0xbb, 0xcb, 0x49, 0x3e, 0xeb, 0xa2, 0x31, 0x3e,
  0x65, 0x8e, 0xbc, 0x3d, 0x49, 0x50, 0xa8, 0x3e, 0x2b, 0xb6, 0x7b, 0x3d,
  0x14, 0x46, 0x2c, 0xbe, 0xb3, 0x41, 0x78, 0x3d, 0xa0, 0x60, 0xe0, 0xbb,
  0xf4, 0x42, 0x62, 0x3b, 0x82, 0xfb, 0xa0, 0x3c, 0x04, 0xb8, 0x0a, 0x3e,
  0x53, 0x75, 0x34, 0x3e, 0x48, 0xf5, 0x0c, 0x3e, 0xae, 0xd1, 0xba, 0xbd,
  0xb5, 0x5b, 0x00, 0xbe, 0xf8, 0xe9, 0x82, 0xbe, 0x5c, 0x83, 0xbe, 0xbc,
  0xe5, 0xf9, 0xae, 0xbe, 0xd0, 0xfa, 0x63, 0x3d, 0x3d, 0xe3, 0x9b, 0x3e,
  0x6a, 0x5e, 0x88, 0xbc, 0x65, 0x1d, 0x25, 0xbd, 0x56, 0x59, 0xd3, 0xbc,
  0x61, 0xb3, 0xcf, 0xbc, 0x9c, 0x2b, 0x04, 0xbe, 0x3c, 0xe7, 0x58, 0xbe,
  0x86, 0xfb, 0x9b, 0xbc, 0x95, 0xb0, 0xe7, 0xbd, 0x09, 0xb4, 0x5c, 0xbd,
  0xa8, 0xf3, 0x83, 0xbd, 0xe2, 0x21, 0xa0, 0xbd, 0x43, 0xd8, 0xdd, 0xbe,
  0x03, 0xc0, 0x5e, 0xbe, 0xb5, 0xa6, 0xb1, 0xbd, 0x1b, 0xea, 0xc6, 0xbd,
  0x5b, 0x51, 0x88, 0x3d, 0x13, 0xe9, 0x18, 0xbe, 0xd7, 0xc3, 0x27, 0xbe,
  0x8d, 0xd7, 0xc5, 0xbd, 0xa2, 0xcd, 0x03, 0x3e, 0xf5, 0xf8, 0x2e, 0xbe,
  0x79, 0x1d, 0x3a, 0xbe, 0x35, 0x6b, 0x23, 0x3d, 0xcc, 0xe4, 0x83, 0xbd,
  0x51, 0x39, 0x3b, 0xbe, 0xa5, 0x58, 0x36, 0xbe, 0x34, 0x03, 0x2e, 0xbd,
  0xeb, 0x19, 0x9f, 0x3b, 0x6c, 0x56, 0xb9, 0xbe, 0x40, 0x84, 0x2d, 0xbd,
  0x42, 0x82, 0xa0, 0xbd, 0xb6, 0x79, 0xa1, 0xbd, 0x6d, 0x5c, 0x3e, 0xbc,
  0x59, 0x04, 0xfb, 0xbd, 0x6d, 0xd3, 0x8f, 0xbd, 0xdf, 0x1a, 0xda, 0xbc,
  0x18, 0x5a, 0xda, 0xbd, 0xbc, 0xd7, 0xf3, 0xbc, 0xd5, 0xf7, 0xe9, 0xbd,
  0x59, 0xfc, 0xd3, 0xbc, 0x10, 0xaf, 0x3b, 0xbe, 0x46, 0x35, 0x42, 0xbe,
  0xa5, 0x14, 0x80, 0xbd, 0xa3, 0xa9, 0x81, 0x3d, 0xcf, 0x74, 0x2f, 0xbd,
  0x87, 0x08, 0x15, 0x3c, 0xe6, 0xc9, 0xcd, 0xbb, 0x77, 0xa2, 0x38, 0xbe,
  0xdf, 0xaf, 0x72, 0x3d, 0xe6, 0x06, 0x97, 0x3c, 0x16, 0x00, 0xcd, 0xbd,
  0x05, 0x63, 0x1c, 0xbd, 0x8f, 0x3e, 0x5f, 0x3d, 0xc0, 0xdf, 0x75, 0x3c,
  0x84, 0xd5, 0x28, 0xbd, 0xc0, 0x41, 0xf4, 0x3d, 0x0a, 0x0d, 0xc9, 0x3d,
  0x42, 0xaa, 0xeb, 0xbd, 0x48, 0x08, 0xe7, 0xba, 0xca, 0x46, 0xa6, 0xbd,
  0x49, 0x58, 0x03, 0xbc, 0xcf, 0x42, 0x0a, 0x3e, 0x91, 0x41, 0xa7, 0xbd,
  0xd9, 0x67, 0x05, 0xbd, 0x70, 0x93, 0x13, 0x3e, 0xbe, 0xb5, 0xf9, 0xbd,
  0xcf, 0x7e, 0x08, 0xbe, 0x35, 0xc6, 0xc3, 0xb8, 0x7d, 0x8e, 0x8a, 0x3c,
  0x7a, 0x5b, 0xa1, 0x3d, 0x7b, 0x0a, 0xce, 0x3b, 0x6d, 0xb7, 0x42, 0x3d,
  0x7c, 0x95, 0x8e, 0x3d, 0x73, 0x48, 0x0f, 0xbd, 0xc7, 0x16, 0xe7, 0x3c,
  0xba, 0x1e, 0xb3, 0x3e, 0x23, 0x59, 0x84, 0xbc, 0xfd, 0x54, 0x14, 0x3e,
  0xa3, 0x7a, 0x8c, 0x3b, 0x6f, 0x81, 0xf1, 0x3d, 0xa1, 0x0e, 0x06, 0xbd,
  0x1a, 0x30, 0x12, 0xbe, 0xdc, 0xc7, 0xa3, 0xbc, 0x2e, 0x73, 0x99, 0xbb,
  0x40, 0xc7, 0x7e, 0x3d, 0x0b, 0x9b, 0x80, 0xbc, 0xce, 0xbf, 0x49, 0x3d,
  0x59, 0xdd, 0x5a, 0xbd, 0x11, 0x63, 0xf6, 0x3c, 0x3e, 0x90, 0x27, 0xbe,
  0x66, 0xfd, 0xff, 0xff, 0x10, 0x00, 0x00, 0x00, 0x07, 0x00, 0x00, 0x00,
  0x14, 0x00, 0x00, 0x00, 0x2c, 0x00, 0x00, 0x00, 0x02, 0x00, 0x00, 0x00,
  0x10, 0x00, 0x00, 0x00, 0x70, 0x00, 0x00, 0x00, 0x17, 0x00, 0x00, 0x00,
  0x73, 0x65, 0x71, 0x75, 0x65, 0x6e, 0x74, 0x69, 0x61, 0x6c, 0x2f, 0x64,
  0x65, 0x6e, 0x73, 0x65, 0x2f, 0x4d, 0x61, 0x74, 0x4d, 0x75, 0x6c, 0x00,
  0xd0, 0xfc, 0xff, 0xff, 0xda, 0xfd, 0xff, 0xff, 0x04, 0x00, 0x00, 0x00,
  0x08, 0x00, 0x00, 0x00, 0xff, 0xff, 0xff, 0xff, 0x70, 0x00, 0x00, 0x00,
  0x00, 0x00, 0x0e, 0x00, 0x18, 0x00, 0x08, 0x00, 0x07, 0x00, 0x0c, 0x00,
  0x10, 0x00, 0x14, 0x00, 0x0e, 0x00, 0x00, 0x00, 0x00, 0x00, 0x00, 0x02,
  0x10, 0x00, 0x00, 0x00, 0x06, 0x00, 0x00, 0x00, 0x10, 0x00, 0x00, 0x00,
  0x2c, 0x00, 0x00, 0x00, 0x01, 0x00, 0x00, 0x00, 0x02, 0x00, 0x00, 0x00,
  0x18, 0x00, 0x00, 0x00, 0x73, 0x65, 0x71, 0x75, 0x65, 0x6e, 0x74, 0x69,
  0x61, 0x6c, 0x2f, 0x66, 0x6c, 0x61, 0x74, 0x74, 0x65, 0x6e, 0x2f, 0x43,
  0x6f, 0x6e, 0x73, 0x74, 0x00, 0x00, 0x00, 0x00, 0x38, 0xfd, 0xff, 0xff,
  0x42, 0xfe, 0xff, 0xff, 0x04, 0x00, 0x00, 0x00, 0x0c, 0x00, 0x00, 0x00,
  0x44, 0xe9, 0x2b, 0xbe, 0x93, 0xd1, 0xb2, 0xc0, 0xa7, 0x9d, 0xb6, 0x3f,
  0x26, 0xfe, 0xff, 0xff, 0x10, 0x00, 0x00, 0x00, 0x05, 0x00, 0x00, 0x00,
  0x10, 0x00, 0x00, 0x00, 0x44, 0x00, 0x00, 0x00, 0x01, 0x00, 0x00, 0x00,
  0x03, 0x00, 0x00, 0x00, 0x32, 0x00, 0x00, 0x00, 0x73, 0x65, 0x71, 0x75,
  0x65, 0x6e, 0x74, 0x69, 0x61, 0x6c, 0x2f, 0x64, 0x65, 0x6e, 0x73, 0x65,
  0x5f, 0x31, 0x2f, 0x42, 0x69, 0x61, 0x73, 0x41, 0x64, 0x64, 0x2f, 0x52,
  0x65, 0x61, 0x64, 0x56, 0x61, 0x72, 0x69, 0x61, 0x62, 0x6c, 0x65, 0x4f,
  0x70, 0x2f, 0x72, 0x65, 0x73, 0x6f, 0x75, 0x72, 0x63, 0x65, 0x00, 0x00,
  0xa8, 0xfd, 0xff, 0xff, 0xb2, 0xfe, 0xff, 0xff, 0x04, 0x00, 0x00, 0x00,
  0x40, 0x00, 0x00, 0x00, 0x9d, 0x05, 0xaa, 0xbe, 0x0c, 0x8d, 0x81, 0xbe,
  0x29, 0xda, 0x79, 0x3d, 0x0a, 0x44, 0x94, 0xbe, 0x3d, 0x51, 0x05, 0xbe,
  0x50, 0x16, 0x4f, 0xbf, 0xc9, 0x6f, 0x8f, 0xbe, 0xa4, 0x88, 0x09, 0xbf,
  0x38, 0x62, 0x0c, 0xbf, 0x0c, 0x79, 0xc1, 0xbe, 0x33, 0xca, 0xc6, 0xbd,
  0x14, 0xad, 0x33, 0x3e, 0x7e, 0xdd, 0xfa, 0xbe, 0xa6, 0xc9, 0x83, 0xbe,
  0xf9, 0x2a, 0xc3, 0xbc, 0x92, 0x74, 0x9d, 0xbe, 0xca, 0xfe, 0xff, 0xff,
  0x10, 0x00, 0x00, 0x00, 0x04, 0x00, 0x00, 0x00, 0x10, 0x00, 0x00, 0x00,
  0x44, 0x00, 0x00, 0x00, 0x01, 0x00, 0x00, 0x00, 0x10, 0x00, 0x00, 0x00,
  0x30, 0x00, 0x00, 0x00, 0x73, 0x65, 0x71, 0x75, 0x65, 0x6e, 0x74, 0x69,
  0x61, 0x6c, 0x2f, 0x64, 0x65, 0x6e, 0x73, 0x65, 0x2f, 0x42, 0x69, 0x61,
  0x73, 0x41, 0x64, 0x64, 0x2f, 0x52, 0x65, 0x61, 0x64, 0x56, 0x61, 0x72,
  0x69, 0x61, 0x62, 0x6c, 0x65, 0x4f, 0x70, 0x2f, 0x72, 0x65, 0x73, 0x6f,
  0x75, 0x72, 0x63, 0x65, 0x00, 0x00, 0x00, 0x00, 0x4c, 0xfe, 0xff, 0xff,
  0x56, 0xff, 0xff, 0xff, 0x04, 0x00, 0x00, 0x00, 0x40, 0x00, 0x00, 0x00,
  0xd8, 0x82, 0x28, 0xbd, 0x22, 0xf4, 0xaf, 0xbe, 0x49, 0x1c, 0x42, 0xbe,
  0x57, 0xb5, 0x3e, 0xbf, 0x83, 0x7a, 0x3c, 0xbe, 0x0f, 0x9b, 0x2a, 0xbf,
  0xea, 0x6b, 0x11, 0xbf, 0x10, 0x83, 0x1a, 0x3f, 0x8d, 0x66, 0x97, 0xbe,
  0xeb, 0xcf, 0x9d, 0xbd, 0xda, 0x41, 0x13, 0xbe, 0xc9, 0xcd, 0x5e, 0xbe,
  0xc4, 0xcf, 0x1b, 0xbf, 0x14, 0x92, 0xb5, 0xbe, 0x6c, 0x9a, 0x0b, 0xbf,
  0xfc, 0xdd, 0xa4, 0xbd, 0x6e, 0xff, 0xff, 0xff, 0x10, 0x00, 0x00, 0x00,
  0x03, 0x00, 0x00, 0x00, 0x10, 0x00, 0x00, 0x00, 0x48, 0x00, 0x00, 0x00,
  0x01, 0x00, 0x00, 0x00, 0x10, 0x00, 0x00, 0x00, 0x33, 0x00, 0x00, 0x00,
  0x73, 0x65, 0x71, 0x75, 0x65, 0x6e, 0x74, 0x69, 0x61, 0x6c, 0x2f, 0x63,
  0x6f, 0x6e, 0x76, 0x32, 0x64, 0x5f, 0x31, 0x2f, 0x42, 0x69, 0x61, 0x73,
  0x41, 0x64, 0x64, 0x2f, 0x52, 0x65, 0x61, 0x64, 0x56, 0x61, 0x72, 0x69,
  0x61, 0x62, 0x6c, 0x65, 0x4f, 0x70, 0x2f, 0x72, 0x65, 0x73, 0x6f, 0x75,
  0x72, 0x63, 0x65, 0x00, 0x04, 0x00, 0x06, 0x00, 0x04, 0x00, 0x00, 0x00,
  0x00, 0x00, 0x06, 0x00, 0x08, 0x00, 0x04, 0x00, 0x06, 0x00, 0x00, 0x00,
  0x04, 0x00, 0x00, 0x00, 0x20, 0x00, 0x00, 0x00, 0xd4, 0x50, 0x04, 0xbf,
  0x99, 0x1c, 0x2f, 0xbf, 0xc6, 0xaa, 0x14, 0xbf, 0x1e, 0xdc, 0xcc, 0xbe,
  0x81, 0x50, 0x33, 0xbf, 0x39, 0x50, 0xaf, 0xbe, 0x5d, 0xad, 0xcc, 0xbe,
  0x0f, 0xef, 0xe8, 0xbe, 0x00, 0x00, 0x0e, 0x00, 0x14, 0x00, 0x04, 0x00,
  0x00, 0x00, 0x08, 0x00, 0x0c, 0x00, 0x10, 0x00, 0x0e, 0x00, 0x00, 0x00,
  0x10, 0x00, 0x00, 0x00, 0x02, 0x00, 0x00, 0x00, 0x10, 0x00, 0x00, 0x00,
  0x44, 0x00, 0x00, 0x00, 0x01, 0x00, 0x00, 0x00, 0x08, 0x00, 0x00, 0x00,
  0x31, 0x00, 0x00, 0x00, 0x73, 0x65, 0x71, 0x75, 0x65, 0x6e, 0x74, 0x69,
  0x61, 0x6c, 0x2f, 0x63, 0x6f, 0x6e, 0x76, 0x32, 0x64, 0x2f, 0x42, 0x69,
  0x61, 0x73, 0x41, 0x64, 0x64, 0x2f, 0x52, 0x65, 0x61, 0x64, 0x56, 0x61,
  0x72, 0x69, 0x61, 0x62, 0x6c, 0x65, 0x4f, 0x70, 0x2f, 0x72, 0x65, 0x73,
  0x6f, 0x75, 0x72, 0x63, 0x65, 0x00, 0x00, 0x00, 0x90, 0xff, 0xff, 0xff,
  0x14, 0x00, 0x18, 0x00, 0x04, 0x00, 0x00, 0x00, 0x08, 0x00, 0x0c, 0x00,
  0x10, 0x00, 0x00, 0x00, 0x00, 0x00, 0x14, 0x00, 0x14, 0x00, 0x00, 0x00,
  0x14, 0x00, 0x00, 0x00, 0x01, 0x00, 0x00, 0x00, 0x20, 0x00, 0x00, 0x00,
  0x44, 0x00, 0x00, 0x00, 0x2c, 0x00, 0x00, 0x00, 0x04, 0x00, 0x00, 0x00,
  0x01, 0x00, 0x00, 0x00, 0x40, 0x00, 0x00, 0x00, 0x03, 0x00, 0x00, 0x00,
  0x01, 0x00, 0x00, 0x00, 0x0c, 0x00, 0x00, 0x00, 0x63, 0x6f, 0x6e, 0x76,
  0x32, 0x64, 0x5f, 0x69, 0x6e, 0x70, 0x75, 0x74, 0x00, 0x00, 0x00, 0x00,
  0x04, 0x00, 0x00, 0x00, 0xff, 0xff, 0xff, 0xff, 0x40, 0x00, 0x00, 0x00,
  0x03, 0x00, 0x00, 0x00, 0x01, 0x00, 0x00, 0x00, 0xfc, 0xff, 0xff, 0xff,
  0x04, 0x00, 0x04, 0x00, 0x04, 0x00, 0x00, 0x00
  // Paste the data of the char array in `src/model.cc` here
};

unsigned int model_tflite_len = 13052;// Fill the int in `src/model.cc` here